#version: 0.2 - Trained by `huggingface/tokenizers`
e n
e r
c h
Ġ d
e i
i e
u n
s t
i n
a n
Ġ s
i ch
Ġ a
ei n
e s
Ã ¼
Ġd ie
o n
Ġ w
Ã ¤
Ġ S
g e
Ġd er
a s
un g
a t
i t
s ch
Ġ v
un d
l l
t e
Ġ D
Ġ ein
Ġ A
Ġ z
Ġ n
Ġ b
a r
o r
t en
Ġ m
Ġ i
h r
Ġa u
g en
Ġ und
Ġ E
Ġ B
a l
e m
d er
Ġ M
Ġ in
Ġz u
Ġ h
Ġ F
s s
ei t
e t
Ġ f
Ã¼ r
d en
Ġ G
Ġ K
Ġ P
a u
Ã ¶
Ġ k
l ich
e l
u r
Ġd as
i er
ich t
b er
i g
t er
Ġ W
r o
Ġ V
i on
Ġd en
m en
Ġ g
Ġ ge
d e
a ch
Ġ R
i sch
i r
Ġ I
Ġ er
i s
Ġv on
o l
Ġv er
e h
b en
r e
Ġ an
o m
Ġi st
f t
Ġ L
Ġau f
Ġ T
Ġn icht
Ġ Z
Â »
Â «
u t
a m
ĠD ie
Ġ l
Ġf Ã¼r
en t
Ġ Â«
Ġm it
Ġs ich
w ei
u m
an d
k t
Ġ U
a g
Ġi m
ĠS ch
ĠS t
r ei
Ġ H
Ã¤ n
l s
Ġ N
o ch
l e
ĠV er
Ġein e
u s
Ġ o
c k
ĠI n
Ġ J
a hr
Ġs o
Ġb e
s e
r a
Ġd es
i k
e ll
Ġ es
i l
Ġ st
s en
Ġdas s
i v
et z
a h
e hr
Ġau s
Ġa ls
Ã¼ ber
e u
f f
ung en
Ġ un
Ġau ch
i m
Ġs ch
st en
Ġw er
Ġd em
ch t
ĠA n
Ġ p
an n
Ġs ie
in d
er n
s p
a b
Ġb ei
Ġw ir
Ġh at
Ġ 2
Ġw ie
at ion
n en
e g
i en
isch en
ĠF r
ĠP ro
Ã¤ t
Ġ Ã¼ber
ei l
ĠU n
Ġwer den
Ġ C
ĠE in
Ġ j
Ġv or
ch en
ie l
sch a
ss en
Ġ um
v er
ung s
ĠJ ahr
k en
â Ģ
Ã¼ n
l ei
Ġ 1
i gen
e d
Ġa ll
wei z
Ġ t
Ġs ind
g er
Ġi hr
es ch
u l
ĠE r
Ġ Ċ
Ġs ein
ier t
as s
ĠA u
ĠSch weiz
Ġ2 0
Ġ âĢ
Ã¶ n
r Ã¤
ĠâĢ ĵ
Ã¤ r
Ġein er
g t
en n
Â ł
i ll
ĠR e
z u
s er
scha ft
r at
a ben
Ġwir d
Ġo der
h n
h al
o ll
ier en
ĠE n
o p
i st
l a
an z
Ġ (
Ġm ehr
an t
Ġk Ã¶n
e st
a ll
ĠD er
ter n
m er
ĠD as
Ġa ber
isch e
or t
o t
u ss
Ġs ei
Ġ O
Ġn ach
w er
el t
ch e
Ġ r
eit s
Ġso ll
r it
Ġn ur
b t
der n
Ġein en
Ġa b
om men
lich en
in g
lich e
i ge
er s
g r
f en
ur ch
Ġzu r
Ġein em
ar t
ĠA r
ah l
at en
0 0
b e
i ss
Ã¤ hr
ĠG e
Ġd a
ĠA us
h e
o g
ĠV or
i z
Ġn och
ĠG r
Ã¶ r
en d
ĠB e
Ġ ent
l o
au s
Ġun ter
Ġm an
ol it
au en
Ġh aben
h l
eit er
Ġ Ã
ĠM it
an g
Ġzu m
Ġw ar
ĠG es
e ben
z ent
ĠZ u
Ġk ein
ĠB und
te t
ion en
Ġan der
Ġb is
h eit
st ell
f or
h er
ff en
g es
Ġa m
z en
b st
Â» ,
ĠK on
h t
Â» .
l ie
r u
Ã¼ hr
ĠSt a
ĠS p
p f
ier ung
st e
Ġ re
sch en
h en
im m
e ut
Ġd urch
b ar
Ġd ar
r an
Ġn eu
Ġ20 1
Ġdie s
b l
men t
Ã¼ ck
at iv
ĠPro zent
eh men
ĠBund es
Ġge gen
p p
Ġs ag
n er
as sen
ig er
ĠS ie
ĠFr auen
ge l
i ck
r ie
om m
ĠS o
ach t
eh en
lei ch
Ġb er
z i
Ġs p
er t
Ġz w
ch n
Ġ et
k eit
etz t
o k
d em
es s
d u
ĠE U
ut z
Ġm Ã¼
Ġw enn
ei ten
ĠU m
ĠM en
ĠB er
ĠI m
Ġk ann
Ã¤ l
l im
Ġw Ã¼r
Ġge w
ĠE s
p t
al en
k ommen
t eil
al t
ĠkÃ¶n n
ei gen
Ġw ur
s st
Ġet w
g lich
o s
ĠA b
ĠEn t
z eit
e kt
te l
sch l
b r
ab e
k l
r ag
ĠAr b
it Ã¤t
Ġw en
Ġdie se
ĠkÃ¶n nen
Ġg es
n ah
Ġw eiter
Ã¤n der
am it
h in
ĠAu f
g an
ĠB ei
al e
i d
au f
Ġv iel
ĠJahr en
ie le
V P
el bst
Ġz wei
au t
z e
ĠMen schen
Ġ 3
ich er
an ken
f e
Ġh in
Ġb et
Ġp ro
eu te
Ã¼ t
at z
Ġihr e
Ġk l
ge b
r i
ss e
t schaft
und en
r Ã¼
Ġkein e
Ġb es
f all
o b
ant on
ĠS te
olit ik
Ġ gen
e b
Ġg ro
ĠW ir
ur op
in anz
Ġb r
u ch
an k
hal ten
ers on
i bt
s am
sch ie
m e
a p
Ġk on
Ġs on
Ã¶ glich
ll e
ĠUn d
and el
Ġw oll
v or
u d
Ġbe st
sch ei
Ġ e
ĠSchweiz er
ĠSta at
for m
ar b
Ġl ie
f Ã¼hr
Ã¤n d
ativ e
Ã¤ re
ĠM ill
Ġim mer
ĠÃ ľ
k er
Ã¤ ch
Ġv om
it i
ier te
ra gen
a d
ĠR eg
m al
f Ã¼r
o hl
Ġg ibt
hn e
in der
ĠAu ch
Ġsag t
l au
el d
Ġj e
ĠG o
hal b
in n
an der
ĠZ eit
ra ge
ĠÃľ ber
i ssen
Ã¤ u
p ro
ach en
Ġh abe
k e
kt ion
ĠM ed
Ġw ill
ĠK anton
ch er
ĠA l
ier ten
rÃ¤ s
f er
en z
p er
Ã¶ s
f ahr
Ã¤ ss
ĠW er
Ġwie der
Ġs ol
Ġetw a
w ie
Ġw as
f ten
Ġwur de
ation al
l in
ĠK lim
Ġm uss
Ġd amit
Ġson dern
ĠP ar
Ġg er
Ġ 5
f l
z ie
ĠD aten
Ġall e
k te
Ġg r
ĠZ Ã¼r
at t
a st
wei se
st em
ĠF or
Ġ 4
w ick
k on
ĠL and
ĠFr anken
f ol
ĠD och
l er
tern ehmen
q u
ĠGr und
Ġein es
ĠS VP
f te
ĠP erson
Ġdie ser
ĠM ar
il d
ĠGo og
den t
ul t
au m
Ġhat te
y stem
ĠL eben
ĠP art
z t
ĠUn ter
ĠW elt
Ã¤l t
i c
l an
ĠN ach
w ar
zi al
Ġn un
ell en
ĠBundes rat
ĠGoog le
ig keit
g esch
m it
m us
o sten
ol og
Ġs eit
Ġo b
Ġ1 9
Ġsch on
Ġj ed
ll en
l and
ig t
Ã¶ l
Ġan ge
Ġber eits
o hn
eh t
Ġh eute
ĠB et
Ġd Ã¼r
ing s
in nen
Ġs elbst
n e
er g
a ge
w ir
Ġd ann
Ġin s
bl em
l ung
e gen
Ġge m
ĠG esch
Ġ eigen
re cht
ei st
kl Ã¤r
f r
eh n
n is
. Â».
s icher
or d
ss er
Ġ 6
in gen
Ġd eut
ĠmÃ¼ ssen
f Ã¤
is mus
ation en
a men
eu er
Ġer st
a c
Ġge ht
Ġh er
Ġander en
Ã¤n g
Ġp olit
t r
Ġw eil
Ġall er
ĠT h
Ġo hne
00 0
ĠwÃ¼r de
gan gen
om p
Ġzw ischen
ĠS u
is k
ĠF l
ahl en
ig ung
Ġw el
it al
Ã¶ ff
nah men
ĠE x
ĠwÃ¼r den
iti ative
ei ch
Ġsein e
ĠUn ternehmen
la ge
Ġv iele
ĠU S
ab ei
rit t
ĠArb eit
) .
e chn
f Ã¼
Ġsei en
iss ion
Ġihr er
w alt
ĠRe cht
ĠEin e
e ch
hal t
Ġneu e
ĠK inder
re chen
ĠGes etz
a gen
Ġver b
or den
Ġsag te
Ġg ut
iss e
Ġr und
rÃ¤s i
ĠF Ã¼r
Ã¤t z
ĠE urop
Ġall em
Ã¤n dern
sp iel
a kt
ei gt
s icht
Ġk Ã¼n
on der
ĠH er
. Â»
ĠSte u
Ġg esch
st o
Ġg anz
g leich
ĠA m
Ġw Ã¤re
Ã¼r ger
h Ã¶
Ġh Ã¤t
Ã¤ m
Ġwen iger
ĠG em
ge gen
el ig
z ern
Ġsoll en
s l
ch te
in de
ĠG en
at s
iv e
u st
ĠJahr e
et t
Ġst ar
or en
lich er
Ġdies em
Ġander e
Ġneu en
s etz
la ment
isch er
ĠDie s
ĠP olitik
an ge
ĠM ehr
am t
ell e
omm t
at er
ein e
ok rat
Ã¤ hl
Ġjed och
u g
ĠF rei
ĠkÃ¶nn te
as ch
ell schaft
d ings
Ġi h
ĠDie se
ĠKlim a
Ġ Ġ
ĠEn erg
Ġals o
ĠMill ionen
ĠM an
ĠM on
g ang
k s
w ander
ĠPart ei
Ã¶l ker
o ten
s u
k ehr
s atz
ĠG eld
ra ft
Ġb esch
o d
r en
Ġf est
Ġwoll en
ĠA ll
ĠW ie
i sten
Ġa r
Ã¤ ft
ĠD a
ĠÃ Ħ
Ġ ich
ĠWir tschaft
n ung
m in
r icht
ĠE l
ĠT eil
ĠArb eits
ĠG er
is ierung
Ġzur Ã¼ck
in den
Ġf Ã¼hr
am m
b eh
ra f
ĠPro blem
Ġh Ã¶
ĠGe gen
Ġbei m
o de
ĠD eut
f ach
an c
h Ã¶r
Ġl etz
ra d
ĠF inanz
Ġb lei
t ag
ĠM Ã¤n
ĠP r
ĠPerson en
ĠD enn
st Ã¤nd
en s
ik an
Ġd och
ĠZÃ¼r ich
d t
ĠW och
v on
ĠF all
e x
S t
st it
Ġzw ar
rÃ¤si dent
ge ben
il fe
Ġs ehr
Ġf or
h eits
Ġh ei
c o
Ã¼n d
imm t
Ġw icht
g aben
s or
h a
ĠSt ud
der t
es en
ĠE m
a de
Ġda zu
w end
schei d
gen d
Ã¶ff ent
i o
st and
z eu
es sen
w ach
ĠD em
ist er
e k
Ġge l
Ġg leich
Ġaus ge
g ung
sch utz
ĠA ut
ĠT r
omm ission
ult ur
Ġl ei
Ġein z
Ġd rei
ĠEn de
i a
re u
ĠF rage
am il
Ġihr en
Ġn ie
ĠV ol
Ġwer de
ĠM ass
ĠP rei
Ġbes ser
as se
t ro
ĠM ig
Ġden n
ĠIn ter
el n
rei ch
Ã¤hr end
n it
ĠPar lament
Ġein ge
ĠA ber
w ort
i f
ĠK ran
Ġver l
Ġbe z
Ġun ser
v Ã¶lker
ĠN ational
ĠC h
it ion
ĠVer b
gan is
al ten
ck en
a at
ĠÃ ĸ
al d
Ġk ommen
Ġda fÃ¼r
Ã¤n ger
Ġwar en
Ġkl ar
ĠW as
Ġw o
Ġsein er
Ġ 7
ien st
Ġ20 0
un ft
stell t
r ach
Ġm Ã¶glich
Ġ 8
Ġbe k
ĠU r
Ġwur den
Ġm achen
ĠEnt wick
Ġ -
Ġg ar
Ã¤ d
ĠSta dt
w eg
t z
ar d
ĠG ro
Ġk ommt
Ġetw as
nah me
Ġbr au
s y
ge m
s k
Ġl aut
la gen
ĠTh em
h Ã¤lt
Ġun s
s Ã¤tz
Ġ eben
d r
Ġo ffen
ann t
u f
au pt
st Ã¼t
Ġge f
ĠO r
mit tel
Ġf rei
w elt
ĠK r
i b
k unft
Ġh ier
ĠZ us
rei chen
Ġwel che
et er
Ġda von
e p
o st
Ġer n
ĠC O
Ġso wie
ver b
at e
w or
wer t
fall s
v ent
v est
sp rechen
h o
ein t
ĠB l
zu g
g ar
Ġdes halb
i ff
ĠSch ul
p l
ĠC hin
Ġdie sen
ĠSteu er
en ten
Ġw ei
er e
Q u
ĠSch w
D ie
ru ck
o ok
ich ten
Ġer klÃ¤r
ĠPro du
ĠGem ein
u te
at ur
der ung
Ġletz ten
a k
ĠUS A
Ġwen ig
ich te
H V
am men
Ġl assen
h ol
u pp
ĠEnerg ie
Ġgegen Ã¼ber
schl and
Ġd abei
Ġ te
schl ag
sten s
ĠmÃ¼ s
fol g
Ġh o
Ġst eht
scha ften
s o
an den
ĠK osten
icht s
ĠP l
ĠSt r
Ã¤ ter
ĠF ir
rÃ¤ ge
ĠkÃ¶nn ten
Ġe x
ĠBe vÃ¶lker
sl am
ĠA HV
ĠF ac
g lie
stit ut
Ġver gangen
Ġ Qu
ĠB eh
lich t
ĠT echn
ĠMed ik
Ġk aum
ĠW enn
ar kt
ĠL u
Ġw orden
Ġbis her
ĠAn t
Ġaller dings
ĠEl tern
en de
sch e
ĠDeut schland
o v
re ten
Ġw eit
il t
Ġst ell
lo s
schie d
b ur
en den
eh l
Ã¤r en
ges etz
kt iv
ĠK ir
au er
im men
ĠK am
ĠFor sch
Ġz eigt
gr und
ĠSo zial
ĠMar kt
I n
a pp
ĠBei spiel
ĠReg ierung
Ġb eh
ĠS elbst
ĠRe gel
ĠS ter
al ter
schei den
r ation
un kt
ech s
iv ers
ĠMÃ¤n ner
Ġsol che
o gen
m a
z w
Ġj en
Ġg ilt
au fen
Ġge st
i ar
Ġs el
Ã¶ t
lo ssen
Ġdies es
Ġar b
ass ung
ĠB r
ĠF ol
ei m
ge hen
v oll
D P
f rage
ĠF amil
ĠFr au
eb ook
u bl
ein en
Ġver m
ah men
schie den
Ġsch w
ĠFac ebook
al itÃ¤t
e cht
ĠZu dem
ĠB Ã¼rger
ĠP ol
ĠIn te
Ã¼n f
ĠhÃ¤t ten
) ,
sam men
o w
inde st
h and
ur s
stell en
arb eit
Ġzu sammen
imm ung
ĠhÃ¶ her
ro ffen
ft ig
Ġj etzt
Ġ eh
ĠD ass
lo b
ĠH in
ro tz
ĠB it
ĠR elig
ĠZ ahl
Ġsie ht
Ġlie gt
in e
ĠA t
Ġsoll te
b ung
co in
Ġein mal
ĠW ahl
Ġo ft
g abe
f rei
ĠR Ã¼ck
u ten
w ohl
Ġein fach
st er
is ik
ĠSch l
p h
ĠB ild
Ġre cht
nit t
k eiten
ĠP f
min ister
ĠkÃ¶nn e
Ġvergangen en
ro m
Ġstar k
ch ten
ur z
an ten
Ġdeut lich
ĠH and
i um
ĠK rit
ĠIn itiative
Ġ Ã¤
wer k
a ar
b et
c kt
Ġ Ã¶ffent
ĠB eg
ĠBit coin
b ie
ie ll
Ġm Ã¶
ĠD isk
lich keit
ĠThem a
fÃ¼hr t
Ġhei sst
ĠMedik amen
w eit
gen ommen
olog ie
ĠZ iel
Ġdar auf
ĠD amit
ĠM us
Ġih nen
Ġver sch
Ġbe g
Ġ 9
ĠK l
Ġall en
a aten
p r
le gen
ĠEnt scheid
br au
ĠEurop a
W ir
ru ch
ĠKran ken
ĠBevÃ¶lker ung
ĠGe w
w Ã¤r
al s
Ġnicht s
ant wort
Ġgro sse
n eh
Ġm ei
Ġw ohl
ge t
ll igen
rei bt
rit ten
ĠT ag
ĠO b
s m
Ġst att
en zen
ent r
ĠMit tel
ĠS ystem
Ġst ehen
wander ung
Ġder en
Ġz un
ĠChin a
z ahl
ĠM a
oll e
ĠZus ammen
k r
Ġw egen
ĠR ahmen
p rÃ¤
ĠS icher
Ġin tern
h ung
Ġer sten
iel t
er st
on t
Ġf inanz
b au
i der
ĠA ls
Ġf rÃ¼
Ġst Ã¤r
iar den
ĠP at
Ġ ch
Ġw Ã¤hrend
at te
it z
in gt
Ġh och
Ġf Ã¼nf
ĠGes und
Ġder zeit
ĠPr iv
ĠS P
ĠP h
Ġer halten
Ġl Ã¤
Ġbe f
i ent
j Ã¤hr
Ġw elt
Ġge hÃ¶r
n t
Ġden en
ĠL aut
Ġb el
urop Ã¤
o ur
ĠNational rat
u b
z Ã¼
Ġd e
ĠRelig ion
onder s
5 0
Ġbe d
ĠGes ellschaft
lie ss
ĠMass nahmen
ir ekt
ie g
Ġver st
Ġhat ten
ge w
ĠdÃ¼r fte
r Ã¤n
mer ikan
fahr en
2 0
un ter
ĠF Ã¤
g u
o te
ĠF DP
es se
ĠGr Ã¼n
i ber
Ġso gar
h aus
n isse
ĠUn ivers
z ei
ei d
Ġsch wer
Ġgro ssen
Ġm acht
ie ls
ĠZÃ¼r cher
ĠK ultur
ĠAr t
ĠStaat s
s uch
Ġ en
lie ssen
Ġger ade
j ekt
Ġl eben
Ġf ast
ĠFir men
Ġin d
Ġer hÃ¶
f ang
st ru
ach e
etz en
wer b
ĠStud ie
ĠL Ã¤ndern
um p
ĠH aus
stell ung
on d
sch nitt
ĠD ienst
ĠGro ss
w ill
ĠUm welt
b ed
Ġa l
ĠR enten
m arkt
n ehmen
w andel
ĠEntwick lung
d op
ĠD urch
le cht
ĠIn tern
ĠMill iarden
lau b
Ġmei sten
f ft
ei te
k ung
ĠG leich
ĠD e
ĠB ern
ativ en
Ġ1 0
a ffen
ach ten
is iert
b est
h Ã¤ng
k ungen
ĠW eg
ĠAl ter
ĠLeben s
ĠDem okrat
as st
ĠB ed
Ã¤ch lich
st r
Ġsein en
Ġwicht ig
ĠM in
Ġg lob
la st
ĠSt unden
ver sicher
ĠZu kunft
Ġl ange
ĠVol ks
ĠD en
Ġi hn
ĠB est
ier e
ĠI slam
rie ben
b ild
i de
Ġt un
ĠMed ien
ĠMehr heit
d ien
Ã¤ ten
ĠN icht
ĠmÃ¼ sse
ei cht
Ã¼ cht
fr ist
ĠK I
ĠC VP
Ġsein em
ĠL Ã¶s
Ġt eil
ei g
ges etzt
rie b
Ġeigen en
ĠL in
ĠVer t
Ġihr em
ĠA pp
ĠB esch
ĠM ann
Ġsch n
Ġweiter e
Ġzu dem
Ġ201 6
b es
rei ben
Ġt ie
Ġgro ss
ĠlÃ¤ sst
l ungen
iss ionen
du z
ĠR isik
ind et
teil ung
un ktion
ff iz
y pt
Ġge ben
Ġer sch
a z
os it
Ġkon n
ĠZ w
Ġm us
Ġbe gr
ĠM Ã¶glich
ĠW issen
ĠR icht
Ġ em
Ġl ang
ze pt
e der
Ġf ol
ĠN eu
ĠVer ein
sto ss
ĠSta aten
ĠA bst
ĠAn ge
Ġblei bt
ĠWoch e
Ġge hen
liess lich
ĠMit glie
i p
Ġauf ge
ck er
Ġbe w
l Ã¤nder
Ġ201 7
iv en
ĠPrei s
Ġd ort
ĠKrit ik
ĠGesch Ã¤ft
Ġviel en
Ã¤u f
ar en
ĠW ei
Ã¤hr ung
Ġv ier
ation alen
Ġgr Ã¶s
g lichen
ĠE he
ik a
er k
f ern
ĠS ol
ĠVer sicher
Ġent scheiden
Ġbe de
sp ro
ĠF ahr
ĠÃĦ r
Ġd ah
Ġent sprechen
Ġau t
setz en
ĠMig ration
Ġ201 8
i al
Ġre g
ode ll
sch ul
Ġk rit
vent ion
ĠIn vest
ff e
wir tschaft
ein ander
Ġsich er
Ġbei den
ĠWoch en
ĠP rÃ¤
ier ungs
ig ten
ĠN etz
ĠK ind
kt ur
sp iels
lei st
Ġkein en
bar e
Ġj Ã¼n
iz in
ats Ã¤chlich
Ġ or
Ġw issen
Ġall es
st ag
gr amm
ĠSp iel
h andel
Ġf inden
ĠRe form
k ten
ge ber
ĠD ar
ĠI de
ĠKlima wandel
i an
ĠVer f
Ġp r
ĠN utz
k ur
ll t
Ġl Ã¤nger
rei b
Ã¤t ze
ann te
Ã¼n st
Ġe uropÃ¤
ĠF ragen
ĠPol iz
spiels weise
ĠB eit
ĠR olle
Ġbrau cht
ĠD abei
o se
em ber
ĠInte lligen
Ġeh er
ĠS eit
te m
Ã¶r den
Ġih m
P ro
ger icht
ĠDaten schutz
tr em
ĠEx per
ei le
it u
und e
Ġpolit ischen
ĠK ommission
rei cht
ĠKon zern
ĠKr ypt
dop t
ĠVer gleich
schaft s
n app
ĠSt rom
ĠL ohn
lie gen
Ġ3 0
zie hen
ĠhÃ¤t te
ĠB as
ĠK unden
ĠkÃ¼n st
ĠmÃ¼s sten
ĠZ um
ien ten
Ã¤ss ig
ĠC hr
rie g
ĠdÃ¼r fen
f it
us st
Ġ201 5
Ġa merikan
Ġn Ã¤ch
and elt
ĠSt and
ĠKanton e
ig te
es halb
ĠkÃ¼n ftig
ĠIn form
Ġst aat
k am
ĠSt raf
Ġ1 5
Ã¶ sen
Ġblei ben
g st
ĠS icht
ĠD ig
Ġzu sÃ¤tz
ut zen
ĠSch utz
Ġso zi
Ġsoll ten
p ort
Ġ Y
und ert
der ungen
ch ter
ĠB es
ĠAus land
ges amt
h eiten
on e
sch t
ĠR es
ĠIntelligen z
at Ã¼r
Ġdar f
Ġdar Ã¼ber
y m
ag er
Ġst ellen
Ġbes onders
t w
ĠD eb
or gen
fÃ¼hr ung
Ġsel ber
Ġschn ell
ĠS on
ach te
le x
w ahr
Ġver k
ĠB is
Ġbei spielsweise
ut ter
Ġgr Ã¶
setz ung
it zen
ĠB el
Ġgew esen
ĠGen er
ĠKir chen
ĠPriv at
ĠF ach
ĠH u
ĠAn fang
gr iff
ĠTr ump
ein kommen
Ġz ehn
al y
Ġje der
ein er
Ã¼ hl
ĠGes icht
bar en
gu ment
ar te
Ġk omp
fÃ¤ h
sch w
Ġau sser
is e
ĠSt imm
ĠBer eich
Ġgel ten
ĠN e
ob il
st ieg
it Ã¤ten
ĠZ wei
iv i
Ġarb eiten
ĠM o
Ġver t
Ġr icht
Ġ5 0
zie h
er r
ss el
Ġg ab
m Ã¶
Ġver schieden
m ann
Ġs ehen
h ilfe
Ġda gegen
z te
ag t
Ã¤n de
ĠBe f
Ġdar an
ad t
an s
om it
Ġl eg
Ġwir k
ĠEin z
Ġt rotz
Ġv oll
Ġh Ã¤lt
op p
ĠGe walt
zeit ig
Ġstell t
bur g
Ġz eigen
im in
upp e
ĠDisk uss
st um
ation s
Ġent wick
sy ch
ĠMedikamen te
in itiative
Ġge b
ĠL Ã¤nder
ĠSt Ã¤nder
ers Ã¶n
Ġhin ter
ĠK o
w Ã¼r
ge h
ĠH o
rat eg
chn et
ĠFl Ã¼cht
ĠD on
ĠH och
gem ein
Ġn ehmen
ĠB ran
lich es
ĠVer l
ĠAn teil
ass ungs
Ġz ie
re g
Ġgen au
mal s
brau ch
f ess
Ġgem ein
m ung
Ġh alten
ĠL eist
wie sen
ĠSter beh
ĠVer kehr
iz id
omm un
Ġpolit ische
ĠstÃ¤r ker
ĠDemokrat ie
Ġander s
rÃ¤s ent
e y
ĠM ein
ig es
Ġwir tschaft
Ġ19 9
de ut
ah n
Ġbet roffen
l ungs
Ġd r
Ġsch reibt
Ġ1 8
Ġn ah
Ġgew orden
schl Ã¤
ĠfrÃ¼ her
ĠKrypt ow
E s
at or
Ġhin gegen
elig i
ĠIntern et
Ġf r
ĠV ater
ĠI hr
ĠN ur
iel en
ĠVor lage
alt ung
pro du
a ck
ĠPartei en
A n
reu ung
ĠW ert
e kte
g n
z ess
ĠF il
ĠK it
Ġk napp
Ġ1 00
enn t
ei tet
Ġab ge
ha ft
ĠG l
ĠP rÃ¤sident
Ġunter stÃ¼t
Ġeben falls
ĠCh anc
t lich
u ter
f in
Ġk urz
ĠLand es
ĠRecht s
ĠfÃ¼hr en
ie s
Ġso gen
Ġsol chen
ation ale
Ġweiter hin
z ung
Ġw ahr
ĠA sy
ĠM al
ĠR ei
st ehen
ĠT od
ra kt
isch es
ab kommen
zi p
Ġsp Ã¤ter
ap ital
ĠSterbeh ilfe
Ġgr und
ei den
ĠKon tro
Ã¤hr ungen
ĠPat ienten
Ã ©
Ġd isk
re ffen
ett be
f s
p ag
v ol
as e
Ġin ner
rei fen
ver t
du st
ĠK raft
Ġbek annt
ĠBl ick
Ġge be
sp ruch
o men
Ġab s
sor ge
om mer
ass er
ĠMus lim
a i
sch ein
Ġi r
ĠDie ser
wei sen
ĠFamil ien
D as
ĠIn iti
ik er
fÃ¤ lle
ĠTechn ologie
t o
t ler
Ġ 0
ĠV iele
ĠDeb atte
ĠE ben
ĠB au
Ã¤ch st
f ter
Ġb ie
ĠE igen
ĠV on
ĠT ran
ĠMen sch
Ġte chn
3 0
p unkt
Ġf ehl
Ġer war
Ġver w
Ġver lan
ĠAu ss
Ã¤hr lich
lo ck
her ap
ĠSu izid
ĠSchul den
Ã¼ d
ĠgrÃ¶ sser
au sen
st euer
ĠM ot
ann ten
Ġdar um
Ã¼ ll
am als
Ġ1 2
ĠChr ist
a den
j ahr
ĠĠ ĠĠ
hÃ¤lt nis
Ġd ig
ich tet
I ch
h aupt
st aaten
m an
ĠVer tr
Ã¤l fte
e ck
if iz
iell eicht
w and
er en
in es
ran ten
i kt
ĠM indest
Ġj a
ganis ation
o ss
t h
z us
ĠFr ank
ĠZu wanderung
ĠUnivers itÃ¤t
u elle
ĠIn s
Ġ2 5
k raft
n ern
ur o
sp ar
lau ben
Ġgem acht
ĠEinz el
p fen
ĠBer uf
ĠLÃ¶s ung
an de
au ft
Ã¶ st
ur teil
om at
le gt
Ġt atsÃ¤chlich
ĠBer icht
Ġeinz el
z ogen
Ġw Ã¤ren
au ss
Ġst eigen
ab il
ĠerklÃ¤r t
a in
r enz
Â Ń
men ten
Ġver z
hÃ¶ hung
Ġzun ehmen
ĠH Ã¤lfte
Ġdes sen
ĠEin kommen
Ġpro fit
Ġjen e
ettbe werb
m Ã¶glich
u tet
ĠF ort
Ġer ste
ĠH Ã¶
ĠH andel
ĠJ un
t s
rei s
ver kehr
ĠFl ug
in ter
ge stellt
eit ung
Ġver hin
Ġver fÃ¼
Ġgem Ã¤ss
Ã¤m lich
f ert
te te
itu ation
p olitik
art ei
n et
eh e
a wei
er dings
in ger
on nen
Ġin ter
le g
ĠC o
ĠJahr es
ĠGesund heits
is ieren
ĠL eute
ĠD rit
ĠH aupt
Ġr eligi
ĠSu b
p lan
Ġbest ehen
ĠPoliz ei
Ġp l
Ġre duz
lin e
Ġzu l
Ġbr ingen
Ġ4 0
onder e
ĠWirtschaft s
ĠfÃ¼hr t
u chen
w ur
it ionen
ĠL ie
Ġsch l
l i
s um
Ġ Ã¼
Ġn Ã¤mlich
Ġm en
al ien
re d
Ġander em
Ġein ige
ĠN ein
le chter
oll ar
ĠDig ital
ĠG rad
ĠC omp
ĠKranken k
Ġwelt weit
U n
r aum
v is
Ġk am
el s
ken nung
geb ot
ĠHu awei
ivi du
dust rie
ar f
Ġh eut
ĠW ar
ĠI ch
fall en
zw ischen
ĠA dopt
Ġf indet
Ġg lei
ĠEr n
Ġges ellschaft
ar i
ehn t
Ġschw ier
Ġem pf
ten s
ab hÃ¤ng
rag ten
recht s
Ġp er
pf ung
ĠFol gen
wei s
Ġ1 4
ĠH ier
ĠEr folg
wir kungen
Ã¤hl t
b eg
ar r
ĠP last
os ition
Ġch ines
V er
ĠB rÃ¼
ĠN ie
sp r
ĠAb kommen
Ġje den
ĠÃ¤ hn
g l
k osten
on om
ĠGe b
pf er
Ġwoll te
ĠÃľber wach
k a
iv er
Ġaus l
ĠFol ge
ĠSchl uss
sch ri
Ġb il
ĠV iel
ĠSt immen
ĠJ a
Ġunter schied
arb eiter
pro chen
Ġher aus
stitut ion
y s
ĠZ ahlen
ĠZ entr
ĠÃĸ ff
d urch
n ach
u cht
ei chen
ĠK at
wei l
ĠAn der
gr ess
br acht
Ġbest eht
o ber
ll ig
al isierung
Ġer w
Ġer folg
ĠÃ¼ber haupt
lau bt
ĠGesetz es
neh mer
ĠSp ort
Ġhin aus
ĠFor m
Ġern euer
e ten
h nen
ĠD ruck
or e
Ġm ass
Ġf unktion
ier ungen
Ġall ein
fer enz
zÃ¼ g
m ass
an gen
it ter
Ġein zu
ĠE uro
Ġh al
Ġp ersÃ¶n
ĠUnter stÃ¼t
ĠhÃ¶ ch
ĠmÃ¼s ste
kr et
p ot
ĠW eiter
ĠL e
ĠGe fahr
ĠD ollar
ĠAus lÃ¤nder
ĠPolitik er
ĠDiskuss ion
f eld
ĠPro jekt
wer ke
fl u
ĠO n
Ã¶r derung
ĠG ut
ist ischen
ord nung
Ġ6 0
inde stens
ĠAlter s
ĠDrit tel
i ft
ĠP lan
war e
ĠSicher heit
Ġpr iv
g Ã¤n
ss ystem
Ġg ute
Ġp osit
Ġ1 1
atÃ¼r lich
Ġb en
Ġges etz
Ġdah er
Ġd ro
ed izin
ĠMit te
ĠFamil ie
ĠnÃ¤ch sten
d ruck
Ġz ahl
Ġn Ã¶t
Ġunser e
ĠExper ten
d ie
z ul
ĠS inn
Ġj em
he f
k rÃ¤
Ġver su
Ġr el
ĠKon kur
ĠInter esse
Ġ qu
Ã¤t zen
rag t
ĠVol k
verb and
kam pf
ĠM utter
Ġin te
rÃ¤ gt
ĠGe f
Ġ3 2
kon zern
Ġins gesamt
ĠÃ¤ uss
ĠAsy l
p rÃ¼
et a
ĠSt Ã¤d
ver stÃ¤nd
ĠEurop Ã¤
ĠAll erdings
ĠDienst ag
Ã¤uf ig
a ment
ĠProdu kte
versicher ung
m ehr
ĠB ank
men te
ist ische
for dert
arb eiten
n al
u le
ar m
Ġer f
ĠSteu ern
Ġfor dert
ĠStÃ¤nder at
Ġdig it
or m
Ã¼r z
ĠN ot
Ã¶r de
gel t
r imin
ch es
Ġl in
k auf
ĠM acht
ĠW ort
gel n
Ġkonn te
ĠÃĦr zte
Ġs ex
ur e
ĠN un
all en
Ġ201 9
ĠWer bung
S ch
c e
op f
fÃ¼hr en
ĠPar is
Ġer z
Ġer reichen
Ġ1 7
b ei
ĠS en
ĠK rieg
ing ungen
ĠRegel n
w ohn
in zip
ĠG eg
Ġge t
ĠÃ¼ber zeu
ĠMit tw
schl uss
Ã¼t zen
sÃ¤tz lich
wÃ¤r mung
Ġdisk ut
ĠMittw och
en ze
Ã¼n den
ĠProblem e
st ra
Ġn immt
ĠW Ã¤hrend
ach sen
rit te
Ã¤nder t
fl uss
ĠGer icht
p ft
ser v
ĠLu ft
m Ã¤ssig
ĠW ill
Ġer reicht
rei che
ĠSp ital
Ġdar in
d es
r d
er v
Ġn ot
et ten
ĠN atur
ĠmÃ¶ chte
ĠgehÃ¶r t
m ut
Ġ Ã¶
ĠS ituation
ĠA bt
Ġm indestens
Ġwei ss
ĠForsch er
bes ondere
Ġl aufen
ra x
ern e
sp olitik
ĠReg ul
ubl ik
ĠMitglie d
ie f
in en
it ze
sch liessen
Ġf al
ĠW ettbewerb
ant eil
he or
Ġlie gen
ond s
Ġm ich
den ken
ĠSt at
ell er
sp h
ĠKanton s
ganis ationen
Ġm o
ĠM et
ĠBeh Ã¶rden
antwort ung
ĠeuropÃ¤ ischen
ĠDigital isierung
Ġs agen
sp l
lei sch
Ġ20 2
Ġsp richt
ĠÃ¶ffent lichen
rateg ie
wur f
and id
ĠJ ust
Ġaus zu
ĠFr eit
Ġ1 6
Ġmehr ere
ĠAr zt
ĠStud ien
upp en
ĠRenten alter
Ġfol gen
ĠW ider
ĠSch ritt
scha fter
ist isch
ĠGrund einkommen
age ment
bie ter
fess or
es ser
ĠW ohn
Ġsch eint
ĠAu ft
ĠRe st
Ġsp e
ĠEnerg ien
z in
ach stum
Ġan ges
Ġauf grund
rei ten
stell e
ĠMuslim e
Ġb ald
ĠB ot
Ġber eit
ĠMÃ¶glich keit
ĠS ommer
Ġzu vor
Ġg ing
ken nt
Ġbest imm
h undert
l assen
Ġd amals
st aat
al er
Ġan zu
ĠH a
ĠArbeit geber
ĠMig ranten
en nen
in dern
it e
ĠB o
Ġge z
ĠVer walt
schie de
Ġbede utet
m and
Ġa kt
ass ismus
ieren den
ĠBet roffen
ĠAt om
ĠComp uter
ĠBrÃ¼ ssel
n tag
Ġs etzt
Ġge he
Ġver ab
stell ten
ĠGemein den
M it
i pp
m art
u p
y p
Ġs echs
ĠK omp
ion s
le ben
Ġsch affen
ĠEin fÃ¼hrung
Ġeigen e
ĠMon tag
ĠIde e
ĠZ ur
ĠN och
ĠVer hand
Ġab zu
fÃ¼r wor
z ehn
ehr t
ĠEr fahr
ĠPart ner
ĠUr teil
ĠPlast ik
ĠD eshalb
ĠP aar
ĠW e
Ġl au
sp richt
ĠEr st
Ġwirk lich
Ġs etzen
ud get
Ġdeut schen
? /
a ff
ĠJ e
ver l
Ġzwei ten
echn et
ĠDies es
Ġamerikan ischen
f ragen
n ov
re cher
Ã¤n gt
ĠIn d
ĠEr hÃ¶hung
Ġzum indest
ĠHer aus
or it
br em
ĠPrei se
ĠgrÃ¶s sten
den ten
ĠJ u
end um
D er
u er
er ien
Ã¤ te
ar e
ĠGesch ichte
ĠKam pf
ĠRisik o
u fen
en te
sch er
ber g
ĠAn d
ĠVor schlag
Ã¤ng st
ĠUnterstÃ¼t zung
z eiten
Ġn eben
ĠE T
ĠB il
ur laub
re chte
lo ss
Ġ201 4
ĠJust iz
r on
Ġein igen
ik el
ĠGes prÃ¤
ĠKon t
ĠerklÃ¤r te
Ġho he
ĠHin ter
u ellen
ĠS uch
Ġh andelt
ĠK ern
ĠP er
ĠT reib
Ġmit tler
se qu
Ġsch liesslich
jÃ¤hr igen
ĠT rotz
fer endum
fÃ¼ gung
Ġlei sten
Ġbez ahl
ĠKir che
pot he
r Ã¤t
Ġge geben
ĠVer halten
Ã¼n de
ĠhÃ¶her e
ĠB uch
ĠEr geb
Ã¼ck en
Ġsozi alen
ĠFil m
ĠGeg ner
d et
f rie
Ã¤ h
or al
ĠR ed
Ġbe vor
ff ekt
zent r
fol gen
ĠFrei heit
rad ition
zeu g
ĠGross b
er in
st immung
ĠH eute
ed ig
ĠKon su
ner stag
ĠKanton en
ek ten
ĠFÃ¤ llen
A us
N ational
ge f
ĠD ro
ĠIn stitut
âĢ ħ
Ã¤hl en
stÃ¤nd ig
ĠKryptow Ã¤hrungen
P rÃ¤sident
ĠB ur
Ġin vest
i x
ĠS w
ĠK apital
ĠW achstum
ĠL ib
ĠBundes amt
ĠBer lin
bild ung
Ġmen sch
ĠOn line
Ġd ank
ie gen
ie lle
Ã¼ sse
ĠS mart
ĠG el
Ġdem okrat
gesch lossen
ie ss
ĠA kt
Ġn eg
ĠF ern
ĠW ohl
Ġl etzt
rei sen
ĠGe werk
lo sen
echs el
ĠGesund heit
ĠDon nerstag
schlÃ¤ ge
r as
Ġ ung
Ġw eg
or te
et s
Ġk anton
ĠI t
ĠT age
Ġwoll e
lin ge
ĠdÃ¼r ften
rax is
edig lich
f el
k ul
m el
ab l
ĠZusammen h
ĠVerf assungs
w art
Ġd irekt
in ge
Ġm ir
au r
Ġj Ã¤hrlich
Ġ20 20
klÃ¤r ung
ov ember
ĠApp le
Ġd ir
und er
or g
ber echt
Ġver d
Ġl iber
ĠN eben
ĠAus wirkungen
ĠGes amt
for derungen
chn ung
kon om
ĠFrank reich
x im
Ġa k
ĠV ort
ĠT em
rei se
Ġbest Ã¤t
ĠDa zu
ĠBild ung
Ġz eig
re und
ĠT est
Ġl ediglich
op h
Ã¤l ter
Ġges am
ĠPf le
ĠerhÃ¶ ht
Ġricht ig
Z Z
um an
sor gung
ll ung
te st
ar k
ĠW est
ission s
verb ot
haus g
ge st
ĠM Ã¤r
ĠV ide
ĠAn aly
Ġreg ul
un ge
Ġver Ã¶ffent
ĠEin satz
ist e
ĠAut o
Ġverhin dern
ĠTreib hausg
ĠIt alien
n ei
ĠUn o
wach sen
Ġgemein sam
ĠFort sch
o sen
s ehen
ei ls
in ner
Ġz entr
ĠM iss
eh ler
pf lich
ĠBer eits
schri ften
ĠS e
ĠW ahr
ĠSt ra
ĠIn dustrie
ot t
ĠZu gang
Ġpolit isch
Ġir gend
Ġjem and
i ffen
Ã¼ nen
Ġv ielleicht
ber eich
wend ung
b eit
d ung
Ã¼ h
Ã¤ cht
Ã¶ ss
ur t
Ã¤hr t
oten zial
geh end
ĠS eite
Ġin zwischen
Ġver ein
Ġeigen tlich
ĠKonsu menten
Ġk osten
a y
k Ã¼nd
Ġver f
ft ware
Ġre ag
Ġob wohl
ĠLu zern
un kte
te ten
ĠEn g
St aaten
Ġho hen
ĠerhÃ¶ hen
Ã¶ se
Ġ2 1
ĠKinder bet
ĠMÃ¤n nern
ĠgrÃ¶s ste
h em
Ġm eist
ss p
ag d
ĠRe ferendum
Ġganz e
Ġar gument
vent ionen
neh m
ĠKit a
ĠÃľberwach ung
Ġ el
ĠR at
Ġum f
Ġweiter en
ri fft
Ġ6 5
ĠInform ationen
ĠB lock
ken nen
ri ff
ĠAm az
Ġern st
ĠBeh and
Ġintern ationalen
ĠInvest itionen
ĠAmaz on
J ahr
st ritten
Ġw ider
ĠK om
ĠP ost
ĠVer fÃ¼gung
ĠKlim asch
s ystem
Ġz ahlen
ar ten
em ent
rei ber
Ġkl ein
frist ig
Ġgrund sÃ¤tzlich
b el
i le
Ġm ag
wei le
Ã¤n den
eu ern
Ġ1 3
ĠGr uppe
Ġdurch aus
Ã¼t z
sicht lich
ĠKran k
stru ktur
ĠLib ra
d ienst
en ken
Ġw achsen
Ġein st
ĠF leisch
Ġer fÃ¼
ĠZ war
ĠN acht
ik en
eg an
Ã¤t ig
ieren de
Ġent st
Ġ19 8
ĠGem Ã¤ss
ĠEm issionen
ĠDurch schnitt
y n
ĠK indern
ĠW asser
ĠR assismus
ck e
imm ungen
br ingen
Ġ8 0
Ġgef Ã¤hr
Ġausl Ã¤nd
ift ung
g reifen
p olit
r ichten
Ġihr es
Ã¶r der
ĠmÃ¶glich st
ĠMedikamen ten
ĠGew inn
h ei
ĠF Ã¼hr
Ġf Ã¤
Ġk Ã¼rz
ĠAn gst
Ġ2 4
weiz er
Ġ20 30
lo hn
ĠMit arbeiter
Ġbr ingt
Ã¼nd et
Ġglob alen
Ġverlan gt
f ir
ĠM odell
Ġver pflich
Ã¶r per
ĠPl atz
ffiz ien
sph Ã¤re
g ern
m ien
s etzt
ĠA pothe
wÃ¤r t
ĠgehÃ¶r en
ĠBef ragten
J Ã¤hr
K on
b ank
f il
ĠS il
ĠG eh
el fen
ann ien
rit annien
bl ick
andel n
qu ote
ĠEm issions
ĠSmart ph
z ember
ĠA fr
ĠO der
stell er
ru ktur
Ġganz en
ĠMon aten
ĠÃĦ n
ĠBeit rag
schafts urlaub
zÃ¼g igkeit
t ra
ens ion
Ġsel ten
ĠSon ntag
wÃ¼r d
w ahl
ĠS ex
Ġn e
ĠW ahlen
ĠAu sser
ĠUm setzung
ĠStr assen
pag ne
S p
it y
ĠD ort
Ġg Ã¼nst
ĠL age
ĠT el
olog ischen
ĠRisik en
ĠNutz er
ĠZusammenh ang
ch nen
an ach
an ger
Ġm edizin
ĠB anken
ĠM obil
Ġj unge
Ġdeut sche
Ġlei cht
ĠWei se
tem ber
ĠGrossb ritannien
at isch
Ġb in
ĠF uss
Ġf ort
ĠK opf
ĠP raxis
ĠEin fluss
ist or
ers eits
Ġins besondere
Ġher vor
Ġbesch Ã¤ft
ĠVerb ot
vis ion
Ġmus ste
Ġaut omat
ĠJun i
ĠÃĸff ent
ie w
ĠW eil
ĠEr d
ĠO pfer
ĠGr Ã¼nen
ĠKon fl
Ã¤m pfen
ĠSicher heits
ĠBas is
mÃ¶ gen
F r
ĠM asch
ĠAn spruch
be w
wend et
tro ll
if ik
weg ung
ep tember
Ġde fin
ĠRes ult
ĠNe w
ĠFreit ag
frie den
ĠP ass
ĠW eb
ĠR aum
ĠT w
b Ã¼rger
b ruch
ur en
Ġver urs
ĠT Ã¼r
Ġl Ã¤ngst
iel ten
Ġsp ielen
ĠSte llung
ĠReg ierungs
ren ten
bie ten
jÃ¤hr ige
Ġbil ater
brem se
G es
I C
ĠS am
et ter
ro p
ĠT e
Ġbe ein
ger echnet
Ġr asch
olog ien
Ġen g
ĠIniti anten
ĠHÃ¶ he
ĠNie der
ĠRed u
ĠKinderbet reuung
u ll
v o
is ierte
ĠVer hÃ¤ltnis
Ġbe sten
sp ort
Ġson st
Ġje de
ĠAbst immung
A b
Ġ Ã¤ndern
Ġa ktiv
ĠK or
Ġan geb
Ġauf zu
ĠH eim
ĠJ ul
Ġvor ge
Ġgen ug
Ġjed es
Ġ7 0
Ġstell te
Ġeinzel nen
ĠSw iss
ĠS Ã¼d
ĠR u
Ġsch war
ĠAn gebot
ges prochen
ĠMar k
ĠEx it
Ġgleich zeitig
ĠEben e
Ġw eder
ĠM inder
ĠF akt
ĠL ehr
ĠRe p
lo se
ges ehen
Ġeben so
ĠRicht er
vert rag
K ommission
k sam
Ġsp rach
teil t
fol gt
ĠVert rÃ¤ge
ĠGesicht ser
ĠJu gend
ĠKlimasch utz
o ssen
p art
ĠP ap
Ġp rÃ¤sent
Ġt ragen
Ã¤u ft
Ġwieder um
euer ung
ĠjÃ¼n g
ĠkÃ¼nst liche
Ġzul etzt
Ġnot wend
h il
Ġ ro
Ġ Ã¤lter
ch ain
Ġs inn
or k
Ġer he
Ġo ffiz
Ġsch Ã¼tzen
sp rach
arb eitet
ord ne
sto ff
Ġnie mand
Ġprofit ieren
k eits
Ġs etz
Ġa t
Ġf l
ĠW Ã¼r
Ġp rakt
ĠAus gaben
for men
ĠGegen teil
ho ben
ĠGemein de
ĠForsch ung
Ġtie fer
ĠChanc en
Ġinter ess
a un
en c
un ternehmen
ĠD el
ĠSch on
ĠIn f
ul d
ĠBe deut
ĠSp rach
per atur
halt ung
ĠDa fÃ¼r
ĠFinanz ierung
Ġkommen den
ĠMÃ¶glich keiten
ĠnÃ¶t ig
e v
h aben
j en
Ġ end
st adt
Ġi ll
Ġge stellt
Ã¤nder ung
Ġkonn ten
ĠZw ischen
ĠET H
E m
a fft
l ass
m asch
t ragen
Ġa cht
ĠS ache
Ġn utzen
Ġg erne
ĠVer wahr
Ġp ass
ind ung
ĠÃ¼ber ras
anz en
og raf
Ã¼ck sicht
Ġwoll ten
ĠArbeit nehmer
leist ungen
Ġor ganis
Ġglei chen
a ktion
w o
ie d
ĠB Ã¼r
Ġin dem
Ġer le
re b
ĠL eg
am er
Ġr es
Ġbesch lossen
ĠInte gr
irekt or
ĠBran che
ĠMein ung
h Ã¤
j ekte
s eit
ĠS eptember
al i
Ã¼r f
au se
ĠV ier
um s
ĠN ZZ
Ġbe ant
Ġbe kommen
hal te
lie ben
bar keit
Ġ201 3
utz t
ri pp
Ġbez ei
Ġverschieden en
in s
an a
ĠS eiten
Ġf Ã¼hl
Ġge plan
ĠI st
ĠN amen
ĠIn nov
ĠBei m
Ġgen er
ĠBet rieb
ĠTh om
Ã¤hl er
ĠAnt wort
ĠKrankenk asse
Ġrel ativ
G r
ĠK oll
Ġer h
Ġer laubt
ĠN or
ĠVer antwortung
iv il
iz iert
ive au
ĠPersonen frei
Ġzun Ã¤chst
Ġinner halb
ĠAuft rag
e te
h le
Ġn atÃ¼rlich
ĠK andid
ach tet
ĠR ad
ĠL iber
ĠVer such
ĠIn flu
ĠPro gramm
Ġbet rach
Ġgen ommen
zie ll
our nal
ĠFÃ¤ lle
Ġentwick elt
Ġzie hen
ĠBedeut ung
f inanz
g liche
w issen
ĠS an
ar lament
Ã¶r ung
ĠHer bst
ĠBran chen
ĠIhr e
ĠAdopt ion
ĠThom as
i ment
l assung
r es
Ġb Ã¼rger
ĠJ ob
ĠGr enz
ĠEntscheid ung
auss etz
ĠÃ¼berzeu gt
a sten
or n
or gt
ĠE le
Ġl e
ern en
rÃ¤ um
Ġnach halt
ĠBer at
gang s
L IC
a v
Ġ X
un sch
es ent
it el
ĠA d
ĠN ovember
ĠAn gaben
ĠAu ssen
rÃ¤ gen
Ġwen ige
ĠInter essen
ĠFir ma
ĠzusÃ¤tz liche
ĠChanc e
Ġzunehmen d
wohn er
Ġak zept
LIC K
. )
u ar
st ein
ĠD i
Ġh Ã¤ufig
ĠW o
kt ober
ĠSt att
se x
ĠJahr zehn
Ġkl eine
Ġfor der
Ġbed ing
ĠGesichtser kennung
an st
Ã¤ den
at ten
ĠD ep
ĠK auf
au sch
au ern
ro s
ĠV oll
is ierten
Ġver n
ĠN ord
ĠJ an
Ġp aar
ĠEr wÃ¤rmung
ĠAl tern
Ġnah e
g orit
at hol
Ġb em
Ġzu g
Ġge fÃ¼hrt
Ġso wohl
Ġp rÃ¼
ĠPro fessor
Ã¶r t
Ġent gegen
sam m
Ġerst er
ster reich
ĠDe zember
gorit h
. ,
Ã¼ l
Ã¤ kul
ĠS Ã¤u
Ġun abhÃ¤ng
Ġp sych
all ey
ĠO ber
Ġdurch schnitt
ĠIm pf
ĠAuf gabe
ĠMehr wert
Ġtie f
ĠM il
ent wick
Ġun ver
Ġsch lecht
Ġum stritten
gr iffen
Ġzwei te
Ġunser er
ĠStr eit
ĠMa i
ĠGrÃ¼n den
Ġbew usst
ĠKontro lle
ĠSchulden bremse
ĠSub ventionen
rÃ¤t in
ĠPersonenfrei zÃ¼gigkeit
k ran
sch uss
ĠB udget
Ã¶ hn
stell te
rÃ¤si denten
akt ionen
ose x
zieh ungen
Ġsogen annte
l Ã¤ndern
ie llen
Ġs in
ĠB re
ĠP sych
ĠP ension
ber t
Ġer hÃ¤lt
Ġ2 3
ien en
ĠVor stoss
bl ig
Ġsp ielt
ĠIm mer
ĠUnter schiede
Ġverb oten
ĠĠ Ġ
ĠForsch ungs
Ġeh em
ĠÃ¶ffent liche
ĠWissen schaft
Ġkomp l
ĠKonkur renz
f ung
w egen
on en
Ġb l
Ġf Ã¶r
ĠV is
ungs initiative
kl ar
Ġbet ont
ĠSte llen
ĠPr inzip
In itiative
ĠĠĠĠ ĠĠĠ
ĠÃĸffent lichkeit
Ġs omit
ier ter
ut ion
wei ls
ĠSt art
ab is
vor sorge
Ġje weils
ic kt
ĠPh il
Ġsogen annten
ĠVerhand lungen
ĠkÃ¼rz lich
ĠRedu ktion
x it
Ġ rad
Ġm ein
ĠB en
om in
Ġo f
ĠIn dien
Ġbei de
ist ik
Ġsoll e
gr uppe
ĠAr gument
ĠBe fÃ¼rwor
Ġander er
pf licht
ĠUm gang
Ġ19 7
ho f
iff er
ĠProdu ktion
Ġabs ol
krÃ¤ fte
b il
h ard
w esen
Ã¼ m
it Ã¤r
eh in
ĠH e
ĠN eg
Ġso zial
sp iele
ĠAu gen
hn ehin
Ġab gel
dem okrat
ĠFor derung
Ġfor m
Ġglob ale
E in
s ein
u ell
un k
Ġn ationalen
ar ch
Ġi slam
ĠM erk
ĠK ommun
ĠEin sch
ĠGe bur
Ġsp rechen
ĠMon ate
wander er
ĠFlÃ¼cht l
r ess
ĠA ktiv
ig n
ĠV alley
ĠU hr
ĠAn bieter
Ġkl einen
Ġgro sser
ĠPrivat sphÃ¤re
herap ie
Em issionen
Ġd u
Ġv Ã¶
el ten
ĠR o
ĠL Ã¶
wei ten
ra in
ran che
Ġgew isse
Ã¼t zt
ĠTag es
ĠGesprÃ¤ ch
ĠBlock chain
n Ã¼
z ig
z ahlen
Ġ ur
Ġein gesetzt
is en
eh mer
ĠAn rei
op ul
ĠBundes ver
fol ge
ĠStr asse
ĠBeg inn
ĠVater schaftsurlaub
Ġdiskut iert
a ir
g te
ge fÃ¼hrt
ĠD ann
wer ken
ic e
ĠjÃ¼n gst
ĠunterstÃ¼t zt
ĠfÃ¤ llt
d acht
k o
m achen
ĠS zen
Ġn ational
ĠI dent
Ġan t
Ġbe ob
ĠAn liegen
ĠGr enzen
Ġeinge fÃ¼hrt
Ġbrau che
err or
ĠTw itter
e den
o cker
t ur
et te
ĠZ iele
ann abis
ĠÃ¼ber w
Ġda durch
ĠVor aussetz
iz it
Ġher r
Ġwicht ige
ĠPrÃ¤ mien
ĠBeit rÃ¤ge
ym p
Ġtrotz dem
red it
Ġheut igen
ĠMÃ¤r z
b lich
c t
ĠG ed
ra ktion
ĠEin nahmen
ĠRe de
ĠWer be
ĠPerson al
ic on
beh Ã¶rden
Ġbez ahlen
Ġverst Ã¤r
ĠBas el
ĠLeist ungen
Ġbie ten
spr Ã¼n
R e
r ich
st Ã¤t
sch au
ĠW or
Ġver s
Ġaus geb
ĠO pt
for n
ru g
Ġbet eil
ĠMed izin
mittel n
Ġind ividu
ĠZw eck
ĠMitglie der
Ġstaat lichen
ĠHo ff
ĠÃ¼ br
Ġschwier ig
Ġdigit alen
ĠTem peratur
ali forn
W enn
â Ĥ
ie ten
Ġs ub
Ġb loss
Ġm achte
Ġh uman
ĠT ier
Ġl ok
anz Ã¶s
omm e
Ġber uf
ĠLin ie
Ġsozi ale
Ġbie tet
d aten
o x
p rÃ¤sident
ĠD eta
ar ma
de ck
ft ige
ag n
ra struktur
Ġ20 50
Ã¶r sen
eist er
Ġoffen bar
ĠhÃ¶her en
Ġentsprechen de
Ġerwar tet
ĠVer mÃ¶gen
ĠJ agd
Ġbe fÃ¼r
ĠPro zess
stell ungen
Ġwen igen
ingen d
fÃ¼ hl
ĠArbeits markt
ĠTr end
reu ungs
fÃ¤h ig
g lei
i at
n issen
Ã¼ ssen
au p
Ġan st
ĠVer gangen
ĠC annabis
Ġent spricht
ĠBundes gericht
vor schlag
ĠGesch lecht
ode lle
ĠWahl kampf
Ġintern ational
Ġzeig te
h anden
hr en
ĠM assen
ĠP unkt
Ġge k
Ġge kommen
Ġver antwort
ĠZ ul
ĠH il
ĠIn land
ru ar
eut r
ĠUm frage
erson en
lin gen
Ġreduz ieren
National rat
ĠAusser dem
ĠBre xit
n ungs
Ġ #
ie den
ĠS k
Ġau ss
ĠE ind
ft igen
Ġo hnehin
lei tet
Ġwar um
ĠSp itzen
zi f
Ġges ehen
ĠWir kung
ĠEm pf
ib il
ĠSchw eden
ĠBeg riff
ĠGrÃ¼n de
ĠBed Ã¼rf
mÃ¶ glichen
Ġfunktion iert
ĠWider stand
Ġmittler weile
d essen
u men
Ġb rit
ĠT agen
ĠT error
sp ekt
ĠC hef
Ġpro duz
ĠVerb and
ĠQu alitÃ¤t
ĠTechn ologien
Ġerw Ã¤
Ġinte gr
o ff
t liche
v iew
st immen
Ġs orgen
Ġin form
Ġh elfen
ĠG anz
ĠG est
ver teilung
ĠRe chte
ess ern
olog ische
dr Ã¼ck
Ġind es
ĠVide o
ĠInflu enc
Ġehem al
an ad
Ġw Ã¼n
Ã¤ st
ĠW a
is on
Ġt radition
ĠO ffen
Ġent schieden
eb ruar
Ġversch w
rÃ¤n kt
ond on
Ġ199 0
blig ator
ĠNeg ativ
sch ung
ar zt
ĠM art
ĠP ublik
Ã¤n e
ahr en
Ġj ungen
scha ff
ĠO st
ast ung
Ġgar ant
ĠProdu kt
Ġex trem
ĠAnge stellten
griff e
schein lich
Ġchines ischen
Ġgez eigt
Ġsinn voll
ĠIntegr ation
b all
e w
ei ger
ie t
on es
ge walt
ar itÃ¤t
Ġh iess
ĠF ehler
Ġf oss
ĠK n
ĠK ripp
Ġver wei
ĠH ilfe
Ã¤t zt
ĠÃ¼ber nehmen
Ġkon troll
kon ferenz
ohn t
eich nen
ĠDenn och
ĠWar um
ĠBot schaft
ĠBetroffen en
ĠDeta il
V or
b liche
un ehmen
Ġf allen
ig keiten
Ġg uten
Ġl anc
ĠVer fahren
ĠJ ournal
ĠAu g
Ġgew Ã¤hr
Ġgen Ã¼
Ġ4 5
gesch lagen
Ġverschieden e
Ġill eg
ĠEle kt
g ut
m iss
ie ht
Ġw est
Ġz eit
ĠB i
ĠM io
ber icht
ĠR om
eh nen
ĠL ondon
Ġun ge
ĠAn sicht
ĠÃ¼ber n
ver fahren
ĠO hne
Ġre gel
Ġgew alt
att form
richt ung
Ġbesser e
ĠEntwick lungs
ĠThem en
ĠY ork
ĠTreibhausg as
Jahr hundert
âĤ ¬
f ort
an te
ich ert
ar g
or ganisation
ĠP olit
Ġk ultur
eh m
ĠH al
Ġaus gesprochen
ĠZu g
Ġges p
ĠGer ade
ĠMass nahme
stra fe
u ft
Ã¤ chen
ĠB LICK
Ġ( Â«
tern ehmer
ĠVor sorge
ges ellschaft
Ġre al
Ġdar unter
ĠSte lle
lau fen
ĠBet reuung
Ġwicht iger
ubl in
ĠRicht ung
vol ution
ĠVertr auen
ĠS itz
ĠF ebruar
ĠAn p
eil en
Ġkein er
ĠSo ftware
Ġlie ss
anc e
ĠPf licht
Ġwissen schaft
ĠVerf assung
at ik
ar n
ig ungen
ĠW ol
ĠR h
ĠR und
rei tet
Ġ2 8
scha ffen
Ġber Ã¼cksicht
Ġkon k
Ã¤u b
ke pt
Ġnie dr
Ġbeh aup
ĠArt ikel
leist ung
Ġverz ichten
ĠZentr al
ĠAlters vorsorge
ĠRegul ierung
Ġ c
Ġs enken
ĠR uss
Ġver ank
Ġst and
Ġst eigt
ann e
ind ust
Ġum ge
Ġre chnen
Ġgegen wÃ¤rt
Ã¼t ter
ĠArbeit spl
Ġverb unden
Ġverl oren
Ġbrau chen
Ġteil weise
Ġmus lim
ĠKit as
ĠAbt reib
ĠbestÃ¤t igt
ĠSÃ¤u le
f Ã¶rderung
m acht
und es
Ã¤n n
Ġt o
ĠGr enze
Ġ201 1
inn t
ĠWer te
Ġfest ge
ĠzurÃ¼ck ge
ĠParlament s
weg s
zieh ungs
ĠVerkehr s
ĠStÃ¤d te
ĠSil icon
ĠWeb s
indust rie
u k
en kt
ch mal
in a
gen Ã¶ss
ĠG ott
ĠK urz
ĠIn stru
rat en
Ġges etzt
Ġkl einer
ĠHer r
ĠGen f
amil ien
Ġfr em
ĠVerwahr ung
h eim
u h
u ver
Ġd anach
ĠD an
ĠP osition
Ġk ennt
ĠW Ã¤hler
Ġg l
ĠL ang
ĠZ ivil
ĠH altung
Ã¤n gen
ĠVer nehm
ĠJ etzt
op ing
ĠUnter schied
ĠAll tag
ĠVert rag
ĠKonzern e
fÃ¤h igkeit
Ġerwar ten
ĠÃ¤hn lich
ĠAnder s
ĠErfahr ungen
ĠJan uar
ĠvÃ¶ llig
b uch
ge ordne
Ġv egan
ĠM Ã¼ll
am e
ĠSt re
op er
ĠO ktober
wer te
for der
Ġges agt
ĠGer ichts
ĠUr s
bed arf
ĠunterstÃ¼t zen
ĠWill en
a xim
k Ã¤m
p ekt
s inn
u che
un st
ĠD ublin
ĠM rd
ĠL ei
Ġt Ã¶
Ġr as
for derung
ĠKon sequ
Ġgew issen
icher heit
Ġhin zu
ĠUnter such
Ġletz te
ĠOr ganisation
Ġintern ationale
ĠDon ald
ĠVerwalt ungs
Ġumf assen
ĠMehrwert steuer
b auen
m Ã¤ss
ge g
ĠA ss
Ġb i
Ġm on
ĠG raf
ĠK urs
Ġk athol
ĠW en
ĠZ eiten
rei bung
ĠRe gen
ĠBe ziehungen
ĠBer eichen
Ġstar ke
Ġfor dern
ĠÃ¶ffent lich
ĠStaats an
ĠFahr zeu
Ġbetroffen en
verstÃ¤nd lich
Ġkanton alen
ĠAfr ika
o ut
u fe
Ã¤ gt
it t
ĠA bl
ĠP et
Ġver gleich
ĠT Ã¤ter
ab r
Ġt r
ĠAu ff
fahr t
Ġsol ches
ĠGrund lage
pr ess
Ġkrit isiert
ĠGef Ã¤ng
ĠBefÃ¼rwor ter
Ã¤ um
ĠS oll
at h
Ġh e
ĠP la
el te
ĠW el
de ckt
Â» -
ĠVer kauf
ĠUn ion
Ġsein es
rÃ¤ cht
bar er
ĠZeit ung
ĠEurop as
ĠZus atz
ĠBild ungs
Ġerneuer bare
kÃ¼nd igt
T o
m essen
en e
ĠG ol
Ġden ken
Ġer mÃ¶glichen
ĠVer sch
ĠEin wanderung
Ġab gesch
arb eits
ĠAl gorith
ĠNach bar
Ġverst ehen
Ġamerikan ische
ĠTran s
b esch
r ist
ĠD Ã¼r
Ġein sch
Ġein gesch
Ġk aufen
Ġer kennen
eu ert
Ã¼hr en
Ġ201 0
kon tro
ats ache
frei heit
ĠMindest lohn
ĠStÃ¤d ten
ĠAnaly se
Ġverpflich tet
ĠVergangen heit
k ommission
z unehmen
ĠF Ã¶rderung
ĠW inter
Ġer mÃ¶glich
Ġver wendet
Ġbe urteil
Ġst ets
Ġp rÃ¤
ĠâĢĵ ,
Ġnach dem
lie sst
ĠMenschen rechte
ĠOr t
pl atz
ichte te
ĠStand ard
Ġversu chen
Ġbestimm ten
ĠPaar e
ĠAnd re
ĠAkt ien
- ,
f on
i as
k annt
o ben
ĠW ind
ĠW unsch
Ġge bracht
ĠSt iftung
Ġst imm
Ġun be
ĠAn zahl
ĠEr werb
rÃ¤ ger
Ġsol cher
ĠWelt k
gesch lecht
mit glie
Ġverb essern
Ġeinz ige
ĠOr ganisationen
ĠPol en
hand elt
bed ingungen
ĠGleich zeitig
osit ionen
ĠAnge hÃ¶r
Ġausser halb
ĠFlÃ¼cht linge
Ġfehl t
ĠMot ion
Ġerfolg reich
ĠTe am
jen igen
C hef
s el
v en
Ġm oral
ĠB ro
ĠF unktion
Ġan genommen
ver tr
mer ksam
Ġander es
ob ei
Ã¤nd ig
Ã¤nd ler
ĠLand wirtschaft
Ġstar ken
ĠAut or
Ġreduz iert
ĠErn Ã¤hrung
ĠInd ividu
Ġletzt lich
ĠBehand lung
ĠÃ¼berras chen
e zial
o ck
Ġw esent
ĠS h
te chn
Ġn ationale
et h
ĠT at
ell schaften
Ġst ren
Ġmehr eren
Ġfrei will
ĠKam pagne
minister ium
Ġfinanz ielle
Ġaut onom
ĠKryptow Ã¤hrung
Ġschl Ã¤gt
ĠHinter grund
ĠRuss land
a f
p unkte
r ig
ch tet
Ã¼ ter
it zt
Ġh and
Ġst euer
âĢ Ļ
Ġt rÃ¤gt
ĠBe z
Ġ5 00
ĠNach frage
Ġjed em
ĠGesch lechter
Ġerst mals
Ġern eut
ĠTechn ik
ĠDisk rimin
schul en
Ġfr anzÃ¶s
ĠEng agement
Ġbezei chnet
P h
a w
b lichen
al ismus
ĠK Ã¶rper
Ã¶ pf
Ġge fordert
Ġan s
om osex
Â» :
Ġun gew
sp olit
Ġt ut
gr uppen
ĠFrauen anteil
Ġ3 5
schei de
ĠEx trem
ĠAut os
wor fen
ĠerklÃ¤r en
Ġgest iegen
ĠLÃ¶s ungen
Ġstaat liche
ausen d
ĠFortsch ritt
M an
s eh
Ã¼ ssel
ĠS atz
ĠB ers
ĠB ahn
ĠG lauben
Ġge prÃ¤
ĠT im
och e
ik ation
Ġ2 7
ĠÃ¼ber prÃ¼
gt on
wer ber
Ġr Ã¼ck
Ġ3 1
fr ikan
Ġ200 8
ĠBl ut
los igkeit
ĠRegel ung
ĠTod es
spar enz
zul ande
Ġeng ag
e cken
p assen
s weise
u el
ein d
Ġw eshalb
ĠK ein
Ã¶ ch
Ã¶ sse
Ġk Ã¤
Ġl ag
Ġsie ben
Ġ20 00
ĠKon sum
ok u
hin gton
Ġange wiesen
Ġwel chen
ĠkÃ¼n d
hol t
ĠKam er
Ġ9 0
ĠBed ingungen
arte ment
zus etzen
ĠKrankenk assen
Ġversu cht
Ġfal sch
ĠErgeb nis
ĠMiss brauch
ĠSmartph one
tra ktiv
p artei
Ġ rei
Ã¤ her
em en
lich ten
ĠL es
le ger
Ġ2 2
Ġab l
ĠGr uppen
Ġneu er
Ġneu es
ekt or
pro gramm
ĠMon at
ĠÃĸ sterreich
ĠBr enn
ĠGeschÃ¤ft s
ĠIns gesamt
Ġgesellschaft lichen
ĠZentr um
ĠWe sten
Aus stoss
Ġsub vention
m id
p o
v id
Ġm axim
ĠL etz
ĠU N
ĠSt ruktur
och ter
Ġst abil
ehr en
ĠAn s
gr enze
ĠIm m
nah m
Ã¤nder ungen
ĠReg ion
Ã¼nd ung
wach stum
Ġjen er
ĠBr ut
zei chen
Ġersch eint
ĠMo ment
ĠInf rastruktur
Ġbeding ungs
iffer enz
g ten
Ġs uchen
Ã¼ ch
Ġb lie
ĠE id
ĠM or
ĠP eter
kt ionen
ĠN utzen
Ġt reffen
wer bst
ĠKon zept
ĠSelbst best
ĠGener ation
Ġgesam ten
ĠHeim at
ĠGebur t
ei ge
Ġder art
sch ule
Ġein ger
ĠA ktion
Ġzu ge
ĠF ok
Ġo ben
Ġaus einander
Ġun er
geb ote
ast rop
wor ten
schied et
ĠgrÃ¶sser e
ĠSinn e
ĠParis er
ĠSuch masch
M rd
u e
z er
z ten
er ben
an ch
ĠR ess
ĠIn nen
Ġt Ã¤
ĠRe alitÃ¤t
ĠAus nahme
pro blem
ĠGegen vorschlag
scheid et
Ġunser en
ost et
wert ung
ĠKl ein
ĠReligion s
Ġanges ichts
ĠVier tel
ĠJahrzehn ten
z um
te ls
ĠD es
ĠD rei
ĠM e
ĠF re
au ber
Ġaus sch
Ġsch lechter
ĠAu st
uch s
zie hung
erg ie
Ġdenn och
Ġverl ieren
ĠBevÃ¶lker ungs
minister in
Ġmus sten
Ġbede uten
Ġentsprechen den
ĠVertr eter
Ġeinzel ne
Ġchines ische
zin sen
Ġabgel ehnt
ĠVernehm lassung
s ion
z ut
Ã¼ ss
ĠS onder
it im
sch weiz
ĠA lle
ĠB ar
ĠK a
ĠK assen
om e
ĠSt rategie
ik te
Ġr ass
Ġzw eit
ĠUm satz
ĠAuf gaben
ob o
Ġkon serv
Ã¤u de
wir ken
fÃ¤ ll
fÃ¤ llen
ek ul
ĠAut oren
Ġdro ht
Ġverab schiedet
p asst
Ã¤ ger
ĠA mer
ĠA kte
Ġb eit
Ġh istor
Ã¶ m
rei te
eu ten
Ġsch rieb
sp rÃ¼
Ġvor gesehen
ot al
ran ken
ess in
lau be
sto ffe
su cht
ĠArbeits zeit
stand s
ĠSchul d
ĠVersicher ten
Ġdigit ale
ĠDro gen
Ġinvest iert
ĠMasch inen
ĠprÃ¼ fen
Ġform ul
Ġur sprÃ¼n
ĠEind ruck
uver Ã¤n
% .
r ang
Ġh il
ĠF est
Ġg lauben
ĠT essin
Ġl Ã¶sen
ĠJ ur
Ġent fern
Ġre p
Ġgesch lossen
ĠWas hington
ak et
Ġbeh andelt
ĠeuropÃ¤ ische
ĠBes onders
ausen de
ĠKripp en
4 0
E r
M e
S o
a il
t reten
Ġd omin
on g
ar ier
al tet
ĠK il
ĠPro stitution
ĠEn d
ĠVor stellung
heit lich
ĠKon gress
ĠBundesrat s
Ġgesch affen
ĠUr ne
pl ant
Ġal ten
Ġreligi Ã¶sen
aur ant
ĠInfluenc er
p s
Ġm il
ss icherheit
Ġk ommun
ĠW Ã¤hrung
ĠT atsÃ¤chlich
ĠT atsache
Ġst ehe
Ġdurch gefÃ¼hrt
ĠBet reuungs
Ġpolit ischer
ĠTeil zeit
Ġgef unden
Ġex ist
pr il
ĠInvest oren
ĠKonfl ikt
Ġnotwend ig
Ġhuman it
Ġfoss il
6 0
E O
p en
v e
er weise
Ġd est
Ġs Ã¤kul
Ã¤ be
Ã¶ sst
ol e
ĠL aus
ĠT itel
ĠSch liesslich
ver ein
ĠSp ar
Ġ201 2
Ġbet rifft
Ã¶s ung
Ġger inger
Ġange kÃ¼ndigt
Ã¶ff net
ĠOr d
ĠSchw anger
ĠRahmen abkommen
Ġch rist
ĠSol che
ĠNetz werk
ĠverfÃ¼ gen
heor et
fir men
samm lung
Ġrad ik
E he
c en
s amen
in sen
Ġw obei
te uer
ĠA k
ĠM ich
Ġf rag
Ġver Ã¤ndert
ĠSch aden
ĠVer k
Ġsch reiben
ĠAn satz
Ġum gesetzt
ĠRe chnung
la den
ĠZu stimmung
Ġet abl
ĠWir k
ĠAm t
Ã¶lker recht
Ġhier zulande
Ġte uer
Ġschwer en
ĠBest and
ĠÃ¼br igen
f onds
i pf
k at
s ver
Ġ reicht
ei cher
Ã¤ che
Ġm iss
al es
ĠF ehl
ĠP ort
ro h
de ten
Ġer g
ab gabe
Ġt ran
Ã¶r en
ĠZu cker
gel assen
lim a
ĠNach richten
ĠFrei heits
ĠzurÃ¼ck zu
beh Ã¶rde
ĠInter view
zug s
Ġrecht s
ĠVolks initiative
ĠKritik er
ĠMein ungs
onom ie
ĠFlÃ¼chtl ings
ĠRh ein
m et
m assen
Ġd opp
ĠB u
Ġin frage
Ġin tens
ĠF ot
Ġk or
Ġer inner
ĠL iste
ĠZ un
ĠVer z
ĠAn nahme
ĠAn frage
ab el
ges ichts
sto ssen
ĠAll i
Ġweit gehend
kr ise
Ġor ient
ĠNutz ung
ĠzusÃ¤tz lich
ĠBis her
ĠLeist ungs
Ġne un
Ġbilater alen
B e
l ager
Ġw Ã¤hlen
eit ungen
Ġf all
ĠP otenzial
rat is
imm ungs
ĠmÃ¶ glichen
finanz ierung
ĠerwÃ¤ hn
. .
b ranche
f alt
k ore
o ge
in k
ĠS achen
it en
te x
ar ische
Ġi dent
eit schaft
ĠR eich
Ġl Ã¤uft
ĠRe vision
ĠBe ob
ĠBe wegung
leich ter
ĠKrit erien
Ġfinanz iert
zei chnet
ĠDen k
ĠKind es
Ġentwick eln
Ġunterschied lich
ĠEuropÃ¤ ischen
ĠMitglied staaten
ĠjÃ¼ng sten
r am
s ol
ch st
ig ungs
de te
ol er
Ġver h
ĠT onnen
Ġsch liessen
ill e
gr enzen
ĠVor gehen
Ġsp Ã¼r
ĠdÃ¼r fe
ĠAll ein
ak ten
Ġarb eitet
Ġvert reten
Ġmo der
ĠVerwalt ung
ĠTrotz dem
Ges etz
ĠIdent itÃ¤t
Ph one
ĠBers et
S G
b anken
f inden
k ord
p on
w ende
Ġ Ã¤r
Ġs org
Ġa g
Ġzu frieden
Ġge h
ĠT ex
ĠSt unde
ĠVer schw
Ġwer t
ĠPro gn
Ã¤t igen
ĠEin en
ver sorgung
dern e
Ġman che
urop a
ĠWie der
tro ffen
ĠÃĸ l
Ġ7 5
Ġverm ehrt
ĠPh arma
Ġwirtschaft lichen
Ġwirtschaft liche
Ġverlan gen
mass nahmen
ĠHeraus forderung
ĠKom pro
ĠDel eg
Ġforder te
V ert
b y
m lich
un t
st rategie
ĠA merikan
ĠSch war
Ġall gem
ges sen
fÃ¼hr er
akt or
Ġlei den
Ġ200 3
ĠZusammen arbeit
Ġwichtig sten
versicher ungen
ĠGener al
ĠTran sparenz
Ġben Ã¶t
Ġzahl reiche
gef Ã¤hr
ĠBur ka
ĠGewerk schaften
ĠbÃ¼rger lichen
Ã¼l t
ĠAug ust
ĠFok us
A G
P l
d i
d ach
en k
ie gel
on ach
ĠP il
Ã¶ der
Ã¶ tz
ĠT our
ĠSch aff
Ġp ubl
ĠFr anz
Ġj ur
Ġvor handen
ĠAus bau
ĠHer kunft
ĠGegen satz
Ġwelt weiten
Ġbestehen den
ĠStat istik
Ġbestimm te
ĠJul i
Ġprakt isch
1 9
E nt
f reund
l ern
Ġs ystem
Ġw ann
ĠA pril
ar at
al ifiz
ĠG u
Ġk omme
Ġver r
Ġver tr
ĠL eiter
ĠT er
ĠH ause
Ġo bligator
Ġst immt
ĠAn st
sp rÃ¤sident
Ġent stehen
eiter t
ĠSp it
ĠUm verteilung
Ġbest immt
min ist
ĠMig ros
ĠSchl ag
Ġbel ie
ĠkÃ¼nst lichen
ĠGener ationen
Ġabs eh
Ġposit iv
ĠPfle ge
beit rÃ¤ge
JÃ¤hr ige
Ġregel mÃ¤ssig
A r
k rit
p reis
w ahlen
w eder
Ġd auer
ĠS c
ĠS ens
ĠA ben
Ġn ennt
Ġm eint
ol iz
re ut
ra v
ĠAn stieg
sp art
ĠO l
ĠVor gaben
ĠMit teilung
Ġet h
Ġ3 00
su isse
Ġklar e
our cen
ĠUmwelt schutz
ĠBesch wer
usst sein
Ġkomp lex
Ġnah m
Ġheut ige
Ġpriv aten
gÃ¤n ge
ĠKrank heit
Ġautomat isch
Ġat traktiv
ĠStaatsan walt
P olitik
i qu
Ġd iver
Ġh ielt
ter e
ĠL ot
Ġauf s
ĠAr z
ĠBe w
Ã¼ck e
ick s
ick en
ĠIm p
teil en
ĠZeit punkt
ĠFrei burg
Ġfrei en
hol en
Ġjen en
Ġbeg innt
ĠPat ient
ĠGeschÃ¤ft sm
ĠMigration s
ĠStand ort
Ġglei che
Ġerneuer baren
ĠRest aurant
ĠbeschÃ¤ft igt
ĠVoraussetz ungen
ĠGefÃ¤ng nis
obo ter
P U
R eg
b in
k ultur
k urs
z iel
st re
it er
und ament
ĠB rit
ĠM ach
Ġf ragen
ĠR and
ĠVer stÃ¤nd
Ġaus reichen
Ã¼n der
Ġr uss
ri ft
ĠReg ionen
Ġverb esser
ĠBeruf s
ĠHa ft
Ġlau tet
wart ung
Ġdir ekte
ĠAltern ative
Ġverantwort lich
. /
k ir
er ken
ei er
ĠA s
Ġb zw
Ġin stitution
Ġzu erst
Ġf and
Ġf ahren
ol en
Â» )
Ġst erben
Ġwir ken
Ġam b
ĠAb fall
Ġger echt
ech an
ĠMin uten
vol k
Ġpriv ate
ĠWettbewerb s
ĠHeraus forderungen
ĠApothe ken
Ġgeplan ten
ĠMart in
i us
l es
t in
w echsel
Ġ reichen
er kennung
in stitut
ĠS R
ĠS el
as en
Ġau ft
ĠB Ã¶
ig ration
Ġver dien
ĠH Ã¼r
Ġso fort
sen s
ab stimmung
ĠUn fall
ĠEin wanderer
Ġvor aus
Ġvor geschlagen
ger t
ĠEr de
ĠVor schlÃ¤ge
aus o
Ġdar aus
ĠMenschen rechts
klÃ¤r t
ĠSu che
ĠSu per
Ġoffen sichtlich
zÃ¼ ge
ĠHaus halt
ĠSol id
omit e
ĠLeist ung
ĠChrist ian
ĠBo den
ĠResult at
To o
Me Too
Ġdest o
4 5
E C
f assung
k omp
n ungen
w Ã¤
z eigen
at ri
ĠD ank
Ġb as
ĠM ex
ĠK ap
ĠV ielleicht
ĠSt raft
ĠAn gesichts
sp artei
ĠPro fil
iel te
Ġgew innen
Ġgen annt
Ġlie ssen
Ġger aten
ett o
Ġ200 9
Ġverm eiden
Ġleben s
ĠGl Ã¼ck
Ã¼nde te
ffizien z
ĠEmissions handel
ĠFahrzeu ge
ĠermÃ¶glich t
l Ã¶
z iger
z Ã¤hl
in al
Ġw onach
ĠD u
Ġn ennen
icht lich
ach er
ĠL ager
Ġo pt
sp re
eg or
Ġj Ã¤hr
ungs mittel
Ġt he
ass nahmen
oll en
Ġnach voll
end et
ĠSp recher
ert ifik
ĠUm st
os oph
ĠGrund satz
ic a
ug a
su che
ha fte
ĠStadt rat
gesetz es
echs eln
Ġal te
ĠIde en
abil itÃ¤t
ĠViel mehr
Ġmass iv
Ġgesam te
Ġirgend w
Ġbetrach tet
ĠDep ress
ĠAnrei ze
Ġherr scht
ĠBrut to
N ew
Ġ 000
st at
Ġs ah
ĠP rÃ¤sidenten
ĠT ro
Ġl ehn
ĠSch ule
Ġp oten
Ġr ies
ĠAr mut
ĠAus druck
Ġviel mehr
Ġlie ber
zie ht
fÃ¤ llig
Ġerst aun
Ã¤tz ung
ĠVerb esser
ĠKam mer
ĠLin ke
wand lung
ĠLÃ¶ hne
ĠOrd nung
u ls
ĠS eine
Ġm eine
ĠP ek
au l
Ġg ingen
Ġan d
Ġl and
ĠN atÃ¼rlich
ĠUn ternehmer
ĠC ar
ĠAr gu
rie d
Ġsol ange
mit t
innen markt
Ã¤tz ungen
ĠÃĦ hn
ĠfÃ¼hr te
Ġarb eite
Ġal t
Ġgross es
ĠKomp eten
Ġbezahl t
ĠInstitut ionen
sex trem
ĠHoff nung
K W
l auf
un sten
un kten
ĠS im
Ġi de
ĠE tw
ĠB Ã¶rsen
ĠF eld
ĠK unst
ig keits
ĠW ald
Ġver Ã¤ndern
om eter
Ġun bed
Ġsch licht
Ġ2 6
Ã¤t igkeit
ver dien
ist r
mer z
Ġgen ie
ĠWir d
ap an
ust er
St unden
Ġgleich geschlecht
ĠKr isen
ĠOb wohl
ĠRei se
ĠBau ern
Ġtechn ischen
ĠHandel s
ĠGeb Ã¤ude
Ġunterschied liche
ĠpersÃ¶n lichen
Ġsex uelle
entwick lung
Ġsin ken
ĠSzen ar
ĠWa adt
oliz ei
S ystem
b Ã¼r
b ald
c om
m t
n icht
p aar
w asser
ĠD inge
ĠD oping
Ġi Phone
Ġh andeln
ĠW echsel
ĠT on
Ġl eich
ĠJ ung
Ġsch le
Ġsch Ã¶n
Ġsch weizer
sp er
Ã¼n ftig
ĠEr b
zu stellen
ĠVor wurf
ĠBe zug
Ġre den
rie f
acht ung
Ġber ichtet
Ġwel cher
anc en
vÃ¶lker ung
Ġbisher igen
ĠWissen schafter
verstÃ¤nd nis
schliessen d
ĠTel e
Ġsetz te
ĠJob s
Ġle bt
A uf
S ie
e get
l eitung
m ed
o c
z ur
ei che
ĠS ym
ĠE c
Ã¶ ssen
ur er
ig nal
Ġge d
re form
Ã¤n omen
ĠN iveau
ik o
Ġun klar
sp f
ĠPro jekte
ĠJahr hundert
wer be
ĠVor jahr
ĠSp ezial
Ġgew iss
br y
Ġkl ass
ĠReg ierungen
lan gen
akt iv
su chen
isten z
stit u
Ġeinz ig
sk ommission
ĠVert eid
ĠZw ang
Ġfol gt
ip ul
ĠVersicher te
ĠAuss age
konzern e
ĠerfÃ¼ llen
ĠPension sk
ĠDiskrimin ierung
? Â»
E x
Ġm Ã¤nn
icht ig
ir n
re ck
ĠSt u
ĠH ans
ĠFr anch
chn ungen
ap olitik
Ġbest immen
Ġ4 00
wir kung
Ġher um
wander ungs
ib el
ĠAnt rag
bur ger
ĠKl ar
ĠDienst leistungen
ĠBesch Ã¤ft
ĠjÃ¼n ger
produ ktion
ĠAnd ro
ĠErgeb nisse
Ġzentr ale
ĠauslÃ¤nd ische
ĠFakt oren
ĠWÃ¼r de
Ġpass iert
ĠSpit Ã¤l
f Ã¤lt
l ick
m at
u eller
ch em
st euern
Ã¤ he
Ġein setzen
ĠB io
ĠM echan
ĠF ast
Ġf Ã¼
ĠK ur
ĠK arr
Ġk amen
ĠW andel
Ġer l
ag s
le gung
ĠJ o
ger ichts
ĠEr kennt
hl t
rie be
rÃ¼ ckt
Ã¶l f
ĠUnternehmen s
Ġverl assen
Ã¤d chen
ĠBeh Ã¶rde
arbeit ung
Ġversch Ã¤r
pr et
ĠnÃ¤ch ste
ĠBel Ã¤st
Ġausser dem
Ġvert eid
Ġpl Ã¶tz
ĠÃ¶ konom
ĠErfahr ung
ĠunabhÃ¤ng ig
ĠWor ten
ziehungs weise
ĠWel che
ĠAlgorith men
ĠArz nei
F or
F Ã¼r
n Ã¶t
Ġs Ã¼d
on n
ĠS ach
ĠD or
Ġzu stÃ¤nd
ĠK ohl
ĠVer wendung
ĠAn lass
ĠÃ¼ber wie
lei ten
ger echt
Ġab geschlossen
geb ung
wend ungen
pl izit
ĠSter be
rÃ¤n ken
ĠBern er
ĠDiskuss ionen
Ġzie ht
Ġzie mlich
durch schnitt
Ġ202 1
ĠRegierungs rat
ĠPap ier
Ġopt im
b ol
g Ã¤nger
h Ã¼ll
l Ã¤ss
s eits
Ã¤ uss
ĠS a
ĠE p
ĠE t
ĠK ar
ĠK aliforn
Ġk ennen
ent wurf
Ġbe ste
ff er
im mer
ĠPro test
eil igung
ist ischer
be vÃ¶lkerung
Ã¤hr ungs
ĠVor wÃ¼r
Ġunter sch
ĠZu sch
ehn ung
fÃ¤ llt
ĠGew icht
ĠverfÃ¼ g
Ġgesetz liche
Ġreag iert
ĠgÃ¼nst iger
vo ort
ĠSprach e
Ġend lich
ĠKandid aten
f achen
p artement
y r
z esse
Ġa dopt
Ġw eist
sch ten
ĠF Ã¶rder
Ġg laubt
ĠSch nitt
ĠH ei
Ġt Ã¤tig
uss e
Ġbet rÃ¤gt
Ġkon sequ
Ġgef Ã¤hrlich
Ġbeh andeln
ĠfrÃ¼ h
Ġbegr Ã¼ndet
Ġleg al
ĠRei he
ĠAuss agen
Ġreligi Ã¶se
Ġhal b
ĠEuropÃ¤ ische
ĠVort eil
yn am
ĠFÃ¼hr ung
hil fen
Ġdurchschnitt lich
ĠfÃ¶r dern
ĠEid genÃ¶ss
ĠBelÃ¤st igung
w en
Ã¼ ckt
ĠD ritt
or ge
Ġm al
ĠB ab
ĠK Ã¶n
ĠK anad
Ġk Ã¤mpfen
el i
re en
re te
ĠT ech
ĠT herapie
wei te
Ġbe ziehungsweise
Ġaus ger
im e
ĠEr wachsen
ĠO sten
ĠO pp
ĠGe fÃ¼hl
Ġman chmal
utz ung
Ġges und
Ġkon zentr
sprechen d
ho den
ĠFÃ¤ h
Ġlang sam
Ġleg t
ĠhÃ¶ch sten
ĠKantons rat
ĠMet h
ĠKont akt
ĠVort eile
Ġentst eht
ĠTÃ¼r k
ĠRess ourcen
a cken
u isse
ĠA arg
ar if
em in
ĠM Ã¼tter
re p
ĠSt Ã¤r
ĠVer voort
Ġbe weg
ĠRe aktion
ĠZu ge
Ġkein es
gel der
Ġsp r
chn ete
Ġ3 6
ap ier
lin gt
Ġger ing
zie lle
ĠFor derungen
fr ont
ikan er
ĠEntwick lungen
ĠSter ben
zw ungen
ĠNetz werke
Ġor dent
Ġverk auft
ĠZwei fel
reg ierung
ai ls
ĠverÃ¶ffent licht
ĠerfÃ¼ llt
Kon zern
Ġangeb lich
ĠImmer hin
ĠKonsequ enzen
Ġfall s
ĠAmerikan er
w e
Ġs Ã¤m
it ten
Ġm e
ĠF akten
ĠK u
ĠK Ã¼nst
Ġk ostet
ĠW egen
Ġge gr
ĠI r
ĠL icht
ĠL am
ĠT or
ĠN ahr
us e
ĠFr Ã¼
ĠFr em
ĠFr ieden
eil ung
anz ler
ĠDer zeit
Ġda vor
Ġsp aren
sst aat
Ġpro blem
erson al
Ġe ffizien
ĠStaat es
richt ungen
stit ute
ĠEm bry
Ġverk aufen
Ġdr ingend
Ġgesellschaft liche
Ġjeden falls
Ġverd ient
nei der
hei rat
ĠFÃ¼hr ungs
ĠFuss ball
ĠMassen ein
ĠNegativ zinsen
arn ing
ĠVerschw Ã¶rung
EC D
ĠAndro id
A m
M ed
m odell
en ter
Ġd ritte
Ġd auern
at oren
sch te
or mal
ĠB em
ĠM Ã¤dchen
ĠF Ã¼nf
ĠF raktion
ĠG ra
ĠG ast
ĠK rÃ¤
ĠW ild
Ġg aben
ach ter
ĠL ob
ĠT ochter
um m
rei bst
ĠUn gar
Ġvor zu
Ġ1 50
all el
Ġgew Ã¼n
ĠZeit alter
ĠMar c
Ġwel ches
ĠEx p
kehr t
Ġtechn ische
Ġverhin dert
Ġmedizin ischen
Ġgener ell
ĠErwerb s
Ġentfern t
B S
L e
a ats
es e
Ã¼ st
ĠD irektor
ĠF erien
ĠW ass
ĠW all
ĠR Ã¶st
ĠR oboter
ol oge
ĠZ insen
Ã¤n ge
le b
le un
ĠVer br
im Ã¤r
ann er
ĠC r
ĠEin ige
wer ten
ĠGes ichts
gel d
Ġber u
ĠBer echn
Ġbet ragen
Ġgen utzt
Ġange st
ĠHer steller
app en
Ġfinanz ieren
ĠAbst immungs
ĠBel astung
Ġkomp ens
ĠStimm volk
Ġdir ekten
ĠÃ¼berraschen d
ĠTim es
ĠLaus anne
ĠZucker berg
d as
s d
s on
s wert
u gt
Ã¼ ge
ge hren
Ġv ia
ĠD auer
al k
Ġzu st
ĠP an
de partement
Ġer folgen
ĠL etzt
Ġauf genommen
ĠT enden
am me
Ġmit tels
ĠH el
ĠVer sorgung
Ġo ber
ĠAn wendung
Ġj ahr
ĠEr werbst
ieren d
wer tet
ĠAus stoss
ĠKon ferenz
Ġ3 8
Ġbet on
gesch Ã¤ft
klÃ¤r ungen
isik o
Ġbeg onnen
ĠBest immungen
ĠVersicher ungs
ĠKlimawandel s
Ġschnell er
ĠTrump s
ĠVerl Ã¤nger
Ġdro hen
Ġmensch liche
ĠStra fen
Fr auen
Ġident ifiz
A l
B er
h Ã¤ndler
p e
p ack
Ã ĸ
ĠS ein
ĠS um
Ġn atÃ¼r
Ġm ut
ĠB us
Ġh undert
ĠK redit
ĠW etter
de b
Ġbe ziehen
Ġun mittel
ab et
ver brauch
ill en
ot ion
Ġab sch
ĠAus bildung
Ġzw Ã¶lf
Ġgew Ã¤hlt
ĠAb schluss
ĠEnt scheiden
ĠAuf wand
qu alitÃ¤t
ac e
ĠGro sst
gem Ã¤ss
ĠSystem e
ĠMa xim
ĠNationalrat s
will igung
ĠMin ister
Ġglob al
ĠDen ken
ĠzusÃ¤tz lichen
produ kte
verkehr s
ĠPartner schaft
ĠPer spekt
ĠGel der
Ġneg ativen
fir ma
JÃ¤hr igen
Ġverurs acht
ĠMÃ¼ll er
ĠtÃ¶ d
oku ment
ĠTÃ¼rk ei
V G
b ot
h te
t rag
Ġ reich
ĠS al
ĠD r
ĠM ik
ro w
Ġg laub
Ġl ernen
ĠJ eder
ah me
eg al
lei ben
Ġall eine
ĠEr klÃ¤rung
aben d
ist in
ĠO ECD
he bung
pf l
Ġlie fern
ĠZeit raum
Ġger e
ĠGemein der
ĠQu art
ĠBitcoin s
ĠstÃ¤r ken
ĠUnivers itÃ¤ten
handel s
Ġvoll stÃ¤ndig
ĠKo hle
Ġgemein samen
Ġwahr scheinlich
ĠAuss icht
flu ssen
Ġlin ks
Ġakt uellen
ĠAtom kraft
ĠStra fe
ĠauslÃ¤nd ischen
ĠBerat ungs
schaff ung
Ġblie b
ĠKompro miss
B eit
l ag
m ar
t on
st rom
Ġein iger
Ġh Ã¤uf
Ġh Ã¤ngt
Ġge eig
is l
ĠT rain
and al
ra fen
ĠAn gebote
ĠÃ¼ber all
ver k
ist anz
anz ig
Ã¶r dert
Ġre st
ĠUm feld
Ġgr Ã¼n
ild et
Ġ19 6
Ġselbst verstÃ¤ndlich
ost er
brau cht
ĠUnivers ity
Ġtie fen
schul d
ĠSuizid hilfe
ĠHandel n
kret Ã¤r
Ġinte lligen
Ġdefin iert
Ġbeein flussen
Ġzug unsten
ĠMerk el
Ġmaxim al
ĠVerstÃ¤nd nis
ĠMex iko
ĠRÃ¶st i
S P
n immt
p ersonen
er geb
ĠD ien
Ġb ill
Ġm obil
ss atz
ĠK Ã¼
ĠK ol
au ch
ber ger
Ġge lingt
Ġer forder
Ġver urteil
ĠL auf
kt or
ĠH am
Ġst ieg
Ġst Ã¤ndig
etz ung
Ġwir kt
Ġvor auss
Ġvor bei
âĢ ĵ
Ġt reten
for dern
alt h
Ġgen auso
Ġbr eit
ud ie
Ġ5 4
ic s
olog isch
ord in
Ġwel chem
Ġgut es
spiel en
Ã¤hl te
ĠGegen Ã¼ber
hÃ¶r en
ĠChin as
arbeit ern
ĠPf ister
Ġbef inden
Ġbegr enz
Ġkrit isch
ĠSub vention
Ġel ekt
ĠResult ate
Ġres pekt
ibil itÃ¤t
ĠGol d
ĠArgu mente
ĠKaliforn ien
A F
m ord
p ar
Ã ľ
ge ht
ĠB innenmarkt
Ġk lim
Ġg Ã¤be
ir t
ent scheid
ag te
ĠSch n
ĠSch neider
ĠVer gewalt
Ġst ammen
Ġdem nach
ĠAn leger
Ġent halten
Ġweiter er
Ġbr achte
Ġange messen
fr em
ens ation
Ġbek ommt
ĠOr ig
ĠPl Ã¤ne
Ġex plizit
hand lungen
Ġfinanz iell
itz er
Ġschwer e
ĠNetz werken
Ġleg itim
ĠKo oper
ĠKontro llen
ĠFrank f
ĠHÃ¶ chst
fert igt
ĠAnder e
ĠGeh eim
ĠStart up
ĠAnp assung
ĠDan iel
ĠSolid aritÃ¤t
ĠplÃ¶tz lich
er te
ĠS er
ĠD ial
ĠB Ã¼
eit ern
et ern
au b
ur teilung
ĠW Ã¤hrungen
ĠV ene
isch t
Ġan bieten
Ġl egen
Ġmit tel
le ute
ik as
ĠÃ¼ber sch
Ġvor her
Ġent weder
zent ren
zen ten
ĠKon kret
ĠFrauen quote
Ã¤l te
eld et
Ã¤u fer
ĠNach halt
ĠBet rag
Ġbesser en
ĠInter ess
ĠChin esen
ĠGemein schaft
ĠGrÃ¼n der
ĠLin k
Ġentsprechen d
Ġpr imÃ¤r
ĠgrÃ¶sser en
ĠBil der
Ġdemokrat ischen
berecht igung
Ġentst anden
demokrat en
ĠGed anken
ĠbefÃ¼r chten
Ġwest lichen
kÃ¤m pfung
sel ben
ĠUN O
ĠMe er
ĠPil ot
ĠBrit en
a ke
h u
l eiter
l iber
l iste
p reise
r Ã¼ndung
w agen
ĠS ek
ĠS orgen
Ġein seit
Ġz it
Ġm ache
ĠE ffekt
al ition
Ġk o
lich keiten
el a
ro chen
och en
us er
ĠJ ungen
Ġso fern
Ġst amm
ĠAn erkennung
Ġ2 9
Ã¤r m
ĠAus einander
ĠSp ann
ekt ion
ĠAuf sicht
Ġviel er
ĠSchweizer ischen
ĠWer k
Ġ4 7
sicher heit
ĠHer z
ĠDeut sch
ĠFall e
ĠPl attform
ĠQu oten
ĠEntscheid ungen
Ġleben sl
Ġbew egen
ĠPoliz isten
ĠExper iment
ĠHoch schulen
gemein schaft
fess ion
Ġbil den
Ġposit ive
ĠSen kung
Ġspe zial
Ġliber ale
Ġerle bt
ĠfÃ¼hl en
ĠStatt dessen
Ġnational er
tex t
ĠLot ter
Ġunbed ingt
ĠGrosst eil
R echt
c ial
s itzen
Ġd ritten
an gebot
ĠD amals
Ġge troffen
is co
ĠT heor
ĠN ationen
ĠVer Ã¤nderungen
Ġdes wegen
ik ten
cht ung
ab bau
ĠUn abhÃ¤ng
ĠRe chen
Ġab hÃ¤ng
be werber
ĠAus stieg
Ġsag ten
ĠSo zi
Ġe ffekt
ĠAl t
per ten
att formen
kon omen
Ġverb reitet
akt isch
ĠCh ar
ĠBr un
Ġbed ro
Ġteil te
Ġreg istr
ĠFlÃ¼cht lingen
produ kt
ĠKonkur renten
Ġinvest ieren
Ġneg ative
ĠMinder heit
reb s
anst alt
glei chen
Ġlanc iert
ĠAbl ehnung
ĠAben d
ĠSel f
ĠPek ing
: .
S c
a x
n iveau
Ġa frikan
Ġein deut
ar ian
ĠE th
ss ig
ĠW aren
ĠR ang
ĠI hnen
Ġan erk
ĠT he
ĠZ eichen
ĠSch mid
ĠH itze
ĠVer m
ĠVer hÃ¤lt
ver s
ass ungen
aus gaben
Ġwar ten
ĠSta d
Ġzw anzig
ĠAb sicht
Ġges enkt
ri ent
mit tag
Ġverb ieten
Ġwicht igen
ĠKranken versicher
Ġdah in
ĠDar Ã¼ber
ĠBes uch
geh eim
Un ternehmen
Ġerf asst
Mit glie
ĠKrank heiten
ĠInnov ation
Ġbeob achten
stÃ¤t ten
Ġverbesser t
ĠTele fon
M io
W elt
s itz
ĠD o
ĠD ah
ĠM ic
Ġzu stÃ¤ndig
Ġf liessen
ĠV Ã¤ter
de x
ĠR ein
Ġer gÃ¤n
om Ã¶glich
ĠL ocker
Ġl os
Ġl ehnt
wei ch
ag es
ĠC EO
Ġvor erst
Ġvor gestellt
Ġall zu
ot iv
ĠGr ipp
Ġent scheidet
Ġunter sucht
Ġman chen
ick et
Ġber aten
ĠBei spiele
vor lage
Ġimmer hin
ĠDeut schen
Ġbek annte
ĠHand lungs
ĠmÃ¶ gliche
ĠLebens mittel
Ġwichtig ste
ĠEhe paar
schul dung
ĠpersÃ¶n liche
ĠhÃ¶ch stens
Ġget an
ĠNor mal
ĠKommun ikation
ĠtÃ¤ glich
Ġaussch liesslich
ĠUngar n
! Â»
I m
j unkt
j ekten
l ing
w enden
Ġs itzen
on str
ĠA esch
Ġm el
Ġm achten
ĠB rief
Ġf lex
ĠK as
ĠK eine
el be
ĠH or
Ġst raf
Ġun nÃ¶t
ĠAn lage
ĠEin wohner
iz ieren
gel Ã¶st
ĠSo uverÃ¤n
kl us
zie llen
sto ffen
ĠKlima abkommen
Ġnie der
nit as
ĠUr t
Ġwei sen
Ġstell ten
ĠHin zu
ĠmÃ¶ chten
ĠHaus arzt
dop p
Ġbegr enzen
Pro du
Ġgesetz lichen
ĠÃ¶ k
Ġmensch lichen
ĠLiber alisierung
Ġkompl ett
ĠElekt ro
Ġkonk reten
ĠBez ir
Ġbeit ragen
Ġrep rÃ¤sent
Ġintens iv
ĠVerschwÃ¶rung st
N B
l ang
t ok
un ken
Ġs ucht
ein nahmen
Ã¤ dt
as i
sch weizer
ĠD ach
Ġz Ã¤hlt
or s
Ġau ssen
Ġzu gleich
et scher
ĠG as
ĠK Ã¼nd
Ġk Ã¼m
ĠR end
ĠI ll
ĠSch wer
ĠSt Ã¼ck
Ġp arlament
Ġ1 000
Ġ1 20
Ġr ein
ĠAus mass
for schung
ĠProzent punkte
Ġber ichtete
ĠLeben ser
Ġseit her
agen tur
dr Ã¤ngt
ĠMedik ament
Ġeinfach er
Ġallen falls
ĠDar in
ĠkÃ¼nst licher
Ġinner t
herap eut
Ġprofit iert
ĠGeb Ã¼hren
schri ft
Ġfunktion ieren
Ġoffiz iellen
ĠberÃ¼cksicht igt
omosex uelle
ĠSelbstbest immung
F ir
b o
e ckt
l uss
o u
u be
Ġ ÂŃ
on st
ĠS omm
Ġn ormal
or ganisationen
Ġm einen
ĠM ac
ĠP ri
ĠP ersÃ¶n
ĠR uf
am p
ĠH Ã¤
us en
ah nen
Ġaus drÃ¼ck
Ġsch m
Ġp ol
ab t
Ġvor ber
ĠO rient
ĠUm wandlung
ĠAb sch
ĠBei de
Ġje weil
wir t
walt ung
Ã¤m pft
St adt
reu de
ium s
ĠKranken versicherung
dien ste
ĠNeu en
ĠfrÃ¼her en
Ġspe zif
gest immt
ĠTreibhausg ase
ĠGewinn e
ĠÃĦn derung
ĠAndre as
Ġhand le
ipf el
spart ner
Ġlehn te
spf licht
ĠOpp osition
ĠVerlÃ¤nger ung
oster on
arian te
B undes
G en
er innen
ĠM Ã¼
ĠM as
ĠM ut
ĠW under
Ġer setzen
ut h
Ġl o
Ã¤n zen
ĠN etto
ĠN Ã¤he
Ġst Ã¶sst
Ġaus geschlossen
Ġp f
Ġp ar
ĠFr Ã¼h
ĠPro stitu
ver halten
Ġt rifft
ul ierung
all er
ĠAus gleich
Ġweiter es
Ġ3 4
sam e
ĠAl ph
ĠKlim apolitik
ĠGesetz e
ĠGesetz geber
Ġgel te
ehl ungen
ĠRelig ionen
handel n
Ġwahr genommen
ĠFortsch ritte
ĠSmartph ones
Ġoffiz iell
Ġgeplan te
ĠAktiv itÃ¤ten
Vert r
ĠUmst Ã¤nden
Ġbeton te
Ġgere gelt
ĠOrig inal
C h
M ar
Z u
f eind
s Ã¤tze
Ġ egal
an e
an ischen
Ġs kept
ge geben
Ġder weil
Ġz erst
Ġf ern
ĠP rakt
Ġer hoben
Ġl Ã¶
wei st
ĠSch au
ĠSch Ã¤tzungen
ĠH aut
ell i
ĠAn forderungen
ien ce
ĠFr anc
Ġum so
ĠVor schriften
Ġre chnet
ĠBer eitschaft
ĠAb geordne
Ġ3 3
Ġkon front
ritt s
ĠAm ts
Ġgel ungen
ĠParlament arier
Ġeinge tragen
stÃ¼t zt
ĠPl Ã¤tze
ĠLu x
Ġricht igen
Ġgeb oren
Ġwirtschaft lich
auft rag
Ġsteigen den
ĠÃ¤uss erst
Ġerh ielten
ĠDi agn
ĠPhil osoph
ĠTemperatur en
Ġbrit ische
abr ik
Ġdopp elt
Ġirgendw ann
ĠZusch auer
ĠsÃ¤m tliche
ĠSomm ar
! Â».
D A
D R
b em
m o
Ġd am
st eh
Ġs orgt
Ġa d
on omen
sch auen
Ġzu gelassen
Ġh ies
ĠP rÃ¼
ĠV iz
Ġge plant
ol ogen
re gel
Ġan aly
ut lich
ent halt
ĠIn stitute
ra st
Ġun gefÃ¤hr
eg t
Ġzur zeit
Ġunter scheiden
ĠBund est
lie d
ran k
sst and
ĠAb gaben
ĠEnt sprechend
Ġbet reiben
Ġ4 2
Ġange passt
zeu gung
ivers itÃ¤t
Ġverm utlich
ĠGleich stellung
stag ram
ĠInform ation
ĠDig nitas
Ġverw enden
Ġlaufen den
ĠTest osteron
Ġverein bar
Sp recher
ĠEinsch rÃ¤n
ĠHil fs
Ġkontroll ieren
Ġwesent lich
Ġhil ft
ĠProfil ing
deb atte
ĠMic ro
1 0
1 8
L P
an en
sch Ã¤d
ĠE v
ĠG ar
ĠG lob
Ġk ur
Ġer setzt
Ġver gessen
ĠT isch
Ġmit einander
ĠSch icks
ĠH y
ĠVer antwort
ra h
Ġp asst
Ġvor liegen
ver antwortung
enn ung
all e
ĠO per
Ġab ges
be zogen
Ġzum al
ĠEnt scheide
ĠAuf klÃ¤rung
Ġhin weg
lin ien
ĠfÃ¼hr e
tag es
Ġgel ang
Ġverl ang
cken f
ĠKr ise
ĠPh ase
ip s
itu ationen
Ġkurz em
ĠAsy ls
ĠIniti ativen
ĠMensch heit
Ġrel ev
zentr um
Ġdemokrat ische
ĠMasch ine
Ġakzept iert
Ġzug ute
nÃ¼ pft
ĠgenÃ¼ gend
Ġverank ert
ĠArbeitspl Ã¤tze
ĠAbtreib ungen
ĠSoll te
kontro lle
Ġfossil en
ĠhÃ¤uf iger
ĠLebenser wartung
ĠSommar uga
Ġdam al
E F
T echn
j a
s ie
Ġ on
Ġs u
es b
as h
sch Ã¼tz
Ġz Ã¤hlen
ar ischen
Ã¼r e
au st
Ã¶ ger
lich ung
ĠW affen
de cken
ĠR ente
Ġer lauben
Ġver folgt
re vision
ĠL eit
ĠL eiden
ĠH ung
ĠVer s
Ġst r
Ġsch afft
Ġvor stellen
Ġeiner seits
hn ung
la ck
ĠO ft
ĠVor der
ĠGr ie
ĠBe weg
aus el
heit liche
Ġ4 3
gesch ichte
ne te
Ġgem essen
Ġ6 7
ĠTeil nehmer
Ġverl etzt
Ġ200 4
Ġ200 7
Ġfrei e
ĠKr imin
wor tet
Ġbisher ige
erk raft
Ġreg ion
ĠChrist oph
Ġpl Ã¤d
wart ungen
berecht igten
Ġzeig ten
Ġargument ieren
ĠStellung nahme
ĠSam stag
ĠÃ¤lter en
Ġakzept ieren
ĠverstÃ¤r kt
ĠBedÃ¼rf nisse
Ġbrit ischen
Ġehemal ige
Ġverschw inden
ĠInstru ment
Ġfreiwill ig
ĠSchwar z
ĠAs ien
ĠTenden z
ĠFrankf urt
C he
r t
u hr
Ġ ten
st anz
an schau
ĠS ind
at a
Ġn Ã¤her
ĠB ill
ĠM at
ĠF al
Ġf amilien
ĠP unkte
ĠP ositionen
au ert
ier bar
Ġge Ã¤ndert
Ġer folgt
is er
is men
ĠJ ohn
ĠJ apan
ra b
ann en
ĠFr Ã¼hl
Ġt au
ser e
la in
ĠVor feld
ĠSo cial
acht eil
Ġges prochen
ĠAuf merksam
Ġbet reffen
geb lich
schie ben
ĠMill ion
Ġ5 5
ĠKinder tages
Ġverb ind
io x
Ġausge w
ĠSchul en
ĠSchw ellen
gew icht
ĠGleich berechtigung
ĠBed arf
ĠSol ar
leist et
ĠfrÃ¼her e
mÃ¶glich keiten
gest altung
ĠErd Ã¶l
press iv
omite e
ĠFranch ise
Ġbeweg t
W ie
k ommt
l Ã¶sung
m edizin
o y
p or
w ehr
an lagen
Ġa ss
Ġw Ã¤chst
ĠS Ã¼
as ien
ĠD ifferenz
Ġn ull
Ġge zogen
Ġge zwungen
isch em
Ġl asse
le ge
Ġsch ritt
ver antwort
ver sammlung
Ġall gemein
ĠAu str
rÃ¤ te
Ġmehr heitlich
wer fen
Ġwar n
ĠSp ekul
ĠSchweizer innen
ohl en
fl Ã¤che
gesch rieben
ĠAll es
ĠBl och
ĠSozial hilfe
Ġfinanz iellen
ĠSP D
zÃ¼ glich
ĠAnge stellte
ffe kte
ĠStimm e
ĠKontro ll
Ġ25 00
ka dem
Ġposit iven
Ġzahl reichen
ĠStat us
ĠÃĦn derungen
ĠfÃ¶r dert
Ġwissenschaft liche
ĠStre et
arbeits zeit
ĠExtrem ismus
ĠkÃ¤ me
fÃ¤ll ige
ĠOl ymp
ĠBÃ¶ ckenf
Ġkeines wegs
Ġvorauss ichtlich
ĠabhÃ¤ng ig
junkt ur
U m
ie hlt
Ã¤ fte
Ġein ig
ĠA g
ĠA KW
Ġk om
ter t
ĠI s
Ġan hand
ĠL og
ĠSt abilitÃ¤t
ĠIn stagram
ĠJ Ã¤ger
Ġst et
Ġwer fen
Ġp h
ĠPro v
ĠC lo
ĠRe al
rat e
sst euer
ĠAb gabe
rag ung
Ġkl ingt
fÃ¼hr te
ĠFor men
Ã¤ng ern
Ã¶ff nen
ater ial
wander ungsinitiative
Ġeinz igen
Ġte urer
ĠQu al
ĠBeg renz
Ġlang frist
ĠGeschÃ¤ft sl
ĠGl etscher
ĠMot to
Ġmen schen
ĠBur k
Ġletzt es
Ġargument iert
ĠSonntag s
wÃ¼rd ig
ĠprÃ¤sent iert
Ġerle d
ĠEinsch Ã¤tzung
ĠÃ¼bern ommen
ĠAbtreib ungs
ĠGraf ik
vertr eter
ĠfranzÃ¶s ischen
ĠkÃ¼nd igte
ĠursprÃ¼n glich
Ġerinner t
kore a
ĠLocker ung
ĠAlph abet
ĠGrie chen
D aten
c y
f an
m eister
n ess
st eigen
Ã¼ sst
sch ungs
ĠD DR
Ġein geb
em issionen
Ġzu zu
Ġf ragt
ĠW ien
Ġge halten
ĠT iere
ĠT radition
ĠH ol
ĠH aar
ĠH Ã¤nde
Ã¤n en
ĠVer st
Ġo per
Ġaus machen
ĠPro fit
Ã¤t ige
ul en
ĠAu ge
rÃ¤ umen
ĠRe kord
gr amme
ĠGe werbe
hl et
ĠKon sens
ru f
ĠAuf bau
Ġkon kret
ĠFrei zeit
ĠTeil en
verb Ã¤nde
Ġbeg innen
zahl t
Ġen orm
Ġersch ienen
Ġentscheiden d
ĠVerl ust
pag nen
ĠEinkommen s
ĠKat hol
Ġlin ken
ĠWohl stand
Ġregul iert
Ġmedizin ische
ĠÃ¤lter e
ĠKoll egen
ĠWebs ite
ĠAngehÃ¶r igen
ĠKarr iere
ĠSouverÃ¤n itÃ¤t
ĠFrÃ¼hl ing
g ungen
k unden
o ul
st unden
ĠS erv
ĠS orge
ĠA f
ĠG LP
Ġge gangen
Ġer leichter
Ġver teilt
Ġmit teil
ĠH as
ĠIn halt
Ġst at
sp aren
ĠC he
Ġum welt
ver such
Ġt ritt
ĠRe volution
Ġmehr fach
Ġmehr heits
tern e
ĠAus nahmen
ĠVor bild
ĠGr Ã¶sse
Ġent f
ĠSp r
ĠFrauen renten
ĠAb hÃ¤ng
tel n
Ġ6 4
Ġfest gestellt
ha ften
Ġbez ogen
ĠÃĸ konom
ĠEnergie strategie
ehl en
iar de
frei en
ĠRÃ¼ck gang
ĠMus ik
Ġaut onomen
schul den
ĠPrÃ¤ vention
ĠDar auf
port ion
ĠStÃ¤nder ats
ĠÃ¤hn liche
ĠKat egor
prÃ¼ ft
erv en
ĠVerfassungs Ã¤nderung
ĠbeschÃ¤ft igen
sprach e
ĠSuchmasch ine
ĠAkte ure
kir chen
ĠKanad a
ĠFrauenrenten alter
B et
E ine
F inanz
M ail
f unk
m Ã¤r
o ffe
y l
Ġs ep
Ġs ehe
as chen
ĠD opp
ĠA lain
ĠF in
ĠK ennt
Ġge fallen
om er
ĠT op
ĠT reffen
am a
Ġl ohnt
rei ft
ĠIn zwischen
ĠJ ed
ĠEin kauf
he ben
ges ellschaften
Ġre form
Ġbes onder
ĠPar allel
kon sum
ĠBet reiber
ĠSu isse
ĠEx port
ĠVerb indung
ichte ten
Ġho ffen
so ft
ĠQu ote
sm assnahmen
bed ing
ĠDe ep
ĠBest euerung
ĠY out
li men
Ġempf iehlt
weil en
Ġdiskut ieren
aur er
Ġgemeinsam e
Ġreag ieren
ĠPost ul
Ġbilater ale
Ġschwar ze
Ġproduz iert
ĠPublik um
ĠJournal isten
Ġbehaup ten
Ġkathol ische
Ġbeurteil en
ĠKil ometer
ĠFot os
ĠSchaff ung
Ġobligator ischen
ĠHÃ¼r den
ĠArznei mittel
ĠVene zu
Ġbedro ht
Ġanaly s
ĠVorder grund
G o
b as
i bl
m und
t ion
z eigt
Ġ /
Ġs itzt
te u
ĠD ad
ĠF Ã¶der
ĠK op
ur m
Ġge stÃ¼tzt
Ġer greifen
ĠL ange
ag ert
ĠH ar
ĠH eil
ĠN ad
Ġbe fÃ¼rwor
Ġst Ã¤dt
Ġsch Ã¤d
ĠAn k
ab u
Ġ2 50
Ġvor an
âĢ º
rÃ¤ glich
ĠAus kunft
ĠVor haben
end iox
ĠBe denken
Ġbis schen
ĠSo hn
ĠEnt wurf
ĠSchweizer ische
Ġ5 2
ĠNach dem
Ġeigen es
walt ungs
ĠMan che
Ġ8 00
Ġoffen e
Ġgef Ã¤l
ĠHand y
ĠOb dach
Ġbef indet
gew inn
spro zess
ĠInvest ition
Pro zent
leg ten
Ġgesetz lich
Ġlin ke
Ġfal schen
Ġverf assungs
ĠRad ik
Ġbeteil igen
Ġvergleich sweise
ĠBew usstsein
Ġamb ul
ĠKohl endiox
ĠMeth ode
Am mann
D U
F l
G allen
S teuer
f izit
k ind
l og
l Ã¤nd
t es
t lichen
Ġ rÃ¤um
en der
ie sen
in z
Ġm einer
ĠB and
Ġzu genommen
Ġzu gestimmt
ĠF inn
ĠF inger
Ġf air
Ã¶ ser
ĠV ariante
Ġge Ã¤uss
ĠR el
ol f
ĠT arif
ĠT reibst
ĠSch la
Ġst elle
Ġsch ie
Ġsch eiter
ĠAn lagen
ĠÃ¼ber t
ĠÃ¼ber durchschnitt
ĠUn gleich
ĠEin er
ĠEin griff
la sten
Ġr etten
heit lichen
bl att
pp e
fr au
ĠHin weise
ĠLin ken
ĠBesch uld
ĠKo alition
schlÃ¤ gen
ĠEinzel fall
ĠAdopt ions
ĠpersÃ¶n lich
ĠWeiter e
Ġsex ueller
ĠPass ag
Ġnachhalt ige
Ġsin kt
ĠZweck e
ĠKamer a
Ġverdien en
Ġnachvoll zieh
Ġzust ande
ĠKooper ation
Ġkonfront iert
M odell
W er
a el
b te
i leg
s eite
y a
Ã¼ s
on s
ĠS amm
Ġv eget
al og
Ġh art
ĠF ehr
ĠK eller
ro lle
ĠR ot
ir ch
re ff
re geln
ĠT ie
ĠT otal
Ġes sen
Ġum setzen
che f
ĠBe weis
ĠMit tag
ĠMit arbeiten
lie gt
Ġgew onnen
Ġgen auer
fol ger
ĠPriv ileg
ĠPh Ã¤nomen
zei chnung
ĠVerein igten
ĠAbst immungen
ĠlÃ¤nger e
ĠMein ungen
ĠIns besondere
ĠEinzel nen
Ġunterschied lichen
ĠhÃ¶ch ste
Ġget ragen
ĠRentenalter s
PrÃ¤sident in
ĠSex u
ĠgÃ¼nst ig
ĠMobil itÃ¤t
Ġschwar zen
rÃ¤um e
bil den
nungs zeiten
Ġverwei st
Ġfestge halten
ĠPet ro
Ġeinger eicht
Ġmil itÃ¤r
ĠZun ahme
ĠjÃ¤hr lichen
ĠSim on
ĠPensionsk assen
ĠVorwÃ¼r fe
ĠKrÃ¤ fte
Ġjahr el
ĠAufmerksam keit
G er
c a
i ode
k al
k el
t Ã¤u
w ald
Ġd rÃ¤n
Ġs auber
Ã¼ gen
or ient
ĠB ru
ĠB Ã¼nd
ĠM ess
Ã¶ pfung
Ġver folgen
Ġver dopp
ĠL ast
ĠL aden
Ġl angen
ĠSch ied
ĠVer brauch
ĠVer Ã¤nderung
ĠJ ac
ĠEin igung
Ġt yp
iert es
ĠAus gang
ĠAus lÃ¤ndern
iz ierte
iz enz
ĠAb schaffung
Ġges unken
Ġhin ein
Ã¤ch te
Ġ5 8
Ġgesch ehen
Ã¤hl ten
ĠDa vid
reu en
ĠÃĸ konomen
Ġgef ragt
mittel t
ĠAnt ide
ĠMarkt zu
ĠZahl ungs
ĠBeg rÃ¼ndung
ĠstÃ¤r k
ĠDemokrat en
spro blem
Ġdah inter
ĠStraf ver
oss ier
ĠverfÃ¼ gt
ĠGut achten
ĠKrieg s
Ã¤te stens
urt eile
ĠgefÃ¤hr det
part ner
ĠVerwaltungs rat
Ġmon at
ĠWen iger
ĠÃ¼berprÃ¼ fen
Ġhumanit Ã¤re
ĠAlli anz
ĠBurka verbot
Ġdiver se
ĠRestaurant s
Ġstamm t
2 5
N ein
o der
u ssen
w uchs
Ġv Ã¶lkerrecht
Ġein s
Ġm in
Ġm otiv
ĠM ag
ĠM aurer
ĠF reund
et ing
Ġf aktisch
ĠK rie
Ã¶ nen
is p
Ġver Ã¤nder
ĠL eut
ĠT es
ent ner
Ã¤n glich
ĠVer pflicht
Ġsch Ã¤tzt
Ġp opul
ĠEin t
ver ordnung
ĠEr satz
Ġwar nen
du str
utz er
ank ungen
ke ps
Ġ4 4
ĠGen au
Ġletz ter
Ġ8 5
ĠStr ich
Ġbeh err
ĠSchl Ã¼ssel
ĠMin im
Ġteil en
ĠSpiel raum
ĠInform ations
Ġgeb lieben
ĠHaupt stadt
Ġschl imm
ari at
Ġschwier iger
ĠAsyl bewerber
wohn ern
ĠMet all
Ġliber alen
ĠverÃ¶ffent lichten
Ġorganis iert
Ġgl Ã¼ck
ĠDÃ¼r ren
ĠAmer ika
Ã¶m m
ĠzurÃ¼ckzu fÃ¼hren
onomie suisse
Ġausreichen d
spre ch
ĠMac ron
ĠLeut hard
keps is
) :
R ep
d Ã¤m
d ies
h ten
h Ã¤nger
i den
k Ã¼n
in os
Ã¼ glich
Ã¼ ler
Ġw omÃ¶glich
sch reiben
Ġein ges
Ġb reite
ĠB ay
Ġf anden
ĠK asse
ĠW ichtig
Ġg reifen
is zip
ol ig
Ġver ste
Ġan hin
ĠH oll
ĠVer sprechen
scha f
Ġum gehen
ĠEr stens
ĠâĢ ¹
ĠRe formen
ĠRe aktionen
bst anz
lie fert
ĠAuf enthalt
pro jekt
Ġ4 8
ĠGrund lagen
ĠMar ke
erg Ã¤nzen
ĠEx istenz
ĠkÃ¼n ftige
Ġgesch rieben
ĠMan agement
ĠDem nach
Ġeinge stellt
Ġbez Ã¼glich
ak ter
ĠHin sicht
ĠRahmen vertrag
ĠGrÃ¼n e
Ġen or
ĠIntern ational
ĠSol ange
ĠWochen ende
ĠStimm bÃ¼rger
Ġdisk rimin
ĠEben falls
Ġmo derne
National rÃ¤tin
ĠFern seh
ssp iel
Ġnahe zu
Ġislam ischen
ĠBundesver fassung
Ġgarant ieren
Ġmuslim ischen
ĠUntersuch ung
mitglie der
Ġautonom e
ĠgeprÃ¤ gt
ĠBeschwer de
ĠWass erkraft
ĠunnÃ¶t ig
Ġjeweil igen
ĠSchied s
iszip lin
D e
E U
G em
I P
g Ã¼nst
h et
h ur
n etz
p otenzial
t ausend
v ort
an er
Ã¤ sst
sch r
sch eine
Ġge handelt
Ġer kannt
ĠDie sen
Ġmit hilfe
rei cher
Ġun ten
Ġsch uld
ĠAn n
ver hÃ¤ltnis
Ã¶n t
art ikel
Ġnoch mals
bar ung
ĠAb s
Ġkl Ã¤ren
uch ten
ĠStaat sse
richt er
ĠGer ichte
hÃ¶r t
ĠFinanz minister
ha ber
ĠProdu kten
ĠAnt worten
zahl ung
ĠAls o
will igen
ĠVolks abstimmung
ĠÃĦr zten
Ġgrund sÃ¤tz
ĠEigen tlich
ĠCo op
ĠÃľberwach ungs
ĠViel falt
ĠSport ler
Ġhal te
Ġerz ielen
ĠAbt reibung
ief onds
under te
Ġwachsen de
ĠTel ek
ymp ath
ĠOpt im
Ġbeteil igt
Ġinform iert
ĠPla y
kontro llen
Ġformul iert
verein igung
Ġmoder nen
Ġallgem einen
ĠTour ismus
ĠGeschÃ¤ftsm odell
Ġgerecht fertigt
ĠDial og
ĠLotter iefonds
ĠMÃ¼ he
Vertr eter
ĠAustr alien
ĠDad urch
7 0
B lick
f acht
g ro
h och
h ungen
h eil
l Ã¤ufig
w id
y th
z iele
an ter
Ġw or
ĠS yr
ĠS kepsis
sch Ã¼sse
ĠF as
ĠF lex
Ġf liegen
ĠP opul
ĠW Ã¼n
ĠV ir
Ġge legen
ĠR ab
Ġl eist
Ġl esb
ĠSch ritte
ĠSt immung
ĠN ah
ĠVer d
ĠVer dacht
ĠIn ner
ik on
ĠEr inner
ĠEr wartungen
ĠGr em
Ġent hÃ¤lt
ĠSp itze
bar es
ĠBundes steuer
ess ion
ĠMenschen recht
Ġbest raft
Ġbest ehe
fÃ¼hr ten
ĠAl bert
fahr er
lin ie
fl ation
ĠGrund versicherung
lan ge
beh and
ĠEm p
ĠGro sse
Ġgef Ã¶rdert
ĠSteuer er
ĠPl us
los es
voll e
ĠRÃ¼ck zug
bet reiber
Ġlang fristig
ĠSpiel er
Ġstaat lich
gemein schaften
ĠErn st
ament lich
Ġakt uelle
beit rag
ĠBerat ung
ĠVis ier
Ġbeob achtet
eutr al
ĠwÃ¼n schen
ĠÃ¼bern immt
ĠTreibhausgas emissionen
Ġkonk rete
Ġeingesch rÃ¤nkt
Ġstren g
astrop he
Ġerg ibt
ĠProgn osen
ĠEtw a
ĠFranc isco
ĠMicro soft
ĠAsyls uchen
ĠBÃ¶ckenf Ã¶rde
ĠYout ube
A ll
J a
W F
f lex
g as
g Ã¼lt
o wer
w eiter
Ġd ur
an sp
Ġs amm
Ġdie jenigen
Ġn orm
ar isch
Ġm ed
ĠE ffizienz
ĠB or
ĠM ad
Ġh Ã¤r
ĠF ur
ĠK re
Ġge prÃ¼ft
ĠI A
Ġver halten
re du
ĠL eicht
Ġauf nehmen
ĠU ber
ĠVer suche
il em
Ġst ra
Ġst ruktur
Ġsch einen
ĠFr ist
ĠZu fall
ĠZu gleich
ĠBundes k
Ġzw ingend
ĠAb bau
ĠAb fÃ¤lle
ank e
ĠMed ic
Ġ5 3
Ġgesch ieht
ĠTeil nahme
geben d
ĠAut ob
Ġeinz us
ĠStadt p
ib es
ĠSozial demokraten
Ã¶t ung
Ġverm eint
ĠHin blick
ĠMus limen
brau cher
Ġind essen
ĠÃĦr zt
ĠgrÃ¶ sst
ari fe
Ġqu asi
ĠÃ¤uss ern
prÃ¼ fung
stra fen
ĠZur Ã¼ck
ĠVerhalten s
ĠGewerk schafts
ĠWahr schein
Ã¤tig keiten
polit ischen
Ġorganis ieren
Ġindividu elle
Ġlok alen
ĠHil f
Ġintegr iert
ĠHal b
geg nen
ĠWirk lichkeit
ĠÃ¤r zt
ĠVerbesser ung
Ġgenie ssen
ĠBezir ks
ĠKindertages stÃ¤tten
ĠAntide pressiv
A ber
A pp
K lima
b rechen
s ung
v ern
w ind
Ġd ienen
in land
Ġs ech
on i
Ġw echseln
Ġn ahmen
ĠB usse
ĠM Ã¼n
Ġk oll
ĠW ett
Ġer griffen
re al
ĠL isten
am es
se kretÃ¤r
Ġst ation
iv alen
ĠÃ¼ber lassen
ort s
Ġab stimmen
be f
og ar
her r
ru fen
bl eiter
Ġgegen seit
Ġgew Ã¤hrt
schl Ã¼ssel
br Ã¼
lan gt
ĠBet r
ac ial
Ġfest legen
ĠFall s
Ġbek Ã¤mpfen
wÃ¤r ts
get ragen
such te
ĠVersicher ung
ĠStimm berechtigten
Ġricht ige
ĠGl ar
Ġdig ital
ĠFlug zeug
Ġreligi Ã¶s
beg inn
Ġfal sche
ĠBetroffen e
Ġangeb oten
ĠRu he
Ġerh ielt
hle ten
ĠMil itÃ¤r
ĠHal bleiter
ĠgegenwÃ¤rt ig
ĠInstru mente
Ġengag ieren
ĠLetz ter
sprÃ¼ che
verdien er
ĠAarg au
tok oll
ĠUmwandlung ssatz
ĠGriechen land
ibes uisse
G esch
H er
V O
b und
d ass
f ar
f amilien
en gen
Ġs icht
ĠE is
ĠM odelle
ĠG lied
ĠK Ã¶
Ġk r
ĠW il
Ġge dacht
Ġer ho
ĠL at
ĠZ ertifik
am s
Ġl esen
ĠSch Ã¤den
us ste
Ġbe weisen
Ġsch wach
ann ter
ern t
ĠC lau
ĠEin spar
ver sch
mer t
wer en
ing ern
gr Ã¶s
for d
Ġzw ingen
ĠMen ge
Ġ3 7
Ġpro min
ap s
ad a
Ġbesch rÃ¤nkt
ikan ische
zeu gen
Ġgel Ã¶st
ĠAut omat
if est
ĠmÃ¶glich erweise
voll zug
last ung
Ġmass iven
ĠLuft fahrt
ĠFreit od
ĠKapital ismus
Ġkanton ale
Ġumf asst
Ġklein ere
ĠJul ia
Ġinteress iert
wissen schafter
Ġberuf lichen
Ġinform ieren
ĠStruktur en
ĠTex t
ĠAnst ren
minist rat
ĠImp uls
ĠEc onomiesuisse
row d
Ġelekt ron
Ġafrikan ischen
ĠPri or
schÃ¼tz er
ĠBloch er
Ġstet ig
Ġmehrheits fÃ¤hig
ĠFinn land
Ġnachvollzieh bar
M ill
d isk
g ungs
h op
y ber
er ung
in o
an ien
an gel
an stieg
Ġw omit
Ġw ehren
ĠS kept
sch ub
ĠD anach
Ġm arkt
ĠE ssen
der wÃ¤rmung
Ġzu stimmen
Ġh Ã¶rt
ĠG ratis
ĠG reen
Ġk Ã¶rper
ig ht
Ġver p
Ġver stÃ¤nd
Ġan er
om aten
ĠL a
ĠL ern
ĠL iter
ent um
and a
ĠH at
ĠIn dustr
Ġst immen
Ã¼ber wach
ĠAn griff
ind ungen
ab or
ab le
ĠEr derwÃ¤rmung
Ã¤r kt
Ġ( ..
ot s
Ġnach zu
ommen t
ĠGe bie
ĠGe fahren
ĠBe vor
ĠBe ziehung
for schungs
Ġbet reibt
Ġbet rieben
geb iet
zie her
ast et
Ġ19 5
ord net
ĠFl ugt
eich ert
Ġgesch eitert
ats Ã¤ch
ett a
ĠFrei er
Ġbesch leun
ĠGer hard
beh alten
ĠDeut sche
Ġ200 6
Ġfrei lich
ĠQu ellen
Ġjen es
Ġrecht lich
ĠMittel n
Ġind ir
Ġersch einen
ĠVerein ten
ĠFahr er
ĠSeit her
ĠSon st
ĠSterbehilfe organisation
ai w
ĠBil anz
ĠBil ater
mel de
Ġregul ieren
Ġzentr al
Ġbeein fl
ĠfÃ¼hl t
ĠInnov ationen
ĠGeschlecht s
Ġbeurteil t
ĠGlauben s
ĠkÃ¤ men
ĠMich ael
ĠerwÃ¤hn t
ĠspÃ¼r en
Reg ierung
ĠSzenar io
pfl anz
Ãľ ber
ĠAuseinander setzung
ĠDiagn ose
Gem ein
* *
3 5
T ages
k rieg
k apital
p ass
w Ã¶ch
z eichnen
sch lossen
ĠD ilem
Ġb reiten
Ġb lieben
Ġf ried
ĠK ann
ĠK lage
ĠK ibesuisse
Ġk irch
ro hung
ir m
re chten
Ġan dern
wei f
ĠN ull
ell es
Ġst rateg
ĠPro te
ĠC am
og o
ĠMit arbeitern
Ġkein em
ĠBer eiche
ĠArb eiten
ĠSte fan
uch te
Ġ6 6
Ġdeut liche
licher weise
ĠArbeits zeiten
Ġeinge hen
Ġ7 00
Ġjen em
ĠGew issen
ĠKultur fÃ¶rderung
will ige
Ġal tern
ĠMin elli
geh ei
ĠHo olig
leg ungen
gl Ã¤ub
verband s
serv ativen
ĠET F
ĠGesprÃ¤ che
Ġbezahl te
ĠAnaly t
ĠgefÃ¤hr den
bew usst
Ġgewalt t
Ġumge kehrt
ĠGott es
Ġvegan e
Ġabgesch afft
Ġstimm ten
ĠWeltk rieg
astrop hen
enk ungs
ĠKompeten z
ĠSpitÃ¤l er
Ġkonsequ ent
ĠBerechn ungen
ĠSum me
ĠMik ro
ĠUrt eils
ĠDopp el
ĠgeÃ¤uss ert
ĠWahrschein lichkeit
! Â»,
4 8
A S
G B
f angen
g ien
k inder
n eiden
t ran
v et
z y
Ã ¨
er massen
in ken
Ġs ach
it iv
ĠA ir
ar s
ĠB ig
al te
em ier
ĠM eg
ĠM orgen
Ġf iel
ĠP ich
ier er
Ġver wahr
am ten
ĠfÃ¼r s
um mer
ĠH ass
Ġso bald
Ġst ecken
Ġwir ft
ĠC rowd
Ġvor s
ĠO m
ĠAr ten
Ġent deckt
ĠZu wanderer
ĠSp eicher
ste te
ste ten
Ġber echt
kl ausel
Ġbr eiter
Ġlie fert
ĠÃľber gangs
wir kt
sicher ung
ĠSu cht
halt ungen
Ġstar ten
wander ern
ĠAll gemein
ĠVerb Ã¤nde
Ġbel egt
Ġverst anden
Ġgelten den
Ġgeb unden
ĠJun ge
ĠÃĸff nung
ĠGef Ã¤hr
Ġerz Ã¤hlt
ĠÃ¼berzeu gen
ĠWider spruch
Ġgez ielt
Ġbezahl ten
Ġliber al
bel astung
Ġ198 0
Ġsetz ten
ĠbefÃ¼r chtet
Ġniedr iger
ĠAngehÃ¶r ige
ĠSchwanger schafts
ĠÃĦhn lich
ĠTon ne
ĠCr is
ĠNachhalt igkeit
ĠNeuen burg
Ġskept isch
Ġschritt weise
ĠTes la
ansp ru
B B
C C
K I
M arkt
N ovember
o ffen
t a
ie gelt
ĠS Ã¤
ĠS and
ĠS ignal
at ische
it te
sch lagen
Ġv ol
hr e
ĠB AG
al ent
Ġin nov
ĠF undament
ĠK ommt
lich te
ur g
Ġg alt
Ġg ratis
ol z
Ġauf merksam
ĠT eile
ut t
ĠSt ocker
och ten
Ġst ossen
Ġaus gerechnet
Ġun zÃ¤hl
Ġsch r
Ġp assen
sp ir
ĠC or
ĠEin griffe
ver teil
ver waltung
lei hen
ĠAus gangs
ĠBe wohner
Ġunter wegs
ĠGes ellschaften
eben e
ĠBundes gesetz
rag mat
Ġ5 6
Ġ5 9
fl anzen
Ġgesch ickt
Ġlei der
ĠInter pret
ĠEnergie t
ĠAnt i
Ġschw ed
ĠmÃ¶ gen
ĠSystem s
ĠfÃ¼nf zig
last et
Ġem otion
ĠVerein barkeit
Ġaufge hoben
Ġkrit isieren
ĠlÃ¤nger em
ĠStand orte
ĠNe ur
ĠTran sport
ĠÃ¤hn lichen
ĠAnder erseits
Ġqu alifiz
ĠWohn ung
Ġlau tete
ĠRep ubl
ĠRep rÃ¤sent
ĠJugend lichen
ĠAussen minister
bil der
ĠVoraussetz ung
Ġlok ale
iat r
ĠZul assung
sinn igen
ĠDÃ¼r re
Ġstimm te
ĠKamer as
ĠSuchmasch inen
Ġhumanit Ã¤ren
ĠBeob achter
ĠBrutto inland
Ġschle chte
ĠEmbry onen
ĠLetzt lich
ĠPerspekt ive
ĠGemeinder at
ĠDien ste
Ġeindeut ig
ĠSchau spiel
rah men
Ġ(.. .)
C O
W oche
a zi
b ach
f est
l ant
Ġ ehr
ch an
st ufe
in ess
ge bracht
as sten
sch Ã¼re
ĠA lex
Ġz og
ĠE rei
em ente
ĠM uster
ĠG ang
ĠK reis
ĠW ein
ĠV om
ĠV Ã¶lker
ĠV ari
ĠV Ã¶lkerrecht
Ġer kennt
Ġver un
re ben
ft iger
ĠZ ent
ĠU BS
ag ten
ĠH eb
ĠH ard
se e
ik ations
ĠAn walt
ĠC ass
ĠC els
be zÃ¼glich
ĠAus wahl
aus stieg
ĠZu stand
br id
Ġbet rug
Ġbes orgt
kon vention
ĠMar i
age gen
ĠTh ese
ĠRecht sstaat
ĠGen der
ĠGeld spiel
wend ig
ard s
gem acht
Ġoffen en
aupt s
sche f
Ġgest alten
bet eiligung
Ġbef ragten
best ritten
best euerung
az itÃ¤ten
spro gramm
ĠNutz ern
ĠStraf recht
Ġvert ie
rateg ien
gn or
zus p
Ġbestehen de
ĠLie be
ĠnÃ¶t igen
krÃ¤ ften
ĠGef angen
ĠÃ¤uss ert
Ġlaufen de
Ġanzu bieten
Ġwachsen den
ĠSwiss com
ĠSÃ¼d korea
ĠJugend liche
ĠjÃ¼ng ste
Ġerhe blich
ograf ie
ĠLeg isl
amer ika
ĠRo h
Ġtradition elle
ĠberÃ¼cksicht igen
ĠAuff assung
ĠVerk nÃ¼
ĠRhein au
Ġgeh abt
ĠSR F
Ġleich ter
Ġadopt ieren
ĠErwachsen e
ĠTheor ie
ĠEth ik
ĠDah er
sie he
ĠKohlendiox id
ĠPich ai
ĠCass is
ĠCels ius
? Â»,
A uch
F DP
d ing
n iss
r isiko
s be
v p
w oche
in iti
Ã¼ ten
ĠS ant
it es
Ġm ark
ĠB DP
ĠM ord
ĠM ode
Ġh eter
ĠF el
ĠF onds
Ã¼r t
ĠK und
ĠP en
ber n
ig ant
ĠW esen
ĠW Ã¤hrungs
Ġver heirat
ĠL eu
ĠL ok
ĠL euten
ĠT V
ĠT ur
ĠZ er
ĠVer teil
Ġst ud
Ġsch lagen
Ġwie s
ĠÃ¼ber tragen
ĠUn fÃ¤lle
ĠC on
ver st
wer ben
Ġunter b
ĠMit tler
utz end
ĠAuf stieg
ze p
ĠÃľber nahme
enz in
ĠBet riebe
Ġselbst best
Ġdeut licher
ital ien
ĠPr esse
ĠPr emier
Ġlei tet
Ġwenig sten
gesetz buch
In stitut
bet rag
Ġbeg ann
Ġbel asten
Ġteil nehmen
az it
ĠRicht linien
ĠInform atik
ĠZwei tens
ĠFil me
Ġzunehmen de
ĠPlan ung
ĠGewerk schaft
Ġirgend wo
ĠLuzern er
ĠKom bin
polit ische
ĠApothe ke
ĠBÃ¼r o
Ġbeant ragen
ko hol
ĠEmpf ehlungen
Ġkontroll iert
ĠAnp assungen
Ġbehaup tet
ĠVersch Ã¤r
spolit ischen
SG VO
Ġverr ingern
Ġland es
Ġschweizer ischen
ĠJo h
ĠMassenein wanderungsinitiative
ĠVerbr eitung
ĠAufsicht s
ĠVerhÃ¤lt nisse
Mitglie d
ĠHandlungs bedarf
ĠausdrÃ¼ck lich
ĠCris pr
- )
1 7
A ut
F raktion
G E
G e
O r
P arlament
c ess
i dem
n ur
n Ã¼tz
as ste
or ben
Ġm Ã¤cht
ĠE u
ĠB aum
ĠM and
Ġzu t
Ġh olen
ĠF o
ĠF azit
Ġf inde
Ã¼r k
ĠP aket
Ã¶ te
lich em
Ġge arbeitet
ĠR en
ĠR acial
Ġan passen
ĠT sch
ĠT ore
ĠfÃ¼r chten
ĠSch ne
ĠSch engen
se ktor
il ien
Ġaus gesetzt
ĠC yber
Ġall fÃ¤llige
Ġt ro
Ġt ot
Ġt atsÃ¤ch
ĠRe zept
wer den
wer ks
ĠSie g
ĠUm fang
ĠAuf lagen
me e
me chan
Ġe v
ĠPar ad
kon fl
ĠNach wuchs
mit ten
Ġselbst fahr
ĠSteu ers
ett ung
fach e
ha fen
zeu gt
Ġverl Ã¤nger
eint rÃ¤cht
ĠSozial versicherungen
ĠWahl recht
Ġderzeit igen
Ġbed ingt
ĠDe fin
ĠLebens qualitÃ¤t
ĠBed rohung
Ġkrit isierte
ĠZwei ten
ĠWert sch
ĠJun cker
Ġzul Ã¤ssig
ssystem e
yp e
Ġernst haft
ĠNieder lan
ĠBÃ¼r gern
ĠLeg alisierung
Ġres ult
wissen schaft
ĠbÃ¼rger liche
ĠOpt ion
ĠBedÃ¼rf nis
ĠTerror ismus
Ġehemal igen
ĠgewÃ¤hr en
Jahrhundert s
techn ik
ĠÃ¼berprÃ¼ ft
Ã¶ch ent
Ġabl ehnen
oler anz
ĠMach ine
Ġruss ischen
ĠErkennt nisse
ĠVerschwÃ¶rungst heor
ĠSchicks al
Techn ologie
Ġwarn te
Ġmitteil te
ĠSyr ien
Ġbeeinfl usst
k aufen
u ste
w al
ie fer
st Ã¤nde
ein halb
ĠS ar
ĠS eg
at ter
at ischen
Ġv eh
ĠD agegen
Ġz eige
Ġn amentlich
Ġb ein
gen tur
ĠM c
Ġin st
Ġh arm
Ġh Ã¶ren
Ġf Ã¤hrt
ĠK lin
Ã¶ konom
ur st
ĠW id
ir gend
Ġer lassen
re chnen
ĠT un
ĠT aten
ut ung
Ġl ehnen
ĠN oten
ĠIn st
ĠIn halte
Ġbe gegnen
Ġvor Ã¼ber
Ġt ausend
Ġr uft
ĠVor urteile
Ġunter s
Ġre geln
omm iss
Ġber ichten
lim mer
Ġviel es
ĠÃľber legungen
recht lichen
Ġerst es
Ã¤ng ig
Ġgesch Ã¼tzt
ust r
okrat ie
Ġfest halten
ĠGer Ã¤te
ĠGegen zug
Ġlei det
Ġeinge halten
ho w
Ġwenig stens
chten stein
ĠDisk urs
ĠRahmen bedingungen
ĠfrÃ¼ hen
eid ung
Ġentscheiden de
ĠFach krÃ¤fte
Ġgrund legen
Ġfehl en
Ġempf ehlen
ĠEuropÃ¤ er
ĠPaar en
ĠGel egen
Ġerhe bliche
ĠAltern ativen
Ġabsol ut
unk el
ĠFlÃ¼chtl ing
Ġtradition ellen
Ġilleg ale
ĠgegenwÃ¤rt igen
Ã¤um e
ĠNachbar n
mitglie d
Ġpubl iziert
ĠSR G
ĠKu sch
ĠOper ation
ĠAnk lage
behand lung
k ette
m ie
o f
Ġ $
Ġ âĤ¬
er ten
Ġd i
in ent
in form
Ġs k
Ġw Ã¶chent
Ã¤ tern
ĠD utzend
Ġein her
ĠE i
ĠB all
ĠB enzin
em m
et ails
ĠP al
Ġk anad
ig ur
ĠW orte
Ġg rÃ¼
Ġg uter
Ġg laube
ĠR ollen
eh le
Ġsich ern
ag ern
ĠSch rift
ĠSch merz
ĠN ation
ĠVer teilung
ĠJ Ã¼r
ik ationen
ah ls
Ġsch auen
Ġdem onstr
ver gleich
Ġt rat
zu frieden
ĠEn gl
Ġmehr mals
ĠDer en
Ġnach ge
end ung
Ġdurch setzen
ĠBundes haus
ekt r
kl agt
Ġzwei mal
ob el
ud s
inder ung
ĠAl p
ĠAl kohol
ĠKlim as
ast er
Ġ4 1
ĠMar ken
war ten
ĠBundesrat es
ne ten
hÃ¶ hungen
reu z
Ġbez eichnen
Ġunser em
ĠVerb rechen
ĠÃĸ k
Ġvergangen e
zw eck
ĠBÃ¼rger lichen
ĠBÃ¼rger innen
ĠRÃ¼ck fall
Ġrecht fert
Ġbeg lei
jÃ¤hr iger
Ġde cken
Ġschwer er
Ġbegr Ã¼ssen
ĠVersicher ungen
ĠFahr en
aly se
Ġgeb aut
ĠHoch schule
gn ost
stehen den
ĠGesundheits kosten
Ġhal be
Ġpriv at
Ġben achteil
Ġsex uellen
ĠAtom ausstieg
ĠKomp ensation
Ã¼nde ten
ĠNeben wirkungen
system s
hÃ¤ user
ĠMil ch
ĠPrinzip ien
Ġrad io
ĠBundesver waltungs
Ġproduz ieren
ĠRom an
ĠVertrag s
Ġkathol ischen
ĠStandard s
ĠFreiheits strafe
Ġkor rig
ĠStaatsanwalt schaft
ĠMechan ismus
ĠzustÃ¤nd ige
ĠEidgenÃ¶ss ischen
Fir men
Ġten den
Ġass ist
ĠBegrenz ung
ĠPostul at
ĠstÃ¤dt ischen
ĠBruttoinland produkt
niss es
ĠJoh ann
1 5
K R
b is
b ahn
d p
e ct
m on
m ern
p el
in stanz
Ġs an
ĠS amen
ll er
Ġein fachen
Ġb rÃ¤
Ġb ildet
or ten
ĠF ix
Ã¼r cher
Ġk n
el ine
men sch
re k
re cken
Ġauf ger
ĠT Ã¤tigkeiten
wei gen
ĠU eli
ĠSt amm
ĠN at
le bt
Ġun tern
ĠAn wendungen
ab druck
ĠC ommun
ĠC enter
ĠJahr tausend
est er
art ige
be wegung
iz ierten
end aten
ĠBe fÃ¼r
Ġre vid
chn eten
ĠIm pfung
Ġgew achsen
ĠAuf grund
ob s
ĠReg ime
wie s
ĠPar k
Ġ5 1
ĠGoog les
ĠUnter schriften
Ġgem eint
fr ika
ĠMehr ere
ĠWirtschaft sk
Ġeinge st
ĠGro up
ĠBl og
gar ten
ĠBr and
ĠAt omen
Ġrecht liche
ĠPf arr
zahl er
Ġverst eht
ĠVolks be
ĠAbst and
ĠWei sse
ĠlÃ¤nger en
Pro jekt
Ġentwick elten
Ġ18 0
ĠIniti ativ
ĠEben so
Ġfehl ende
Ver ein
ĠPlan eten
Ġzahl t
Ġget reten
Ġ202 5
Ġspe ziell
ĠVerhand lungs
ĠKont ingen
Ġneg ativ
ĠverÃ¶ffent lichte
Ġel f
ĠNacht eile
Gr Ã¼nder
Ġforder ten
ĠUntersuch ungen
geg ner
heoret isch
ĠÃ¼brigen s
Ġabseh bar
Ġgleichgeschlecht liche
sper ren
lÃ¤ss lich
Ġspr achen
ĠFrÃ¼ her
Ġproblem atisch
Ġeffizien ter
Ġberu ht
Ġverurteil t
ĠUnabhÃ¤ng igkeit
Ġhies igen
Ġfamilien ergÃ¤nzen
ĠLog ik
ĠKathol iken
ĠHar v
ĠAntidepressiv a
ĠEinspar ungen
ĠMittler weile
I V
L Ã¤nder
W as
a frikan
e arch
w a
w Ã¼n
Ġ &
Ġd rast
ei ert
un ion
ĠS itze
ĠS ympath
ĠS ogar
sch icht
Ġz ei
Ġz iel
Ġn utz
al isiert
Ġh aupts
ĠP ier
ĠV egan
Ġg reift
Ġge Ã¶ffnet
ĠR ich
is st
is ion
Ġver g
Ġver handeln
ĠL i
ĠT arife
ĠZ eu
Ġmit ten
wei chen
ĠH els
Ġbe frist
Ġsch liesst
ĠAn zeigen
ĠC S
ĠEin heit
Ġvor der
Ġvor industrie
Ġum zu
Ġt otal
Ã¤r mer
op ol
la d
uss er
Ġr isk
og le
ĠVor stellungen
ĠSp iele
Ġges amt
Ġzwei f
Ġ3 9
sam keit
Ġkon stru
Ġkon sum
Ġlie ge
Ã¤ss ige
ĠWer ten
mit tler
ĠArbeits losigkeit
Ġblei be
gend a
Ġ200 2
Ã¤d ag
ĠBeh aupt
Ġbeg leitet
ĠVolks wirtschaft
ĠMitglie dern
ĠDatenschutz gesetz
Ġjeder zeit
Ġleg te
opp ing
produ kten
ĠEinzel ne
leg te
Ġerneuer barer
ĠLe verk
Ġverab schieden
verl ust
ĠbestÃ¤t igte
ĠTest s
polit isch
ĠStrassen verkehr
Ġschwar z
Ġ197 0
ĠRo ger
ĠverstÃ¤r ken
Ġkultur elle
ĠWol ff
Ġverank ern
Ġfestge legt
Ġag gress
ĠDeleg ierten
Ent wick
Ġsystem atisch
Ġverr inger
Ġvertr auen
sextrem ismus
ĠverschÃ¤r ft
ĠLam bert
Med ia
Ġzit iert
ĠergÃ¤n zt
ĠOrient ierung
ĠQual ifik
ĠServ ice
ĠÃ¼berdurchschnitt lich
ĠSkept iker
ĠSchwangerschafts ab
Ġhaupts Ã¤chlich
ĠLeverk usen
B ei
P artei
T he
i os
l Ã©
p apier
st Ã¼ck
Ġs ign
te le
ĠD etails
Ġn annte
ĠF ar
ĠK lei
ĠK rebs
ĠK omment
ĠP akt
ach bar
ir gt
Ġer fahren
re chnung
Ġmit ge
um Ã¤n
ĠH istor
ĠN euer
Ġbe zieht
Ġst Ã¼nden
Ġsch arf
Ġsch merz
ĠAn ne
Ġp lan
ĠPro zesse
ĠPro jekten
ĠEin sicht
Ġj etz
ul den
hal ter
ĠAr m
ĠAr ch
zen ar
ĠKon d
ĠKon text
ĠBundes gerichts
ĠUm fragen
ĠBei hilfe
geb oten
ĠÃľber griffe
Ã¤ss igen
wie gend
Ġger ingen
Ġ4 6
kon troll
qu ivalen
ĠFrei handels
ren nen
ĠDa von
ĠProblem en
Ġhei m
ĠDem onst
Ġdrei ssig
ep rÃ¤sident
wor k
Ġex terne
Ġrecht lichen
bie tern
ĠMa il
spro chen
ĠFahr zeug
ĠZum indest
hÃ¤ltnis mÃ¤ssig
Ġreligi Ã¶ser
Ġpl ant
ssystem s
Ġmo dern
Ġ202 2
ĠBot schafter
ĠBrÃ¼ssel er
Ġbevor zu
ĠErd gas
ĠNieder lage
ĠMark us
ĠMinder heiten
jen ige
ĠÃ¼berras cht
Ġpsych isch
ĠÃ¼berw achen
ĠPublik ation
Ġgarant iert
ĠArbeitspl atz
ĠAndre a
ĠImm obil
Ã¼ch tern
ĠPort ug
Ġdauer haft
ĠverfÃ¼g bar
ĠKÃ¶n ig
ĠFÃ¤h igkeiten
ĠLob by
Ġbegrenz t
ĠKÃ¼nd igung
ĠVenezu ela
reff end
ĠSimon etta
Ġsicht bar
ĠOm b
M en
R aum
S on
V ers
g Ã¼t
h el
k arte
n eu
z ungs
Ġd auert
st imm
Ġs ug
Ã¤ sse
ĠS ektor
as ie
sch irm
ĠD ek
ĠD irekt
Ġein iges
ĠA genda
ĠB ert
al a
ĠM ult
Ġin halt
Ġzu folge
Ġh andel
ĠF C
ĠF liegen
Ã¼r zen
den k
ĠK unde
ĠP aul
Ġk aliforn
Ġden k
Ġden kt
Ġg rav
Ġer geben
is str
Ġver br
ĠL ust
ĠT ausende
Ġmit unter
rei chte
ĠN est
ĠIn stitution
Ġbe auft
ĠAn hÃ¤nger
sp altung
ien e
ĠPro f
ĠC DU
ungs los
ungs behÃ¶rden
Ġt reiben
ger Ã¤te
ĠEr kran
ĠSchweiz ern
Ã¤r er
op fer
la fen
Ġent h
Ġent schied
chn ungs
ĠAb klÃ¤rungen
ĠEnt haltungen
kl en
itÃ¤t s
Ġges ucht
auf sicht
ri um
Ġe chte
Ġlie sse
Ã¤u fe
ĠKanton al
per te
att ung
ĠkÃ¼n ftigen
ĠMan ager
St immen
Ġverl iert
ĠCh em
Ġex port
ĠRÃ¼ck kehr
ĠPriv ate
ĠGrÃ¼n liber
best and
ĠApp s
Ġgross zÃ¼g
zept anz
ĠVerein s
ip ation
Ġbede ute
ĠDar an
ĠChr isten
ĠBef und
ĠLe arning
Ġerz ielt
ĠÃ¶ fter
Ġlaufen d
ĠFern sehen
Ġkosten gÃ¼nst
Gr und
ĠWissenschaft ler
Ġvers ichert
deck ung
Ġauss ehen
ĠgewÃ¤hr leistet
Ġfrem den
ĠfranzÃ¶s ische
ĠZun Ã¤chst
Ġruss ische
Ġerstaun t
ĠStu denten
fÃ¤lt ig
hÃ¼ll ungs
ynam ik
Ġgegr Ã¼ndet
ĠFrem d
Ġlebensl Ã¤ng
Ġparlament arische
Ġpol n
ĠLux em
ĠHas ht
Ġscheiter te
ĠMitarbeiten den
ĠstÃ¤rk sten
ĠAnstren gungen
ĠHoolig ans
ommiss ar
ĠGelegen heit
4 4
4 6
? Â».
D em
H O
K l
P F
b ten
k und
v iel
w il
Ġ "
Ġ Ã¶ffnen
Ġ italien
ei en
ich en
ein richtungen
Ġein t
Ġm ult
Ġi gnor
ĠE g
em pf
ĠM att
ĠF reude
Ġf ix
ĠG laube
ĠK Ã¼rz
ĠK reise
ĠP as
au chen
au ssen
Ã¶ ten
Ã¶ gen
Ġk rank
Ġg eist
Ġan schliessend
ĠT ab
ĠT Ã¤tigkeit
ĠSch le
ĠH ot
ĠH uman
us ion
Ġbe enden
Ġbe anspru
Ġst eig
ĠUn it
Ġj ung
ĠEr l
Ġab schliessen
be auftrag
Ġges unde
auf e
Ġbet rÃ¤cht
Ġpro test
Ġgen et
Ġgen annte
inn ern
ĠÃľber gang
Ġwieder holt
fol gung
ĠGesch Ã¤fte
ĠGen fer
ĠPolitik ern
ĠzurÃ¼ck halten
amm elt
Ġwei bliche
so zial
Ġex p
Ġbeh alten
Ġgest ern
gehen den
ĠZahl ung
uropÃ¤ ischen
Ġteil t
ĠBesch luss
Ġstaat licher
fÃ¤h ige
ĠKo hÃ¤
Ġbetroffen e
An zei
ĠMot iv
ifiz iert
Ġverz ichtet
ĠNie mand
gl omer
ĠÃĸff nungszeiten
ĠpersÃ¶n licher
ĠMet hoden
Ġverab schiede
ĠBundesamt s
ĠTem po
Ġverpflich ten
ĠMobil funk
Ab gabe
Ġro ten
Ġbeant worten
Ġbetrach ten
Ġnachhalt ig
kran k
Ġmoral ische
ĠBro schÃ¼re
ministerium s
Ġengag iert
ĠBevÃ¶lkerungs wachstum
Ġkonserv ativen
ĠTessin er
heoret iker
institut s
Ġauft reten
Ġklass ischen
ĠDor f
ĠzustÃ¤nd igen
ĠSa ison
ĠDritt staaten
ĠFÃ¤h igkeit
sitzen de
Ġanerk annt
ĠRend ite
ĠProstitu ierte
Ġlangfrist igen
cy c
ĠAbhÃ¤ng igkeit
ĠIA AF
ĠLeicht at
ĠBezirks gericht
ĠFlugt icket
wÃ¶ch igen
ĠVerknÃ¼ pfung
ĠgrÃ¼ nen
2 7
3 6
4 2
F ranken
G H
K r
M U
N ZZ
Z eit
f ehler
i ater
k Ã¶mm
r et
st eht
ĠS NB
ge gn
sch mid
Ġv olle
ĠD os
ĠA R
ĠA x
Ġz er
or dent
Ġm asch
gen tin
ĠM oral
Ġh omosexuelle
ĠF oll
Ġf inn
ĠK reisen
ĠP ubl
lich keits
ĠW h
ĠW ende
Ġge langen
isch ung
Ġer fordert
Ġer innern
Ġver sprochen
eh lung
Ġan halten
ĠL Ã¤den
ĠL enkungs
ĠSch Ã¼ler
ĠSt an
etz ten
etz ungen
Ġun l
Ġun sicher
Ġp artei
Ġvor ange
Ġt reibt
ĠEr f
wer bung
ĠAus wertung
aus schuss
Ġander erseits
ĠKon s
lie be
imm el
ĠBer g
Ġ3 000
Ġpro gress
Ġbes etzt
Ġbr em
vor schriften
fer enzen
Ġsol id
Ġ5 7
ĠGrund sÃ¤tzlich
ĠUnter halt
akt ive
kehr en
Ġbesch eiden
ĠArbeits losen
ĠArbeits krÃ¤fte
beh agen
ĠGegen wart
nit ten
ald o
ĠUr laub
pl Ã¤tze
ere cht
Ġte sten
Ġgest Ã¤rkt
ĠNeu e
Ġbew ahren
Ġaut orit
Ġkrit ischen
ĠKrypt o
ĠRes earch
ĠSon nen
Ġverk nÃ¼pft
ivi leg
reg ulierung
stehen de
ĠIns el
ĠWachstum s
ĠFern melde
Ġverd anken
hem a
Ġtiefer e
ĠPhil ipp
ĠAktiv isten
ĠRom and
Ġmuslim ische
ĠUrs achen
Ġungew Ã¶hn
Ġbedingungs losen
ĠAust ritt
Ġchrist lichen
ĠBestand teil
ĠBu ssen
Ġorient iert
ĠFranz osen
Ġvorgeschlagen e
ĠKompeten zen
rep ublik
ĠStÃ¤r ke
ĠFÃ¼nf tel
ĠMeer es
Ġad ministrat
ĠEinschrÃ¤n kungen
ĠSÃ¼ den
ĠJed es
ĠSchieds gericht
ĠErinner ung
ĠKÃ¶ pp
ĠBilater alen
ĠAusgangs lage
ĠKombin ation
Ã¤dag og
ĠOmb uds
1 6
M ehr
d iert
h art
h ausen
i ot
k Ã¶pf
m eld
m oral
r eligi
s h
s ive
u ck
Ġ reisen
er d
ie b
un z
an bieter
an alyse
sch art
ll ekt
ĠD Ã¤n
Ġn ord
gen ie
ĠE d
ĠM os
ĠM auer
ĠG Ã¶ss
ĠK Ã¶l
Ã¶ pft
ig anten
ĠV o
Ġge klÃ¤rt
ĠI I
Ġver glichen
ĠZ ut
ĠSt ein
Ġbe denken
Ġst anden
Ġst opp
Ġst eckt
sen z
ah e
ĠUn behagen
ĠEr gÃ¤n
rÃ¤ ftig
mer zen
stell ungs
Ġneu sten
ĠUm stand
sst euern
Ġpro fession
Ġpro gnost
ri an
Ġbes ondere
Ġbes uchen
ĠBet schart
ac kt
Ġpolit isches
ech te
Ã¤m pf
ĠMan ipul
St Ã¤nder
ĠTr ennung
Ġwei sse
Ġho her
ĠPl attformen
unkt ionen
ĠHin weis
ĠAt omm
ph ase
zahl ungen
Ġwelt weite
last ik
Ġlange m
az in
ĠBes ser
ĠRes pekt
gemein de
ĠPrÃ¤sident in
ĠEigen t
ĠChrist entum
zus agen
spar ent
ĠLie chtenstein
Ġschwier igen
beg leitung
ober t
ĠLe v
Ġgute m
Ġjem anden
ĠSen i
leben s
ĠWe ber
ĠJe de
Ġdemokrat isch
test et
Ã¼h ungen
ĠKonfl ikte
Ġerhe ben
Ġvern Ã¼n
Ġmein te
Ġabsol ute
ĠAnrei z
Re form
Ġausgeb il
ĠLei p
ĠKonsequ enz
Ġumfassen de
Ġhe ftig
ĠgeprÃ¤ gten
ĠKa der
Ġhistor ischen
So ftware
ĠsÃ¤kul ar
ĠDepress ionen
ĠErb gut
ĠDor is
ĠEntscheiden d
Ġgeeig net
Ġeinseit ig
ĠkÃ¼m mern
Ġkom bin
ĠFÃ¶der alismus
ĠSchla f
ĠRepubl ikaner
Ġtenden ziell
Ġsteig ern
C as
E M
a ft
a frika
f iz
g ab
g eist
o zi
p ern
r el
z eilen
Ġd eb
Ġd ep
Ġd eta
Ġd okument
Ġs im
ein st
Ġw Ã¤rmer
Ã¤ ck
ĠS ir
sch ritt
Ġv ari
Ġein gesetz
ĠA G
Ġn utzt
Ġh alt
et ung
ĠG et
ĠP unkten
ĠP flanzen
Ġge forder
Ġer reich
eh me
ĠZ ehnt
Ġl Ã¤nd
Ġim port
ĠVer n
ĠVer braucher
ra k
sen de
Ġaus gesch
Ġsch eiden
sp rÃ¤
sp otenzial
ĠUn i
ist ent
Ã¶r se
ĠBe urteilung
Ġunter scheidet
ges prÃ¤
kl asse
Ġzwei tens
geb ieten
ri c
Ġgen annten
Ġgen ehm
Ġkon tin
Ġe w
fahr ens
ĠWer den
fl ug
Ġgesch Ã¤tzt
stÃ¤nd ige
St udie
sor ganisationen
pl omat
ĠSchw ier
voll en
ĠMus k
Ġbef ragt
such ten
ĠLin ks
ĠAnge legen
ĠSpiel en
kam pagne
ĠSon ne
wahr scheinlich
ĠFach leute
Ã¼hl en
Ġwirk sam
ĠGewalt t
ĠKo ordin
ĠLandes kirchen
Ã© suisse
Ġmass ive
gÃ¤n glich
ĠnÃ¶t ige
ĠBil dern
Ġmittler en
nehm ern
ĠApothe ker
ĠKor an
ĠKor re
ĠBetrieb s
ĠVoll zeit
Ġdurchschnitt liche
ĠVideo spiele
ĠWebs ites
ĠLang zeit
ĠWinter th
Ġmoral ischen
spolit ische
ĠTodes fÃ¤lle
ĠInnen minister
Ġkor re
ĠTer min
mitt lung
ĠSzenar ien
ĠVerteid igung
anzler in
Ġkompens iert
ĠErwerbst Ã¤tigkeit
Ġmel den
steh er
ĠPrÃ¼ fung
Ġph ys
ĠSonntags Blick
ĠKennt nis
Ġbesonder en
Ġeinzus etzen
ĠDilem ma
ĠCam brid
Ġrechtfert igen
ĠPier re
ĠImmobil ien
ĠNest lÃ©
Anzei ger
ĠGÃ¶ss i
Ġdeta ill
ĠCambrid ge
C o
D och
G rad
H andel
J P
M Ã¤r
f unktion
g ibt
j et
n Die
r ungen
w Ã¶r
Ġ ungen
Ġ eig
Ġ Ã¤ndert
Ġ reiche
er al
er kt
st ung
on ym
ĠS au
ĠS ekt
ĠS Ã¤kul
at ell
at ers
Ġv irt
ĠD SGVO
Ġb inden
Ġin nen
Ã¼r zung
ĠG allen
Ġer arbeitet
Ġver handelt
Ġver passt
re gen
re gung
ĠL os
ĠT am
ĠT Ã¶tung
Ġl a
ĠSch atten
ĠSt ich
ĠN et
ĠVer ordnung
ĠVer pack
us sten
ĠIn dex
ĠJ Ã¼n
eu ch
Ġsch rift
Ġdem ograf
ĠEin erseits
ver sprechen
lei den
igen d
Ġt Ã¼rk
rat s
Ġr ief
Ã¶r d
ĠBe kÃ¤mpfung
aus gleich
zent ration
ĠZu vor
ĠZu griff
for scher
ĠKon junktur
pf lege
schen de
Ġdies bezÃ¼glich
Ġzw eck
ĠIm port
Ġges orgt
geb aut
Ġbes itzt
Ġbest euert
Ġlie fer
ĠÃľber zeugung
Ġsol ch
qu alifiz
Ġange zeigt
Ġ6 2
Ġher kÃ¶mm
ĠHer stellung
ren te
ĠÃĦ l
ĠStud ium
Ġbek annten
wor ben
ĠForsch ern
Ġgest rich
ĠBr em
neh mung
Ġstatt dessen
kr ut
ĠPh arm
gew Ã¶hn
eid genÃ¶ss
Ġen ger
Ġen gl
spro fessor
ĠDar um
ĠStrom produktion
ĠDeb atten
zess ion
ĠGl Ã¤ub
ĠEigen verantwortung
ĠAdopt iv
Ġakt ive
ntag s
Ġung laub
ĠBehand lungen
ĠNor wegen
Ġbem Ã¤n
Ġberuf liche
ĠSpitzen sport
ĠwÃ¼n scht
ĠWol f
ĠDan eben
ĠBahn hof
ĠAust ausch
Ġkonserv ative
ĠVerz icht
ĠProgn ose
Ġbas iert
Ġries igen
ĠJahrhundert s
ĠEidgenÃ¶ss ische
Ġkonzentr ieren
ĠAbstimmungs kampf
Ġkompens ieren
Ġunmittel bar
ĠHam burg
ĠVergewalt igung
anstalt ungen
ĠAbgeordne ten
ĠBundest ag
Ġanalys iert
teu ern
ĠStrafver folg
ĠStaatsse kret
ĠTelek om
grÃ¶s ste
ĠAllgemein heit
ĠverlÃ¤nger t
ĠRich ard
Ġvorindustrie llen
D ass
I slam
M ai
Z eitung
b eln
b indung
d rÃ¼ckt
f abrik
f dp
h m
h Ã¤ngen
i alen
k oll
l ig
l Ã¤uf
p he
u ier
Ġ rat
ie tet
an dern
ein igt
Ã¼ ste
ĠS omit
ĠS ituationen
it ekt
sch n
Ġein nehmen
ĠA L
ar tet
Ġau ssp
ĠM asse
ĠF ischer
ĠF emin
Ã¶ pfen
Ġk rimin
el ung
ter s
Ġg ern
Ġge fÃ¤llt
Ġge testet
ĠL Ã¼cke
ĠT a
um ne
ĠSch ein
ĠSt ief
ĠVer sor
ra el
Ġaus gelÃ¶st
Ġsch ickt
Ġsch limmer
ĠAn lauf
sp ende
ĠEin bÃ¼rger
Ġum s
Ġum gehend
ĠEr zieher
ing ung
ĠVor beh
ĠVor gabe
ĠGr eta
ĠSp anien
Ġre chten
Ġdar stellt
ran ke
ĠBundes ebene
Ġpro pag
Ã¤ch er
lin ton
kon form
Ġeigen tliche
recht liche
St aat
wach s
Ġlei bliche
Ġ7 2
ĠStadt z
ĠProdu zenten
ĠEltern zeit
sche fs
Ġ9 5
brau chen
ĠMa x
Ġbel egen
ĠVerein barung
Ġdr am
Ġabge geben
Ġverw ende
ĠFlug hafen
ĠLie fer
Ġschl ug
ĠÃ¼ blich
Ġeinzu fÃ¼hren
mut ung
ĠÃ¶ sterreich
Ġmo ment
ĠGrundeinkommen s
ĠWe ge
ĠWahr heit
Ã¼h m
kÃ¼nd igung
ĠSam sung
Ġtiefer en
ĠJahrzehn te
arch ie
Ġanst eigen
Ġilleg al
miss brauch
Ġniedr ig
ĠGerichts hof
mÃ¤ss ige
ĠWen ig
Ã¶pf e
partei en
ĠAk zeptanz
Ġeth ische
Politik er
ĠStraft Ã¤ter
Ġlebens lange
Ġgleichgeschlecht lichen
ĠSpitÃ¤l ern
pe ace
ĠSpann ungs
Produ kte
ĠViz eprÃ¤sident
ĠKategor ie
dÃ¤m men
ĠFlex ibilitÃ¤t
ĠGreen peace
ĠVari anten
ĠLegisl atur
initi ativen
Ġdenk bar
Ġmasch in
ĠAtomm Ã¼ll
ĠLeip zig
Ġdeb att
3 3
A ls
B Ã¼rger
C omp
L Ã¤ndern
M in
N ach
P ar
a ison
f leisch
f uhr
j agd
k le
l ers
r ent
s werte
w Ã¤l
z ungen
z one
ch tern
st rÃ¤ger
ĠA sp
Ġb Ã¼r
Ġb lock
al isieren
ĠM Ã¤
ĠM el
Ġin dustrie
ĠF ake
Ã¼r en
ĠG Ã¤
ĠK al
au ten
el ben
de hnung
ĠR appen
ĠI P
ĠI T
ĠL izenz
ĠT o
ĠT ra
ĠSch m
ĠSch ill
ĠSt il
ĠSt rategien
ĠH ann
Ġst Ã¶rt
Ġun Ã¼ber
Ġun ab
Ġun bestritten
im it
Ġsch aut
Ġsch eitern
ken n
Ã¤r t
all i
ers atz
be zug
Ġman ipul
Ġwar nt
Ġbis lang
Ġre gelt
schen den
hin ter
ĠAuf nahme
auf gaben
Ġpro gramm
Ġkon kur
inder t
per iment
qu ellen
ĠUnter scheid
Ġ6 1
Ġ6 00
Ġneue sten
sl Ã¤ndern
Ġbesch rÃ¤nken
od ium
ĠTr ink
Ġunser es
Ġwei blich
In dustrie
Ġarb eits
ĠBr as
gehen de
ĠAt t
bet rieb
olle ge
jÃ¤hr ig
ĠerhÃ¶ hte
ĠMedien ber
Ġbegr Ã¼nden
Ġbegr Ã¼sst
Ġfol gte
ĠWei ss
ĠWei ssen
ĠStraf gesetzbuch
ym n
Ġausser ordent
ĠBef ragung
ĠKraft werke
ĠSchulden abbau
Un d
Ġper f
konzern s
ĠNot wend
ĠNatur kat
Ġfolgen den
ĠBot schaften
ĠÃĦn g
Ġvorge legt
ĠPap st
Ġinteress ant
masch ine
Ġbezei chnete
ĠunabhÃ¤ng ige
Ġintegr ieren
Ġstren ger
Ġungew oll
Ġsubvention ierten
ĠFre unde
ĠSchwanger schaft
Ġetabl iert
ĠDepress ion
ĠWaadt lÃ¤nder
ĠKÃ¼nst liche
Ġdamal igen
ĠHung er
mÃ¤r kte
beding ten
ĠMedic are
far be
ĠHeb el
zep te
ĠVolksbe gehren
ĠKÃ¶l n
Ġkontin uier
ĠStrafverfolg ungsbehÃ¶rden
4 1
4 9
9 0
b anden
b reite
b leiben
c co
g rad
l eitungen
p a
t i
z iert
Ġ eidgenÃ¶ss
ie te
ie der
st iftung
Ġs e
Ġa chten
Ġw em
ĠS ur
ge gangen
it a
sch Ã¼t
ĠD okument
ĠA ff
ĠA kadem
Ġn Ã¤h
ar isierung
Ġm assen
ĠB Ã¶rse
Ġh ar
ĠF ab
ss ektor
Ġf liesst
Ġf undament
ĠK y
ĠK er
ĠK VG
ĠP e
ur d
ĠW ellen
Ġver mitteln
um pf
ĠH undert
Ġbe gangen
ell os
cht zeit
sp lan
sp iegel
ĠÃ¼ber legen
ĠC ol
ĠEin stellung
ĠEin richtung
Ã¤r zte
ĠRe cher
wer f
gr enz
gr Ã¼nden
ĠVor gÃ¤nger
ĠÃ ł
ĠZu schlag
bar ungen
ĠUm so
Ġwen den
geb Ã¼hren
Ġger Ã¤t
Ġ5 000
fl Ã¼sse
qu is
Ġeigen tlichen
eist ungen
ĠFl ach
ĠFl uss
Ġverb rei
gleich heit
ens eits
ĠEm man
Ġgel assen
Ġausge hen
Ġverl etz
Ġklar en
ĠSchw y
ak ult
ĠQu ad
Ġtie fe
ĠMo derne
Ġinner e
Ġtechn ologischen
Ġ14 0
Ġheraus zu
Ġsex uell
abl en
berecht igte
ĠWest schweiz
ĠVide os
Ġargument ierte
ĠBehand lungs
ĠSam uel
Ab kommen
ĠFakt or
ordne te
Gr Ã¼n
ĠKandid at
ĠSan ktionen
ĠPsych ot
ĠArgument ation
Ġabsol v
stÃ¤t igkeit
Ġausgeb aut
ĠDetail hÃ¤ndler
ĠTreibhausgas en
Ġkeiner lei
ĠAlgorith mus
ĠprÃ¤ z
ĠIndividu en
Ġbedingungs loses
Ġrass istisch
ĠJur a
Ġmiss braucht
Ġbelie bt
spre che
ĠEtw as
ĠÃ¶konom ischen
we ge
ĠMarc us
Le arning
Ġangest iegen
ĠBus iness
ĠQuart ier
Mar ie
Ġon line
hlet ik
Ġerleichter t
Go ogle
ĠRadik alisierung
Ġjahrel ang
ĠVerpflicht ung
ĠEmp Ã¶rung
ĠClau d
ĠErei g
ĠSant Ã©suisse
ĠDefin ition
wal den
Ġunters agt
ĠAtomen ergie
ĠHels ana
schmid t
ĠStan ford
2 1
2 4
3 1
A V
D ienst
E n
S VP
d ru
d irektor
e ffizienz
g i
k or
p unkten
ei ern
an spruch
sch i
ĠD ritten
Ġein fÃ¼hren
Ġz ah
Ġn amen
Ġb irgt
ar fs
al istischen
ĠM aterial
Ġzu ges
Ġh arten
au te
ur a
ĠW alter
ĠW WF
Ġden ke
Ġden jenigen
Ġge lingen
ĠI G
Ġer stens
Ġer Ã¶ffnet
Ġver teilen
Ġan f
Ġan geschlossen
om o
ĠL asten
ĠT u
ĠT herap
ĠT oleranz
ĠZ immer
Ġmit machen
Ġo st
ck ten
ik amen
ĠAn wend
ab zÃ¼ge
ĠPro cess
ĠÃ¼ber wiesen
ĠUn sicherheit
ĠEin richtungen
Ġ1 30
ĠEr t
ant ie
ant rag
Ġab genommen
be utung
ĠAus stellung
Ġent ziehen
Ġdies elben
pp en
Ġsp ielte
ĠBer ater
pt ome
kl ang
Ġhin ge
Ġbet onen
ri ffe
ank ierenden
ĠÃľber prÃ¼fung
Ġeigen er
ĠKinder garten
Ġverb leiben
Ġgesch afft
ĠAm b
ĠMan chmal
ĠGeld politik
ĠFinanz ierungs
Ġhei ssen
gend es
Ġlei blichen
Ġverl or
ĠNational rÃ¤tin
ĠGro ssen
sk rit
ĠOr ten
ĠSteuer sen
ĠPf lichten
ĠGew iss
ĠOb ama
zÃ¼ ger
Ġind irekt
str asse
ĠMann es
Pro blem
Ġentwick elte
gemein den
Ġabge st
vol umen
Ġverw ehrt
ifiz ierung
kraft werke
ĠGesundheits wesen
Ġzul assen
ĠLie cke
spr inzip
Ġausl Ã¶sen
ĠKat astrophe
Ġhal bes
ĠhÃ¶ch st
Ġakt uell
yp en
ĠPlastik s
ĠJe an
ĠBerlin er
mel zen
Ġverd Ã¤cht
wÃ¼rd igkeit
Ġverurs achen
ossen schaft
Ġfl Ã¤chen
Ġend gÃ¼lt
ĠRad io
ĠOber grenze
ĠHe er
ĠSzen e
Ġindividu ellen
ĠGanz e
Ġgesp eichert
Ġhe ftige
ĠTrans aktionen
ĠSh opping
ĠReligions gemeinschaften
zum achen
ĠsÃ¤kul aren
ĠVerz Ã¶ger
ĠDeleg ation
Ġarbeite te
Ġordent lichen
alk an
Beit rÃ¤ge
ĠGeheim nis
Ġspezial isiert
Ġverlang te
ĠKrimin alitÃ¤t
ĠRel ev
ĠKre ativ
ĠMÃ¼n chen
hop s
ĠZent ren
ĠMari hu
Ġtro cken
ĠBundesverwaltungs gericht
ĠJahrtausend wende
ĠFreihandels abkommen
Ġkontinuier lich
% ,
' s
B M
G aller
H S
K am
N eu
S uche
W R
g igen
i ro
l d
n ot
p ol
p reisen
w as
Ġd ient
Ġd ifferenz
ei sen
in t
ich ern
ge halt
as er
ĠD om
Ġein stellen
Ġein heim
Ġz eu
or f
ĠM Ã¶
Ġf roh
den tschaft
ĠK och
ĠK os
ĠK MU
ber at
ig ranten
ter en
ĠW Ã¤re
ir bt
Ġer wiesen
Ġver spricht
Ġver suchte
ĠL anc
ag ue
ĠSch ach
ĠSch Ã¶n
ĠSch eitern
ĠSt oss
ĠH irn
ĠH underte
ĠN orm
le chtern
ĠIn kraft
ĠIn flation
ĠJ in
Ġbe will
Ġbe wirken
Ġdass elbe
Ġun t
Ġun mÃ¶glich
Ġun beg
Ġun heil
Ġun wahrscheinlich
im pf
Ġsch weiz
Ġsch aden
Ġsch Ã¶nen
Ġp atri
Ġbei getragen
ĠC l
ĠC ont
ĠC ash
ĠC linton
Ġt herapeut
ĠEr rungen
ĠRe cyc
ist innen
ist iken
la dung
Ġab zul
art ig
ĠAus gestaltung
ĠAus dehnung
ĠBe at
ĠBe gehren
Ġunter stellt
ĠGes inn
Ġber uh
ert ig
ĠMen gen
alt y
ĠEnt gegen
br ingt
Ġges unden
Ã¼t tern
Ġbes eit
ĠGrund versorgung
Ġange kommen
Ġher gestellt
ĠRecht skommission
rÃ¤si dentschaft
ĠGen ehm
ĠFrei heiten
ĠKlima er
Ġhei sse
ĠTr aum
ĠPrei sen
Ġeinge gangen
Ġbez weif
ĠNational bank
Ġ8 9
ĠEnergie gesetz
ĠEnergie wende
Ġho ff
ĠKam pagnen
ĠZahl ungen
Ġeinfach e
bet riebe
pr inzip
ĠEntscheid ungs
our ismus
Ġwichtig es
ĠBest immung
ĠAnge la
ĠMigration spolitik
Ġkrit ische
leist ungs
ĠGener ika
schw ung
reg ionen
Ġkurz er
ĠLandes regierung
ĠAbkommen s
Ġerfolg reichen
Ġqu o
Ġqu al
ĠÃ¤uss erte
Ġerf assen
staat es
ĠKomp l
gef unden
ĠInstitut s
ĠFern er
ĠPfle geheim
Ġregul ator
ĠWahr nehmung
Ġdefin itiv
ĠKommun ikations
ĠZul iefer
Ġauss ieht
ĠGest alt
ĠGest altung
Ġwissenschaft lichen
Ġkleiner en
Ġfrem d
geordne te
mÃ¤ss igen
Ġbi ologische
eth ode
Ġdomin iert
Ġfossil er
Ġtran s
Ġorient ieren
ĠSchlag zeilen
Ġeth ischen
ĠBeschwer den
ĠWettbewerbs fÃ¤higkeit
Ġverteid igen
ĠÃ¼berwie gen
gerecht igkeit
ĠNahr ungsmittel
ergeb nisse
Ġerforder lich
ĠHitze w
ĠKrankenversicher er
Ġvorber eitet
Ġfern er
ĠPhilosoph ie
ĠBeschuld igte
Ġmin im
ĠMinim um
Ġkoll ekt
ĠIndustr iel
ĠCrowd f
ĠInterpret ation
ĠJÃ¼r g
Ġbenachteil igt
ĠGrÃ¼nliber alen
Ġdep ress
ĠAsp ekte
3 7
N A
S V
a kte
e sten
g ra
m orgen
m Ã¼ll
n ers
r igen
s Ã¼cht
s burg
er er
ei ss
an kt
Ġs ens
on a
on ald
on ial
Ã¤ llig
ĠS Ã¤tze
ĠS emen
ĠD am
ĠD ikt
Ġein genommen
Ġn irgend
ar ia
ĠE chtzeit
ĠB lack
al ie
em a
em ark
den z
ĠG abr
ĠG Ã¼ter
ĠG ymn
ĠK an
ĠK aum
ĠK omitee
el eg
Ġg Ã¤ng
Ġge langt
is ierungs
Ġver bringen
re den
om a
ĠZ weit
Ġl eb
wei ss
kt ive
ĠN ummer
ĠVer urteilung
ĠVer schuldung
ck ung
ĠIn dem
ik ern
eu tet
Ġsch ul
ern er
ĠEin wohnern
Ġvor legen
ver se
lei b
Ġihr erseits
ĠEr hebung
ill iarde
ort h
ot o
ĠO s
Ġr ichtet
ige m
ĠGe bieten
lo ser
hl ung
Ġzum eist
her steller
Ġdurch gesetzt
ok uss
ĠUm denken
ĠIm age
lim ate
ĠEnt lastung
ĠBei hilfen
Ġ3 50
ud d
Ã¤u men
ĠAl arm
rÃ¤s id
qu oten
gesch ritten
ĠBet eil
Ġ6 3
Ġ6 8
Ġdeut sch
fÃ¼ llt
hÃ¶ re
hÃ¶ he
setz ungen
ĠMon ey
ĠEl ement
ĠArbeits gruppe
sor gen
ek ut
Ġeinz ur
Ġ200 5
sk osten
ib le
so fern
ĠFac e
Ġstatt f
zahl ten
ĠZusammen halt
ĠfrÃ¼ he
Ġbel astet
haus es
Ġgross em
ĠLohn schutz
ĠRes erven
Ġwirk ungs
Ġvoll er
ĠHo ffen
Ġanders wo
Ġinter pret
Ġschwier ige
Ġper man
verband es
ĠNot fall
ipp en
ĠInd ones
ĠWest e
Ġzentr alen
Ġverf ehl
bew usstsein
Ġaktiv en
Ġvorge worfen
ĠMark eting
Ġbem erken
ĠProfessor in
ĠImpf stoffe
iffer enzen
ĠÃ¼berw acht
prÃ¤sident in
uk le
Ġras ant
Ġbi ologischen
ĠPet ra
ĠImm igration
Ġbedingungs lose
Ġexist ieren
ĠNachrichten agentur
ĠerwÃ¤hn ten
Ġwert voll
Ġallgem eine
ĠFranz isk
ĠjÃ¤hr liche
Ġpoten ziell
Ġgenie sst
ĠBeschÃ¤ft igung
ĠErwerbs arbeit
Ġidentifiz ieren
Ber eich
Ġklim asch
Ġmittel fristig
ĠLink ed
Ġregistr iert
Ġflex ibl
ĠHor iz
ĠFrÃ¼h jahr
ĠplÃ¤d iert
ĠClo ud
ĠNad ine
ĠbefÃ¼rwor tet
Ġverdopp elt
ĠGewerkschafts bund
brÃ¼ che
ĠBetr acht
ĠEnergiet rÃ¤ger
ĠVerschwÃ¶rungstheor ien
Ġassist ierten
Ġjetz igen
Ġsug ger
Ġunl Ã¤ngst
ĠKÃ¶pp el
ĠDÃ¤n emark
MÃ¤r z
ĠEmman uel
ĠInkraft treten
ĠGabr iel
ĠMoney land
. ).
A nt
F S
I D
O ktober
U S
f S
f uss
j an
k anton
p ersonal
r eiter
z z
in c
Ġs er
as che
sch on
ĠD utzen
ĠA p
em it
ĠM und
ĠM eter
ĠM eier
ĠF eh
ĠF euer
Ġf okuss
Ã¼r zt
ĠG eht
ĠK arten
Ġk enn
ier s
icht iger
ĠW HO
Ġge folgt
Ġer stellt
Ġver sicher
ft a
ĠT ru
ĠT rav
ĠH immel
ĠN id
ĠJ ose
Ġst reichen
Ġsch Ã¤tz
Ġsch icken
ĠAn kÃ¼ndigung
ĠÃ¼ber dies
ĠEin ladung
Ġvor gehen
ungs weise
Ġt rennen
ĠEr ste
rat iv
Ġr ufen
ing lich
ĠAr mee
ĠAus beutung
ĠGr iff
ĠBe kannt
Ġent stand
Ġent lasten
Ġent tÃ¤u
lo w
Ġunter zeichnet
Ġman geln
stell bar
Ġdies jÃ¤hrigen
ativ er
ĠSo bald
ĠmÃ¼ h
ĠAuf sehen
id es
Ġhin sichtlich
Ġbet reut
Ã¤nd igen
ĠÃľber blick
ord nen
Ġher an
Ã¶ff nung
ech ten
ĠÃĦ m
ĠEl emente
ĠGer echt
ĠfÃ¼hr enden
Ġausge wei
ĠCh ip
Ġkommen t
Ġsowie so
ĠEnergie effizienz
ĠAt hleten
Ġ9 9
ĠKl ub
Ġmei stens
Ġde klar
ĠDe fizit
ĠBest raf
ĠBesch rÃ¤n
Ġersch weren
ĠExper i
ĠBas ler
ĠstÃ¤rker e
ĠEigen schaften
ĠWirtschafts wachstum
ĠErn euer
Ġerw eitert
Ġanges ehen
ĠKont inent
under ten
ĠGesamt arbeits
Ġne ur
ĠKonfl ikten
ĠprÃ¤sent ieren
res pon
Ġnachhalt igen
eutr ale
ĠEmpf ehlung
ĠwÃ¼n sche
Ġtradition ell
eiger ung
ĠBetreuung spl
ĠprÃ¤ vent
ĠAns Ã¤tze
ĠursprÃ¼n glichen
Ġfrag lich
ĠFlÃ¼chtlings krise
Ġsorg te
Ġjur istischen
ĠSc ience
ĠSens oren
iqu Ã©
Ġdiver sen
ĠVerbesser ungen
Ġschweizer ische
ĠSym bol
ĠmÃ¤nn lichen
ĠÃ¼berwie gend
ĠErwachsen en
ĠgewÃ¼n scht
Ġangest reb
Ġidentifiz iert
ĠnatÃ¼r liche
ĠgrÃ¼n e
ĠPilot versuch
ĠChar akter
ĠGripp e
ĠHaut farbe
ĠFal sch
ĠAg glomer
portion al
ĠInvestition s
ĠPrivileg ien
ĠBay ern
schaf tern
ĠWÃ¼n sche
ĠGrem ium
Ġsamm eln
Ġstra ff
Ġerho fft
ĠLat ein
ĠVerschÃ¤r fung
Ġveh ement
Ġbein ahe
ĠCommun iquÃ©
ĠPfarr er
ĠDemonst ranten
Son ntags
hÃ¼llungs verbot
ĠZehnt ausende
ĠSekt oren
ĠStadtz Ã¼rcher
ĠNaturkat astrophen
ĠÃĦng ste
ĠMarihu ana
1 3
5 4
5 9
6 4
B r
B ot
C VP
R ed
b rÃ¤
b elt
b udget
b acher
d ar
e zif
h orn
p aket
r end
t Ã¤
u ff
w Ã¤lte
Ã Ħ
Ġ us
ei sten
in i
in stru
Ġa pp
Ã¼ g
Ġw id
ĠS ing
at o
sch Ã¤r
sch reiten
ĠA tem
ĠA ct
Ġau st
ĠB isch
ĠB ang
ĠB onn
Ġin lÃ¤nd
ĠF ans
ĠK lagen
ĠK Ã¼nftig
ĠP or
el en
ber eiche
ter nen
ĠW ahls
Ġge deckt
ĠR entner
ir e
Ġer reichte
Ġver gr
Ġver schaffen
re ch
ĠL eid
ĠT alen
ĠT ief
ĠT aiw
am in
wei ger
ĠH orm
ĠN ov
ĠN ationale
ĠIn se
Ġbe achten
Ġst irbt
ah nt
Ã¼ber nahme
Ġun kontroll
im a
Ġp art
Ġp ragmat
ĠEin tr
ĠEin haltung
ĠEin stellungen
Ġj eg
ĠJahr h
lei che
Ġt oler
zu stand
zu schlag
op pt
op tion
ist an
Ġab gesehen
ĠVor st
ĠBe frist
lo cken
Ġman cher
hl en
ĠZu wanderern
ĠAb wehr
Ġges ichert
id a
Ġbes itzen
Ġbes ucht
ob by
Ã¤ch ten
ĠÃľber zeug
pro zess
pro fessor
qu em
sicht ig
ĠArbeits bedingungen
Ġklar er
ĠSteuer einnahmen
schlag gebend
ĠHand lung
Ġversch oben
prÃ¤ mien
Ġhoch ge
will ig
ĠDemokrat ien
ĠBest Ã¤t
ĠLÃ¶s ungs
ffiz ient
Ġersch wert
Ġaufge fordert
ĠFach hoch
fÃ¤h igen
ĠMo h
ĠGl as
vert reten
ĠAuss ichten
ĠFort pflanz
Ġempf ohlen
ĠErfolg s
ĠPlast ic
bei spiel
serv ative
Ġanzu passen
ĠBo om
ĠPer iode
ĠItalien er
ĠEng land
ĠMobil isierung
Ġfort geschritten
Ġnotwend ige
Ġbeant wortet
ĠInnov ations
Ġbem Ã¼
kran ke
ĠTemperatur anstieg
agn ost
eiger t
Ġverwei gern
ĠgewÃ¤hr lei
ĠBrenn stoffen
Ġhil f
Ġkommun izieren
ĠsÃ¤kul are
ĠNachrichten dienst
ĠGeschÃ¤ftsm odelle
ĠBeschÃ¤ft igten
Ġordent liche
ĠVersorgung ssicherheit
Ġmut mass
ĠtÃ¶d liche
Ġrest lichen
Ġmobil isieren
ĠRechen zentren
ĠAesch bacher
klus ive
Ġeingetragen e
Ġvorliegen den
Ġrelev ant
Ġsep ar
ĠGlied staaten
Ġverwahr t
Ġvors ieht
lant ik
Ġheter osex
ĠLok al
verst anden
isstr auen
ĠlebenslÃ¤ng liche
ĠLeichtat hletik
ĠOmbuds stelle
Ġgestrich en
ĠIP CC
ĠBras ilien
Ġnamen s
Ġschweiz weit
ĠKlimaer wÃ¤rmung
Ġausgewei tet
ĠEintr acht
5 5
D a
D eb
F oul
S e
T eil
W all
g ol
k n
k reis
l assungs
m utzung
n amen
t akt
u v
w n
y d
Ġ ter
Ġ ra
Ġ Ã¤nder
ie sser
in f
Ã¼ bung
Ġw isse
Ã¤ cke
ge kommen
ĠD oku
ĠD istanz
Ġein schlÃ¤
Ġein fluss
ĠA ven
Ġz ivil
Ġb ist
ar ats
ĠE ck
ĠE WR
ĠB ol
ĠB GE
Ġh arte
Ġh ielten
Ġf Ã¼n
Ġf eiern
ĠK ro
ĠK reuz
ĠP R
au ben
Ġk re
ber ater
ĠW eder
Ġge tr
Ġge legt
Ġge hÃ¶re
de utet
ĠR a
ĠR ettung
ĠR umÃ¤n
Ġer leben
is a
is ation
Ġver wies
re y
re bt
ĠL Ã¤rm
ĠT eu
am ing
Ġmit zu
ag azin
ĠN o
ĠVer w
ik ett
Ġaus geben
ĠFr isten
ĠPro banden
ĠUn mut
ĠC ook
ĠEin blick
Ġvor wiegend
Ġum sch
Ġum fang
Ġum zusetzen
ver schuldung
ĠEr halt
ĠRe chnungen
rit or
Ġab geben
be wahr
ĠGr Ã¼ndung
end es
Ġwar tet
ĠGes uch
ĠKon kurs
ru pt
ĠSie fer
ĠSo w
ĠBer ichts
ĠAb schied
br igen
kl am
Ġges ammelt
Ġweiter entwick
Ġpro vo
geb oren
inn e
ĠPar mel
olog y
Ġ19 45
Ġgem eldet
recht lich
fr eit
fÃ¤ lligen
eich ern
ks wirtschaft
Ġbesch rieben
ĠfÃ¼hr ende
Ġausge gangen
Ġnie mals
reich ung
ĠCh ips
Ġ8 4
ĠEnergie verbrauch
ĠLu c
ĠSelbst mord
ĠAt rium
frei e
Ġbeg leiten
Ġ9 6
ĠgehÃ¶r te
unter richt
unter schiede
Ġleben den
ĠIntern ationalen
Ġbegr Ã¼ndete
Ġgelten de
ĠVerl auf
rÃ¤sent ation
ĠunterstÃ¼t zten
dust ri
ĠWirtschafts leistung
Un ter
ĠGut scheine
Ġerf Ã¤hrt
Ġauszu schliessen
hem ann
system e
ĠAfr ikas
wÃ¼rd ige
ĠDort mund
Ġverurs achten
Ġoffiz ielle
Ġpass ieren
ĠAd rian
ĠDi men
ĠDep artement
ĠKauf mann
ĠVoll zug
ĠprÃ¼ ft
Ġumstritten e
ĠVis ion
ĠGed anke
eutr alitÃ¤t
ĠSk andal
ĠDetail handel
Ġilleg alen
Ġwest liche
ĠZentral bank
ĠVerkauf s
Ġeinsch rÃ¤nken
Ġsubvention ierte
ĠLetz tere
ĠAktion Ã¤re
Ġhistor isch
Ġradik al
ĠSchaff hausen
Ġattraktiv er
Ġinstitution ellen
Ġarbeite ten
ĠjÃ¼nger e
ĠjÃ¼nger en
ĠMassenein wanderungs
ĠPan ian
ĠMinister prÃ¤sident
ĠHam burger
ĠStartup s
Ġko ordin
ĠBrun ner
regel ung
Che ck
Ġambul anten
ĠPassag iere
ĠTie fen
Ġenor me
sspiel raum
Ġleist et
Ġgegenseit ig
ĠPrior itÃ¤t
ĠNiederlan den
ĠfamilienergÃ¤nzen de
Ġzei chnet
ĠSchwangerschaftsab bruch
StÃ¤nder at
ĠbÃ¼r okrat
ĠNotwend igkeit
ĠQuad rat
ĠProcess ing
ĠCrowdf und
ĠGerecht igkeit
ĠBestÃ¤t igung
ĠRumÃ¤n ien
B ild
E A
G ru
K ont
L and
P A
P rÃ¤sidenten
R enten
S elbst
b ul
d y
f tet
l y
l ings
l Ã¶sen
m ot
o ver
p os
r ant
s i
t rieben
t ausende
Ġd istanz
Ġd eutet
st es
st udie
ein em
on enten
Ã¤ ssen
ge d
it or
te sten
ĠD ata
ar a
Ġm orgen
ĠE ros
al u
ĠF M
ĠF it
ĠF ut
ĠF eind
ĠK ost
ĠP ru
ĠP osten
ĠP ak
Ġk ommer
ĠW ag
ĠW EF
ĠR ass
ĠR unde
ĠR obert
ĠI D
Ġer zeugt
Ġver sen
Ġver sprechen
Ġver gleichen
Ġan n
Ġan gesetzt
ĠL ernen
Â» ).
ĠfÃ¼r chtet
ent eils
ĠU l
ĠH aben
ĠH omosexuelle
ĠN a
ĠN ame
il der
Ġst euern
sen der
Ġaus schliessen
sp ersonen
ĠFr on
ĠÃ¼ber st
ĠUn recht
Ġvor nehmen
ver hÃ¤lt
Ã¼n n
Ġt hem
ger te
Ġ20 40
ill er
ĠRe chten
ot a
ot um
ot ierten
ĠO pf
Ġr eine
Ġr Ã¼cken
be ziehungen
ĠGe brauch
ĠGr Ã¶ssen
ĠBe werb
aus fÃ¤lle
zen e
pf el
Ġdurch ge
gel dern
rie sen
ĠSo wohl
Ġsp rich
ĠUm bau
ĠAb bruch
Ġbet reuen
rÃ¼ ger
vor steher
ad option
Ġwieder holen
Ġ4 000
ĠMar co
ic o
ĠNach mittag
Ġange ht
ĠGesch w
klÃ¤r en
Ġher bei
ĠTh urg
ĠUnternehmen ssteuer
Ġverb ietet
ĠGem Ã¼
Ġbesch w
ĠEl on
ĠFinanz en
ĠFinanz markt
St iftung
Ġhei kle
Ġ8 6
weg ungen
sk i
dr Ã¼cken
ĠZus Ã¤tz
Ġho fft
In ter
voll zugs
Ġschw anger
ĠZahl ungsmittel
ĠAt mo
ĠRÃ¼ck en
ph arma
Ġch ancen
Ġbed roh
ĠKultur en
Ġgerade zu
best immungen
ĠLin ien
ĠStaaten gemeinschaft
ĠSol daten
kur se
ĠkÃ¼nst lich
ĠBel gien
ĠFach stelle
ĠHoch schul
An teil
vert rÃ¤ge
ĠBau ch
Ġtechn ologische
ausen den
red aktor
Ġempf unden
ĠGesetzes revision
ĠWeiter entwicklung
Sch weiz
ĠVerhand lung
frie d
ĠWohl fahrt
Ġung leich
Ġklein es
ĠTel med
Ġdefin ieren
ĠTÃ¼r en
ĠLehr e
wo od
ĠIntegr ations
ĠSan ierung
ĠX i
ĠPsych iater
ĠHe alth
Ġinternational er
ibil isierung
ĠOffen bar
schaff ungen
Ġlanc ieren
Ġfrem de
ĠAuff or
ĠIndividu um
ĠInnen stadt
Ġrass istische
ĠAmer ikas
ĠEnd lager
ĠbenÃ¶t igen
ĠKap itel
Ġsah en
Ġschle chten
ĠPensionsk asse
onn a
ĠverfÃ¼g baren
ĠMaxim um
ĠTrain er
Ġrest ri
ergeb nis
ĠSchn ell
ĠKrankenversicher ungs
ĠAesch i
ĠMas ern
Ġlo hnen
Ġpf legen
ĠAbgeordne te
Ġsu bstanz
ĠSchwarz markt
rab ischen
ĠBand breite
ĠMarktzu gang
vort eil
schr eitungen
Ġlesb ische
Ġdur fte
Ġvermeint lich
ĠZurÃ¼ck haltung
Ġbeschleun igen
ĠunzÃ¤hl ige
ĠHard ware
ektr um
Ġeingest uft
ĠDos is
ĠWh ats
ĠWinterth ur
ĠUnterscheid ung
ĠAnwend ungs
ĠRelev anz
ĠRecyc ling
ĠSemen ya
ĠParmel in
1 1
A ussen
D irektor
E D
H C
K lim
R assismus
W Ã¤hler
d auer
g ner
k omme
m Ã¤nn
o is
t eile
Ġ ei
Ġd ich
ie geln
st ab
st ant
Ġs ym
Ġw ecken
ĠS ah
ge fahr
Ġder einst
te am
ĠD NA
Ġein heitliche
Ġz ogen
ar ett
ĠE mitten
ĠB alkan
ĠM od
ĠF eder
et tet
ĠG laub
ber eitung
ig ar
ĠV eget
ĠR ose
Ġer leich
Ġer wachsen
Ġer wirt
Ġver weisen
ben e
ĠL Ã¼cken
Ġauf kommen
ent scheiden
um satz
ĠSt ufe
ĠH als
le hr
Ġst iess
Ġwer ben
ĠAn gel
ĠAn hÃ¶r
ĠAn kunft
sp recher
ab schluss
ĠPro gress
Ã¤t innen
ĠUn sere
ĠC lick
lei chen
lei bt
Ġt od
Ġt eils
Ġt rug
ĠRe ferenz
uss ia
Ġr ent
gr Ã¼nde
he er
ĠVor instanz
ĠBe wertung
Ġent lassen
ĠKon to
imm ungsinitiative
Ġdar stellen
ick te
Ġsp Ã¤testens
Ġsp iegelt
sst r
Ġviel fach
Ã¼t ze
rÃ¼ stung
ob ile
sam er
vor schlÃ¤ge
per rt
Ã¤ss er
ĠPar ade
ĠWelt anschau
ĠEx ekut
ĠHer zen
ĠMan gel
ĠGeld strafe
Ġbesch loss
Ġfest zu
ĠAll gem
ĠArbeits welt
Ġverl Ã¤ss
vest itionen
hol fen
Ġte m
ĠDeutschland s
ĠSter e
Ġgest artet
ĠSchl acht
ĠMittel me
ĠIntern ationale
ĠMin us
Ġfol gten
ĠÃĦr ger
ĠHu ber
Ġdr auf
Ġkurz fristig
ĠRei hen
jahr en
urteil en
Ġgesellschaft lich
spr ung
Ġget rieben
ĠRegul ierungs
andid at
Ġlau ter
Ġmittler e
ĠbestÃ¤t igen
Ġwider spricht
struktur en
ĠFleisch konsum
ĠEmissions redu
ĠNew s
ĠprÃ¤sent ierte
ĠMerk m
Ġur b
ĠTier schutz
ĠAug sburg
Ġgesp ielt
Ġverbunden en
Ġras che
ĠWeltk lim
ĠkÃ¼nd igen
ĠAkte uren
Ġtran sparent
Ġerinner te
ĠbenÃ¶t igt
Ġjur istische
ĠSens ibilitÃ¤t
omite es
Ġnachvoll ziehen
New s
Ġgewiss er
Ġverteid igt
Ġkonzentr iert
ĠAarg auer
ĠBem Ã¼hungen
ĠExp ert
ĠMaxim al
ĠAtomkraft werke
ĠKol umne
ĠRang liste
ĠElektro aut
Ġspezif ische
Ġpar ad
Ġerled igt
Ġsep arat
ĠrÃ¤um t
ĠSamm el
Ġnorm alen
ĠLetzter es
Gesch Ã¤ft
Ġindir ekten
ĠKlin ik
ĠWid mer
Ġuntern ommen
Men schen
ĠFlugticket abgabe
Ġfinn ischen
Ġbrem sen
ĠVo gt
Ġstopp en
ĠTrink wasser
ĠErt rÃ¤ge
ĠLanc ierung
Ġpatri arch
ĠenttÃ¤u scht
ĠEmitten ten
ĠGlaub wÃ¼rdigkeit
Ġerleich tern
6 5
B lock
K inder
M O
b and
b org
b usse
g Ã¼ter
k Ã¶n
k arten
k Ã¼nftig
r iz
s vp
w w
w affen
y wood
Ġ .
er hÃ¶hung
st Ã¤r
on ente
ĠS Ã¼nden
Ġder selben
und ar
ĠD ossier
ĠA gr
or ter
Ġm essen
ĠE ffekte
ĠM y
ĠM ir
Ġzu verl
Ġh Ã¤ngen
ĠF e
ĠF und
ĠF abrik
ĠK im
el o
ig uren
ro t
ro ss
ĠV Ã¶
Ġden selben
men gen
Ġg riff
ĠR ick
ĠR ap
Ġver ant
Ġver lie
Ġver sprach
Ġver mittelt
ent ag
Ġsich ere
ĠU ster
ag ra
ĠSch r
ĠSch al
ĠH itz
ĠVer Ã¶ffent
ĠVer mittlung
ĠIn genie
ĠIn sofern
Ġbe endet
ehr te
Ġaus bauen
im eter
ĠAn zeichen
ĠFr ont
ĠC al
scha fft
ver mÃ¶gen
ĠEr folge
ĠEr ziehungs
ĠEr mitt
ĠRe port
Ġab gew
ĠBe kennt
ĠKon rad
ĠKon stru
ru h
ĠSp Ã¤ter
ran ch
Ġber Ã¼hm
ĠBer ufe
zeit ung
Ġweiter zu
ĠWir ksam
Ġbr ut
ĠMill iarde
Ġwill kommen
Ġgr Ã¼nden
wick lung
ĠPerson endaten
wir k
Ġher unter
ĠGesetz gebung
Ġgut gehei
Ġgesch eiter
sl Ã¤nder
od ox
ĠDa v
ĠÃĦ usser
ĠProblem atik
stÃ¤nd igen
ĠAut om
ĠKran ke
Ġkommen de
Ġwo von
Ġ200 1
ĠmÃ¶glich er
Ġwei tem
ĠPl ur
ĠMarkt anteil
ĠRegierung schefs
ogen en
eim ann
Ġoft mals
ĠKl assen
get reten
Ġbef ried
ĠHaus halte
ĠPreis ig
ĠVersicher er
Ġsicher er
ĠPrÃ¤ senz
ĠBeit rÃ¤gen
ĠBes itzer
ĠMo sche
err t
ĠIhr er
fs burg
ĠVertr etern
zus ehen
Ġzunehmen den
Ġprofit ierten
mÃ¶glich keit
ĠWar ren
arr y
Ġerfolg te
ĠGesetzes entwurf
Ġmass geblich
Ġqu er
ĠVolk spartei
ĠAbt eilung
ĠWohn ungen
ĠJustiz ministerin
Ã¤cht igen
urt eils
Ġfl or
ĠBÃ¼r okratie
ĠKoll eg
av e
Ġbeding te
Ġpsych ischen
ĠVis a
Ġabsol uten
sprÃ¼n glich
ĠÃ¼br ig
Ġanst att
Ġgek auft
ĠZul etzt
Ġextrem en
Ġfoss ile
Ġkultur ellen
ĠzurÃ¼ckge zogen
ĠIndividu al
omosex uellen
Ġblie be
ĠSelbstbest immungsinitiative
Ġderart ige
ĠKa ffe
Ġchrist liche
Ġradik alen
ĠVerk Ã¤ufer
ĠGeneral sekretÃ¤r
Ġabseh barer
komp eten
lÃ¶ hne
Ġthe ologischen
ĠSprecher in
Ġpoten zielle
Ġland et
ĠfÃ¼ llen
ĠBab y
ĠStÃ¤r kung
Ġgegr Ã¼ndete
ĠBem er
Ġreich lich
ĠSchmid t
ĠNormal itÃ¤t
Ġkur zen
Ġdamal ige
Ġregion ale
ĠFrauenrentenalter s
ĠdrÃ¤n gen
ĠFreund in
ĠglÃ¼ck lich
sprech ung
ĠVir us
ĠRab atte
ĠBor ussia
ĠStadtp olizei
Ġstation Ã¤ren
Mill ionen
ĠverstÃ¤nd lich
Ġvol kswirtschaft
ĠReprÃ¤sent anten
ĠFel ix
Ġselbstfahr enden
ĠNoten banken
ĠvorÃ¼ber gehend
ĠStaatssekret ariat
Ġunab ding
ĠIndones ien
ĠWeste uropa
ĠDutzen de
Gru ppe
ĠEros ion
Ġchancen los
ĠRap ha
Ġgutgehei ssen
1 2
2 00
A ktiv
A gentur
B LICK
B AG
J an
M ann
R at
R ente
Z iel
a ber
b eu
d isziplin
e de
e chen
g ier
h i
h ar
k ar
k redit
m odelle
n utzung
r or
s eiten
s Ã¤tzen
s ession
u sch
u gen
w ider
w Ã¤hrung
w etter
z ellen
z essen
in er
Ġs ank
Ã¼ b
Ã¼ bt
Ã¼ chte
ĠS n
at il
at tet
und heits
ĠD arb
ĠD unkel
ĠD ynamik
Ġein greifen
Ġein verstanden
ĠA dr
Ġb aut
Ġm ar
ĠB IP
ĠM aps
Ġin folge
Ġin klusive
Ġzu grund
Ġzu weilen
Ġh a
ĠF ass
eit ungs
Ġf ahr
Ġf Ã¶der
ĠG ame
Ġk Ã¤mpft
el tern
el che
ber eichen
ber eitschaft
ĠI V
Ġer achtet
Ġver an
Ġauf gesch
ĠT ritt
Ġl Ã¶st
ĠSt abil
ĠH IV
Ã¤n z
ĠN ichts
Ġso eben
Ġbe gehen
ik e
Ġst ri
Ġsch Ã¼tzt
ĠAn l
ab gaben
Ġwir bt
Ġwie sen
Ġvor ab
ĠEr klÃ¤rungen
Ġr ig
Ã¶r ungen
ĠBe willigung
Ġent fallen
ĠZu erst
bst anzen
lie fer
ĠSp enden
ĠSp iels
Ġdies mal
ĠSo ft
Ġsp Ã¤t
Ġsp ekul
ĠUm verteil
ĠBer ufen
Ġgew ohnt
ĠAuf regung
Ġbet rieb
Ġkl in
Ġkon tra
Ġkon stat
fÃ¼hr erin
Ã¤u fen
ĠAl ten
fl Ã¼ss
ast ungen
ĠWelt weit
olog in
Ġ19 60
Ġins zen
ĠTh un
ĠTh Ã¼r
fÃ¼ g
fÃ¼ llung
ĠEurop e
ischer weise
ĠPr im
Ġhei ss
sor ganisation
Ġgleich ermassen
Ġbesser es
Ġeinge laden
Ġ7 3
ĠUr he
ĠOr gan
Ġwei ssen
Ġwei blichen
ĠEltern urlaub
In dex
ĠSelbst ver
ĠRegel ungen
ĠZahl reiche
ĠZusammen setzung
Ġbel Ã¤st
ub il
ĠArt hur
ĠDienst leistung
ĠRenten reform
ĠMedien mit
ĠApp l
ĠWissen schaften
ĠDar aus
ĠeuropÃ¤ ischer
ĠSchutz klausel
Ġleg ale
ĠVerl etzung
Ġknapp e
Ġwahr en
ĠRei sen
Ġabs urd
ĠIns eln
iver se
ĠWeiter bildung
ĠExperten gruppe
ĠKonkur rent
ĠMacht haber
Sch weizer
ĠRegul ierungen
Ġanges p
verl auf
Ã¤h ern
fel der
Ã¼h le
Ġwider sp
Ã¼tz ten
Ġ198 9
Ġaufzu bauen
ĠLehr er
part nern
Ġat t
ĠWÃ¼r th
Ġill ustr
Ġdurchschnitt lichen
ĠMedizin er
ĠKn ow
Ġlanc ierte
ĠgenÃ¼ gen
ĠElekt riz
ĠEntwicklungs lÃ¤ndern
ĠzurÃ¼ckge gangen
ĠHerr schaft
ĠLang hart
ĠZivil stands
ĠUrs ache
Man agement
ĠMissbrauch s
Ausstoss es
ĠAns ichten
ĠtÃ¤ glichen
ĠReligions freiheit
zut age
Ġrass istischen
ĠTeilzeit arbeit
ĠAlli ierten
Be wegung
Pl attform
ĠSuper markt
ĠfÃ¼ gt
ĠÃ¶konom ische
Ã¼st et
ĠPerspekt iven
ĠBesuch er
ĠVerantwort lichen
ĠWien er
ĠAf D
ĠÃ¼bert rieben
ĠMarktzu gangs
ĠGlar ner
ifest y
ĠGebie t
Ġaltern ative
Ġlandes weit
Ġradio akt
Ġverringer t
Ġbeauft ragt
ĠAR M
ĠSeni oren
ĠJÃ¼n ger
ĠJin p
Ġversicher te
Ġus w
ĠInse kten
Deb atte
ĠUnternehmenssteuer reform
Ġsym bol
ĠRick li
ĠWirksam keit
4 7
A I
F all
G iganten
H e
b le
b us
b art
e um
k annte
k Ã¼ste
l Ã¤sst
r in
r und
r ichtet
r Ã¼ndet
s ud
w Ã¤ch
z ehnt
en a
er ation
ei se
ie dr
st ar
st unde
Ġs al
Ã¼ llen
Ã¼ gend
on isierung
ĠS log
ĠS GB
at ienten
sch einen
sch Ã¤tzen
sch Ã¤den
te ch
Ġn Ã¼tz
Ġb undes
ĠM ol
ĠM isstrauen
ĠF air
Ġf assen
Ġf Ã¶rder
ĠG ibt
ĠG ames
ĠK P
ĠK napp
ĠP ut
ĠP est
ĠP rÃ¤sidentschaft
au ff
Ã¶ me
ĠW ander
ĠV iew
Ġge teilt
ĠR Ã¼ckt
ĠI O
ĠI CO
Ġver sp
Ġver nach
re de
re ckt
Ġan alog
ĠL eitung
ĠT rÃ¤ger
ut ing
ĠU g
ĠH en
ĠH MO
le fon
ĠVer weis
ĠVer hÃ¼llungsverbot
ĠIn lÃ¤nder
ahr t
Ġso uverÃ¤n
ik al
ĠAn dr
Ġp la
sp ositionen
ĠÃ¼ber s
eil er
ĠC ode
Ġvor geschrieben
Ġt heoretisch
ger in
ĠEr ic
rÃ¤ ten
ant eile
Ġsei tens
Ġr aus
Ġr ichten
be ziehen
Ã¤hr en
ĠVor stand
ĠGr amm
ĠBe zeichnung
Ġunter suchten
lie ger
ĠSp Ã¤testens
ert rÃ¤glich
ĠBer ichte
ĠBer Ã¼cksicht
ĠwÃ¼r d
kommen s
eigen t
os ystem
ĠAb zug
tel t
schl Ã¼sse
kl er
ĠArb eiter
ĠAuf lÃ¶sung
ĠAuf ruf
ĠBei spielsweise
auf gabe
aut or
Ġpro du
ri b
ĠÃľber schÃ¼sse
fl anz
ĠFor d
qu art
Ã¤lt igen
ĠNach richt
war tet
mit tels
Ġange p
Ġange wand
Ġange bracht
Ġselbst Ã¤ndig
ĠRecht ssicherheit
ĠDies el
ĠMÃ¤n gel
ĠPr ess
ikan ischen
Ġhei klen
stand ards
Ġausge glichen
Ġausge wertet
Ġwo hnen
ĠUr nen
ho fs
ĠSchul ter
pl Ã¤ne
ĠSchw ankungen
ĠGemein schaften
ov en
Ġverm ieden
ĠBÃ¼rger recht
weit ung
ĠZiel en
sm illiarde
ĠSicher ung
Ġch ron
Ġderzeit ige
Ġbef assen
haus halt
zei chnungen
ĠIslam s
Ġbew aff
Ġsicher gestellt
ĠNetz sperren
ĠStand punkt
kam er
schw ankungen
Ġgeb oten
reg ul
ĠstÃ¤rker en
ator in
vol v
ĠMot or
ĠMot ive
ĠBeruf ung
Ġpl atz
ys i
ĠGesetzes Ã¤nderung
konzern en
ĠAsyl verfahren
Ġlin ker
ĠSen at
ĠLuft verkehr
ĠWill e
Ġfolgen de
Ġanges prochen
Ã¤h ig
ĠWahr ung
Ġautomat ische
ĠHÃ¶he punkt
Ġsetz e
ĠLeg a
hÃ¤ fen
Ġpsych iatr
ĠPsych ologen
Ġverschw unden
iet n
ĠKripp e
Vor lage
Ġreal istisch
ĠgegenwÃ¤rt ige
ĠTeam s
Ġmoral isch
Ã¶pf ungs
ĠLes ben
ĠHeimat land
sion smilliarde
Ġzweit es
ĠBetreuungs gut
Ġexist iert
ĠMich el
ĠDenk fabrik
Ġsorg fÃ¤ltig
ĠTer ritor
Ġbelie b
iqu id
stre cken
ĠStraft at
ĠStraft aten
Ġpoten ziellen
ĠSpezial isten
ĠmÃ¤nn liche
ĠErkennt nis
ĠVorwÃ¼r fen
ĠKÃ¼nst ler
ĠNahr ung
ĠWild t
Ġober ste
Ber icht
Ġeiniger massen
ĠSek unden
ĠÃ¶k ologischen
ĠRend iten
ĠPersÃ¶n lichkeit
ĠEinschrÃ¤n kung
Ġentf alten
Ġschlimm sten
Ġeinges part
ĠHoll ywood
De zember
ĠAsylsuchen den
schub finanzierung
ĠLiter atur
ĠGefangen e
konfl ikt
Ġinst all
ĠTab ak
ĠRomand ie
ĠSir i
ĠStief kind
ĠVersor gungs
Ġabgest immt
ĠKreativ itÃ¤t
ĠfrÃ¼he stens
Ġverfehl t
ĠSow jet
ĠVerÃ¶ffent lichung
% )
2 6
B C
B I
E I
E l
F rei
F il
H el
K ultur
S u
T ochter
b ia
f air
h an
h Ã¼ter
i ation
j i
k ra
k omm
k ap
k asse
k reisen
k athol
v gl
z a
Ġd un
Ġd ynam
in tens
ĠS yn
ge legt
ge fÃ¼hl
at ien
Ġv ierten
Ġein bringen
ĠA v
Ġm ill
ĠE ss
ĠE hemann
ĠB ob
Ġzu gÃ¤nglich
Ġh ol
Ġf ielen
Ġf reund
ĠG ill
ĠG eist
ĠG ipfel
au e
icht er
ber ts
ig ner
Ġge p
de uten
Ġver drÃ¤ngt
re chnungen
Ġan schauen
Ġauf zunehmen
ĠT off
and te
Ġim pfen
ĠSch reiben
ĠSt urm
rei k
Ã¤n ner
ĠN ic
ĠVer ord
Ġbe wertet
ra ogo
Ġaus ges
Ġaus wirken
ĠAn schluss
ĠAn schliessend
Ġp ublik
sp reis
ĠÃ¼ber flÃ¼ss
ĠUn ia
ĠUn ions
ĠEin mal
ĠEin verstÃ¤ndnis
ĠEin wanderungs
ĠEin horn
Ġj enseits
ungs verfahren
lei er
ul ar
ĠEr wartung
rÃ¤ g
est and
ĠO pern
ĠAus gerechnet
ĠAus weitung
ĠVor lagen
iz ierter
Ġent spreche
lo gen
ang iert
stell ern
ĠSp uren
ste chn
Ġdar gestellt
Ġsp ann
ĠEnt schlossen
Ġbr inge
ap h
Ġkon s
ud ien
fÃ¼hr end
ĠPar la
ĠDaten schÃ¼tzer
ĠLeben sstand
ĠWelt wirtschaft
Ã¤lt igung
ĠBet eiligung
Ġ6 9
ĠFl ucht
ĠRecht sprechung
akt ik
ĠGen uss
ĠMon opol
ĠGeld wÃ¤
ĠAll ison
io den
ĠCh ur
Ġ7 1
Ġ7 8
Ġ8 2
Ġ8 7
Ġbek Ã¤mpft
dr ig
Ġex isten
In iti
echs elt
Ġsel ben
ĠBr Ã¼cken
voll er
Ġzusammen arbeiten
ph an
Ġrecht sextrem
Ġversch lechter
Ġ9 3
Ġzun immt
ĠPat ent
Ġbel g
ĠNationalrat es
Ġbed arf
zei chneten
eid et
ĠGleich heit
Ġschn elle
osit iv
Ġsicher heit
Ġsicher stellen
ĠDar unter
achte ten
ĠBel uga
Ġgelten d
ĠMo unt
mÃ¶ gliche
ĠEinz ig
wÃ¼r de
ĠVerl uste
Ġ199 1
Ġ199 5
Ġ199 9
Ġdr aussen
An wendungen
Ġir re
ĠEben en
ĠFort setzung
weis ung
ĠNie drig
ĠViel zahl
zÃ¼g igkeits
Ġ17 0
ĠStat istiken
Ġspe ziellen
Mit arbeiter
ĠErst mals
ĠJu den
Ġreag ierte
ĠgefÃ¤hr liche
wÃ¼rd igen
Ġhervor geht
Ġnotwend igen
anst altung
ĠImpf stoff
Ġunver Ã¤ndert
Ã¶hn t
Ġmein em
ĠProduktion s
Ġant reten
ĠOpt ionen
Ġindividu ell
ĠInland ziel
ĠBedÃ¼rf nissen
ĠEntwicklungs hilfe
ĠWol fsburg
Ġniedr igen
Ġumfassen den
mÃ¤ss igkeit
ĠAss oc
Ġeinsch liesslich
ĠWeltk lima
ĠAutor in
Ġsteuer liche
Ġsubvention iert
fÃ¤ll iger
Ġetabl ierten
ĠMeinungs forschungs
ĠRhein auer
freund liche
Ġries ige
Ġerl Ã¤u
For scher
Ġdrohen den
ĠnatÃ¼r lichen
ĠtÃ¶d lichen
Beit ritt
ĠSozi all
Ġeffekt iv
Sc anner
ĠEhepaar e
ĠKlimaabkommen s
ĠkÃ¼m mert
Ġvorber aten
ĠIs rael
ĠGeschÃ¤ftsl eitungen
Ġerled igen
ĠObdach lose
ĠmilitÃ¤r ische
ĠJac obs
ĠZahlungs verkehr
Ġmonat lich
ĠvÃ¶lkerrecht lichen
Ã¼berwach ung
Ġkirch lichen
vet ia
ĠGefÃ¤hr dung
Ġschwed ischen
zusp rechen
ĠEu GH
ĠMand at
ĠCS S
Ġvorder hand
ĠNeuer ungen
Ġkaliforn ische
ĠFoll ower
ĠII I
ĠVern unft
Ġgenehm igt
ĠGÃ¤ ste
ĠeidgenÃ¶ss ischen
ĠnÃ¤h men
ĠSchwy z
Ġqual it
ĠHoffen heim
ĠLinked in
Ġser i
ĠBestraf ung
ĠExperi mente
ĠKro atien
ĠCrowdfund ing
ranch ise
He alth
sud an
ĠÃ¼berflÃ¼ss ig
zÃ¼gigkeits abkommen
5 1
7 5
A Z
B est
C hr
F onds
G O
M F
N etz
P lastik
V ir
V ater
b am
b ogen
c al
d a
f reude
g art
h ias
i q
i ale
k as
k lagen
l ement
m anden
n utz
n Es
p orte
r Ã¼ck
r id
u al
u tern
u cken
v ier
w es
w est
Ġ Â»
Ġ Ã¶ffnet
Ġd ritt
st eil
an o
an gt
an gebote
Ġs ass
Ã¼ chter
on y
Ã¤ ud
ĠS echs
ge hr
ge hÃ¶r
sch wer
Ġv ierte
ĠD ifferenzen
ĠA cht
ĠA spekt
ĠA hnung
Ġn Ã¼tzt
Ġn ehme
ĠE KR
Ġzu greifen
ĠF P
et r
Ġf und
ĠG iger
ĠP ack
ĠP alli
Ã¶ ste
ĠW eit
ĠW ehr
ĠW urz
ĠW esent
ĠV Ã¤tern
Ġg rie
ĠI ran
Ġer werbst
Ġver glei
Ġver schieben
Ġauf wendig
ĠT yp
ĠZ igar
Ġl eiten
ĠSch iff
ĠH Ã¤ft
ĠN ar
ĠN orden
ĠN ase
ĠN GO
le uten
ĠVer sion
ĠVer anstaltungen
Ġo pp
il dern
Ġst aats
Ġst olz
Ġun ber
Ġsch ar
ĠAn bietern
Ġp reis
Ġsie b
sp ital
ab sicht
Ġbei des
ĠÃ¼ber pro
ĠEin nahme
iel d
Ġum gerechnet
ĠJahr zehnt
Ġt rag
Ġt raf
Ġt Ã¶nt
hn t
ot hur
Ġr en
gr ammen
ĠAus weg
ĠGr upp
aus bildung
ang s
zen te
ru gen
ĠSp ektrum
Ġdurch fÃ¼hren
bar a
ĠBundes bern
pp er
Ġsp ont
Ġsp Ã¤ten
Ġzw eiter
ĠUm stritten
Ġgew Ã¤hlten
kl in
kl at
Ġbes etzen
ob mann
form ance
Ã¤nd ige
ĠÃľ brigen
ĠMed ia
Ġger ichtet
ĠDaten bank
Ġ4 9
Ġange geben
Ġange legt
Ġange treten
ĠBet rach
ĠSu bstanzen
ĠArbeit sp
fÃ¼ gen
Ġgesch Ã¤ft
ĠFrei zÃ¼gigkeit
ĠPartei prÃ¤sident
isten ten
amm ern
beh err
ĠStud ierende
zeu ge
ĠDem onstr
ĠAut onomie
Ġnie manden
ĠEntwick ler
Ġbrau chte
gem achten
ĠSchw elle
ĠSchw Ã¤chen
ĠGemein sam
Ġte lefon
ĠStr ass
Ġex periment
Ġex ternen
ĠSozial minister
ĠBeg riffe
Ġdarauf hin
Ġ9 00
ĠKl Ã¤r
ĠKl asse
Wir tschaft
ĠgehÃ¶r ten
Ġverst ehe
zei ge
ump fen
ĠGross m
Ġglob aler
ĠVolks initiativen
Ġem p
ĠEhe frau
Ġpr ivileg
ĠBeit ritt
ĠSicht weise
ĠY or
Ġverk auf
Ġverschieden er
produ zenten
An bieter
Ġwahr nehmen
Ã© d
man agement
ĠFlug hÃ¤fen
ĠÃ¼ blichen
ĠLe ague
ĠPolitiker innen
ĠGut es
Ġpriv ater
Ġposit iver
Sch l
ĠWohn sitz
ĠSe e
Ġjemand em
Ġargument ierten
ĠDurchschnitt s
Ġ24 0
ĠSil v
ĠSex ismus
Ġbeein dru
Ġro t
ĠWÃ¼r den
amer ikaner
ĠKoll ekt
Ġumstritten en
Ġkompl iziert
Ġbl icken
ĠHoff nungen
iat ischen
Ġreal isiert
Ã¼tter t
mÃ¤ss iger
Ġvergleich bar
Ġsteuer lich
ĠrÃ¼ck lÃ¤ufig
ĠGeschÃ¤fts fÃ¼hrer
Ġetabl ieren
Ar t
krit ik
ĠMenschenrechts rat
ĠHaushalt s
ĠTro cken
bÃ¼r gern
ĠVerteid iger
ĠBab ys
Ġausger ichtet
ĠLam berts
ĠgewÃ¼n schten
ĠErwerbst Ã¤tigen
Ġintelligen t
Ġintelligen ten
Ġlegitim iert
ĠDach verband
Ġspezif ischen
ĠAusgleich smassnahmen
ĠLux us
aust ausch
ĠJohn son
ĠSchwellen wert
ĠGewerbe verband
ĠKop ft
Ã¼s ste
kÃ¼n fte
ĠWil er
Ġelektron ischen
Ġaner kennt
Ġaner kennen
Ġgewaltt Ã¤tigen
Ġqualifiz ierte
mechan ismen
ĠWertsch Ã¶pfung
ĠSchrift steller
ĠEngl isch
ĠSamen spende
Ġaufger ufen
ĠKontingen te
Ġkonstru ktiv
quivalen z
ĠErkran kungen
ĠHasht ag
ĠKÃ¼rz lich
Ġverabschiede te
Ġausgebil dete
JP D
ĠtÃ¼rk ischen
ĠherkÃ¶mm lichen
Ġhinge wiesen
Ġabzul ehnen
ĠGenehm igung
ĠHitzew ellen
ĠMoh amm
ĠWhats app
ĠStere ot
Ġparad ox
ĠAgr ar
Jan uar
Ġzugrund e
Ġstri kt
ifesty le
ĠJinp ing
Ġgrie ch
5 6
A lle
B E
B esch
C EO
K anton
M igration
N icht
P art
T e
a illen
b licher
c on
f re
f le
f aktor
g Ã¤ngig
h at
k Ã¼r
k indern
m isse
n a
n au
n acht
n Wir
r asch
s dienst
u alitÃ¤t
v ater
z et
en ergie
ie se
an lage
Ã¼ sten
Ã¼ tern
Ġw ettbewerb
Ã¤ men
ĠS BB
it Ã¤re
sch iff
ĠA llen
ĠA cker
ĠA kten
Ġn eutral
Ġi sol
em enten
Ġin volv
Ġzu kunft
Ġzu handen
Ġzu fÃ¤llig
Ġh eil
ĠF ein
ss zenar
Ġf ot
Ġf ehle
ĠG ysi
ĠK enn
ĠK arte
au glich
ier bare
ĠW ettbe
ĠW erner
Ġg Ã¤nz
Ġge ograf
ĠR ats
Ġer halte
is anten
Ġver hÃ¤lt
Ġver worfen
re st
om be
ĠL ex
ĠL ifestyle
ĠT rag
Ġl enken
ĠN Ã¶t
le y
us ern
Ġo ste
se hr
Ġaus be
Ġaus fallen
Ġsch Ã¤tzen
ĠAn bau
Ġp ersonal
sp olizei
ĠUn sicher
ĠEr leichter
ĠEr leb
ĠEr trag
mer k
mer kt
ĠO ffiz
Ġab nehmen
Ġab schaffen
ĠAr gentin
be willigung
og nit
iz ide
Ġunter en
ĠSp er
ste ckt
ran s
ĠBundes rÃ¤tin
gel te
Ġsp iele
os op
ĠAb weich
br ett
Ġhin ten
Ġgen techn
Ã¤nd lern
ĠGo od
fer ien
Ġger au
kon servativen
ĠLeben sende
ĠNach folger
war d
olog ischer
Ġselbst sÃ¼cht
ĠRecht sextremismus
ett s
Ġbesch reibt
ĠÃĦ g
ĠArbeits krÃ¤ften
ode llen
ĠFinanz platz
sor gt
Ġgel ernt
Ġausge st
Ġverl Ã¤ngern
ĠVerb leib
ĠÃĸ ko
sk am
dr ingen
ĠQu er
Ġweit aus
In d
urs acher
ph or
Ġrecht zeitig
bie tet
Ġstatt finden
Ġbef asst
Ġbed ienen
ĠGesellschaft s
rÃ¤n kten
ĠStaats verschuldung
Ġal arm
ĠMin i
dien sten
ĠWei hn
ĠFahr t
ĠStraf vollzug
einkommen s
Ġvert ritt
Ġhinter fragen
ahn te
Ġdr Ã¼cken
schlÃ¤ gt
Ġgrund le
zus ammen
ĠSchluss folger
Ġben achbar
ĠBank geheim
ĠAuft ritt
ĠPartner schaften
ĠSe el
Ġverein baren
Ġverf asst
ĠReferendum s
ĠKandid atur
ĠLiber ale
sex perten
ĠPension ierung
bil anz
ĠWor ld
ĠVermÃ¶gen s
Ġverschw indet
Ġverwei gert
ĠLei b
ĠtÃ¶ ten
ĠUntersuch ungs
ĠFahrzeu gen
ĠPla c
Ġauseinander setzen
zut reten
sprÃ¼ ch
Ġformul ieren
Ġradik ale
ĠAk quis
ĠWirk stoff
Ġerg ab
Gesetz es
Pl atz
Ġdauer te
ĠImp orte
ĠEc onom
Ġklass ische
aktiv itÃ¤t
ĠZwang s
Ġadopt iert
ĠIr land
ĠFrÃ¼ chte
ĠWall is
Ġober sten
ĠBÃ¼ cher
Ġspezial isierten
ĠDo ktor
Ġstraf bar
ĠHÃ¤ user
ĠPrakt ik
ĠPrakt iken
Sprecher in
ĠGar antie
Che fin
ĠschÃ¤d lich
ĠrÃ¤um te
ĠTreibst off
Ã¼s sten
ĠNah en
ĠhÃ¤r ter
ĠFur cht
ĠGlar us
Her steller
ĠZertifik ate
Ġpromin ent
ĠImpuls programm
tran s
ĠGeldspiel gesetz
Ġverheirat et
ĠPremier minister
ĠParad ig
inform ation
Ġbeglei teten
ĠBruttoinlandprodukt s
ĠBefÃ¼r chtung
ĠHarv ard
ĠBehaupt ung
Ġplan en
Ġbevorzu gen
Ġhandel te
ĠMatt hias
beauftrag te
ĠKons ult
ĠMos k
koll egen
ĠVorbeh alte
ĠÃ¶sterreich ische
Ġmoment an
ĠMedienber ichten
ĠClaud ia
ĠZuliefer er
Ġklimasch Ã¤d
Ġapp ell
ĠTalen te
ĠBefrist ung
ĠAven ir
ĠFut ure
ĠGemÃ¼ se
ĠAllgem einen
ĠMittelme er
ĠUmverteil ungs
Ã¤hern d
ĠBerÃ¼cksicht igung
ĠStiefkind adoption
ĠEntschlossen heit
. :
2 8
4 3
A A
B Ã¶rsen
D ig
E T
M ethode
W ahl
Z entr
a ffe
b inden
d el
d irekt
e et
f ungen
g lad
h es
k an
m att
n Das
o fern
r isik
r unde
x t
z wei
z hen
Ã Ń
Ġ u
Ġ ult
er folg
Ġd euten
st ufen
st eiger
st aats
in vestitionen
an fragen
Ġa s
Ġw under
Ã¤ s
Ã¤ ben
ĠS us
at ch
sch ancen
und ern
Ġb auen
ĠB V
ĠB ul
ĠB atter
ĠM Ã¶n
Ġh Ã¶r
ss on
et wa
Ġf ac
Ġf Ã¤hig
ĠG rat
ĠG reg
ĠG ift
ĠG eister
ĠK Ã¼hl
ĠP ion
ĠP rit
ĠP ens
ĠP illen
Ġk ranken
ier in
ĠW al
ĠW and
ĠW ann
ĠW Ã¤r
ĠW eshalb
ĠW obmann
ĠV an
ĠR osen
Ġver laufen
Ġver geblich
Ġver hÃ¤ltnismÃ¤ssig
Ġauf einander
Ġauf zeigen
ĠZ ell
ĠZ ellen
am te
Ġl anden
and in
Ġim pl
ĠH Ã¤ufig
ĠH orn
ĠN euerung
ĠN eutralitÃ¤t
le d
ĠVer gÃ¼t
ĠJ es
il ater
Ġst arb
Ġst Ã¼tzen
Ġst reiten
Ġaus schlaggebend
Ġsch ien
ĠAn sprÃ¼che
Ġp rÃ¤gt
sp unkt
ab eth
ĠPro pag
Ã¤t in
ĠÃ¼ber hÃ¶
ĠC as
Ġj ust
Ġvor liegt
chen glad
ver fÃ¼gung
ed i
Ġt ier
ul det
ĠEr sten
ĠEr schein
ĠEr weiter
Ã¤r ten
zu kommen
ĠO ste
ĠO ze
Ġnach weisen
Ġr uh
gr Ã¼nder
be amten
be wegungen
Ã¤hr te
ĠVor fall
ĠGr aub
end s
ĠBe eintrÃ¤cht
Ġent schÃ¤d
ĠGes chen
ĠZu wachs
Ġam t
ĠKon zentration
Ã¼hr ung
ĠSie ger
ĠUm gebung
Ġgew innt
ĠAb zÃ¼ge
ĠEnt lassung
ĠEnt deckung
kl assen
rag te
Ġzwei er
aut oren
ĠMenschen wÃ¼rde
Ġpro fil
Ġkl ingen
ri ffen
ĠSte phan
Ġbr ach
sam t
fÃ¼hr ungen
ad et
ĠKanton spolizei
ĠLand s
ic em
war en
ĠBet t
Ġher ab
omp uter
ĠSu bstanz
Ġganz es
elig ion
setz ten
Ã¤hl ern
Ġbesch lag
ĠzurÃ¼ck erst
ĠFinanz hilfen
Ġhei raten
ĠInter pharma
Ġwo fÃ¼r
Ġ7 6
Ġoffen er
zug reifen
ĠSteuer zahler
ĠTechn ology
ĠSozial werk
ĠSozial partner
zw ingen
Ġzusammen zu
ĠhÃ¶her es
ĠDass elbe
ĠBild schirm
Ġversch reiben
ĠMittel punkt
kr imin
ont obel
Ġwelt anschau
zÃ¼ gen
zei chnete
ĠDurch bruch
ĠGleich gewicht
ĠLebens weise
ĠBed ingung
ĠIslam isten
bild ungs
ĠIde al
ĠKommission s
ĠLohn beitrÃ¤ge
Ġamerikan ischer
Ġ15 00
ĠGesicht er
ĠMo der
Ġwirk same
Ġgenau e
Ġgemein nÃ¼tz
deut sche
Ġdr in
Ġbekannt lich
man gel
ĠMindest strafe
Ġsteigen de
plan ung
ĠWirtschafts verbÃ¤nde
vis ionen
Ġempf inden
Ver bot
nach mittag
Ġerfolg reiche
Ġfunktion iere
ĠOn k
Ġdro he
Ġerf reut
erv e
aff ung
ĠGrossb ank
ĠWohl stands
Ġ21 00
ĠGeh irn
Ġne bst
bew usste
rop ole
ĠRu h
rÃ¤um t
ĠPhil osop
ĠBefÃ¼rwor tern
ĠWiderstand s
Ġextrem e
ĠKn ack
Ġunge hin
geordne ten
ĠPla k
Ġfreiwill ige
Â»: .
seh bar
ĠBrenn an
ĠBrenn stoffe
ĠFre y
ĠLaus anner
ĠBeob achtung
ĠGu y
lÃ¶ ser
ĠWald schmidt
ĠKlar heit
ĠFrieden s
Ġrespekt ieren
ĠÃ¼bersch ritten
ĠInteress ant
ĠGripp eim
ĠKas par
Ġparlament arischen
schÃ¤d igung
ĠVers and
Ġerschienen en
Ġstat istisch
ĠBru der
ĠLast wagen
ĠJac qu
ĠgrundsÃ¤tz liche
wid rig
yth os
Ġleist ungs
ĠgrÃ¶sst enteils
ĠEis zeit
ĠAutomat isierung
ĠGebie te
ĠAnalyt ica
zy kl
Ġberecht igt
Ġvertie ft
Ġselbstbest imm
Ġselbstbest immt
ĠtatsÃ¤ch liche
Ġkorrig ieren
ĠBert sch
ĠLuxem burg
ĠSchle gel
ĠMotiv ation
ĠLenkungs abgabe
meld ungen
ĠManipul ation
ĠSchwier igkeiten
ĠKorre ktur
ĠTherap ien
ĠStoss richtung
Ġdeklar iert
Ġvergr Ã¶ss
ĠgewÃ¤hrlei sten
Ġhilf reich
ĠDarb oven
ĠStabil isierung
ĠMedienmit teilung
ĠGill i
ĠToff a
ĠMount ain
Ã¤ud es
ĠYor ker
ĠMÃ¶n chenglad
ĠPrit i
ĠMÃ¶nchenglad bach
5 2
B l
D es
E igen
P r
S te
S DA
T ra
U r
V ide
a zif
b lichkeit
b ussen
d ig
f assungs
f indung
f ochten
g ei
i fe
k rebs
l Ã¼ck
l isten
n s
o bligator
p sych
er ium
er kennen
Ġd iff
st het
Ġs ignal
Ġa bt
es ischen
Ã¼ te
ĠS ig
ĠS org
it tern
ĠD at
ĠD orn
Ġein reichen
Ġein bezogen
ĠA I
Ġz ielt
Ġb itter
Ġb udget
or a
or isch
Ġm inder
Ġm Ã¼nd
ĠE hr
ĠB an
ĠB ahnen
em p
ĠM au
ĠM im
ĠM ission
Ġh y
ĠF isk
Ġf at
ĠK ehr
ĠK Ã¤l
ĠK alten
ĠP o
ĠP and
ĠP odium
Ã¶ cke
Ġk auf
el ia
ro gen
ĠV otum
Ġge liefert
ĠR ach
ĠR eh
ĠR utz
ĠR eicht
ĠR uth
ĠI gn
Ġer t
Ġer re
Ġer mitteln
is h
Ġver gewalt
re che
re ffe
Ġan setzen
Ġan lÃ¤sslich
Ġan onym
ĠL o
ĠL abor
Ġauf re
ĠT il
ĠT hin
ĠT abl
ĠT ax
Â» ?
Ġl eu
Ġl ehrt
ent lich
ĠSch uss
ĠSch ub
ĠSt ift
ĠSt ock
ĠH ig
ĠH omo
ck te
ck el
ĠIn tel
ĠJ ord
ĠJ emen
Ġbe freien
ra zin
etz te
Ġun um
Ġun ange
Ġun zul
Ġun zufrieden
Ġsch weigen
cht ungen
Ġp ausch
Ġp flanz
ind lichen
ĠPro tokoll
Ã¤t t
ĠC ha
ĠC redit
ĠC limate
ĠEin reise
Ġj apan
Ġvor ne
Ġvor lÃ¤ufig
ungs kosten
Ġt at
Ġt Ã¤t
Ġt Ã¤tigen
ul ieren
ĠEr spar
ĠEr messen
enn er
ort un
Ġr enten
art a
ĠAr ber
Ã¶r ter
Ġent lastet
ĠZu frieden
ĠKon servativen
ĠSp iegel
Ġneu erdings
ick e
ĠmÃ¼ de
id i
auf wand
Ġbet reffend
Ã¼t zte
geb iete
Ġbr achten
Ã¶glich keiten
Ġlie be
Ã¤ch sten
ĠZeit geist
pro gramme
ĠKanton spar
per ioden
Ã¶s ungen
Ġwieder hol
wie gen
lin es
ĠKlim ag
fl ut
Ġ4 50
ĠGrund rechte
ĠMar x
Ġ19 0
ĠBet rug
ĠGesch ichten
ĠGen e
Ġstar ker
su b
Ġfest stellen
ĠzurÃ¼ck greifen
ĠfÃ¼hr ten
ĠProblem atisch
Ġausge geben
Ġausge wiesen
Ġausge liefert
reu e
Ġeinge leitet
ĠVerb oten
ĠVerb indungen
Ġklar es
Ġ7 7
ĠUr sprÃ¼nglich
Die s
ĠerklÃ¤r ten
atur e
ĠQu elle
ĠAnt rÃ¤ge
Ġstell vertreten
ĠMarkt wirtschaft
Ġbeh arr
alter s
zw ang
Ġgest immt
Ġgest oppt
hand lung
ĠAt lantik
Ġbef and
Ġbed Ã¼r
ĠDurch setz
best immung
Ġschn ellen
Ġfol glich
Ġentscheiden den
ĠPrÃ¤ z
ĠlÃ¤nger fristig
tem onna
Ġhinter her
Ġ199 8
Ġdr ingen
produ ktiv
Ġwahr e
Ġir rit
iker in
Ġverlan ge
ain er
Un sere
ober flÃ¤che
Ġeinzu gehen
ĠUnterstÃ¼t zungs
Ġinte llekt
ĠAsyl ges
rimin ierung
ĠSen der
ĠStudien autoren
ĠHa cker
ĠPartner in
ĠJe den
rÃ¤t lichen
ĠZusammenh Ã¤nge
ĠIndustrie staaten
beit rÃ¤gen
ĠKor rupt
Ġangeb liche
Ġro te
ĠZwischen wahlen
Ġpass ive
ĠNor men
ĠInflu enz
ĠerhÃ¤lt lich
Ġvers ichern
ĠOffen heit
ĠOst asien
Ġvegan en
Ġumfassen d
ĠEid gen
Ġeinger ichtet
Ġuner wÃ¼n
ĠKlein kinder
ĠFre unden
Ġvorgesehen en
Ġchrist lich
Ġneun ziger
Ġverh Ã¤ngt
freund lich
Ar b
ĠKap azitÃ¤ten
ĠCar oni
Ġleich te
ĠErb krank
ĠverschÃ¤r fen
Ġoptim istisch
ĠFrem den
ĠPan ik
Ġbill ig
AF U
Ġangemessen e
ĠWerk zeug
ĠTheor ien
ĠVerm eidung
ĠDah inter
ĠProstitu ierten
feind lichkeit
Ġzerst Ã¶rt
ĠlÃ¶ ste
Ġstr eit
ĠBill ig
Ġbetreffen den
Ġausgew ogen
ĠSpekul anten
ĠBurk halter
gewinn e
ĠTreibst offe
ĠgÃ¼nstig sten
ĠVerwaltungsrat sprÃ¤sident
ĠverÃ¤nder ten
ĠAufenthalt s
ĠAnn Ã¤her
ĠÃĦrzt in
azi o
ĠPlanung ssicherheit
ĠSar razin
Ġgrundlegen den
Ġdi agnost
emm ungen
ĠInitiativ k
Ġbefrist et
Entwick ler
Ġignor ieren
Ġbeanspru chen
Ġadministrat ive
Ġkombin iert
Ġeingesetz te
Ġschrift lich
itekt ur
Ġausserordent lich
ĠDritten s
ĠendgÃ¼lt ig
ĠErrungen schaften
Ġbeseit igen
ĠschÃ¤tz ungsweise
ĠVorst Ã¶sse
ĠbemÃ¼ ht
ĠTeu fel
ĠPru itt
ĠZusÃ¤tz lich
ĠAtmo sphÃ¤re
Ġrestri ktiv
ĠAnhÃ¶r ung
ĠWeltanschau ung
Ġtem por
ĠÃĦusser ungen
ĠUrhe ber
Ġverglei cht
Ġren omm
ĠMohamm ed
ĠIgn azio
8 5
9 9
D amit
D onald
F ach
G lob
G ipfel
K ar
K omp
P reis
S an
Z H
b ien
d am
g o
h ers
h end
i i
i od
j ect
k Ã¼hl
k etten
k Ã¤mpfen
l en
m Ã¤h
n ationalen
n orm
n Ã¤ck
o zial
p rei
r ingen
s a
s ituation
t op
t uren
u bert
w Ã¤hlen
ĉ ĉ
er o
Ġd rÃ¼ckt
un fall
st u
in kt
Ġs elt
Ġs ektor
Ġa kadem
Ġz Ã¶ger
Ġm ex
ĠB ir
ĠB ist
ĠB Ã¤ume
al itÃ¤ten
der e
ĠM un
ĠM atur
ĠM ath
ĠM ythos
Ġf ir
Ġf asst
Ġf emin
Ġf reuen
Ġf ertig
ĠG aller
ĠG leiche
ĠP end
ĠP age
ĠP oten
au scht
Ġk ranke
ber eiten
ĠW agen
ĠW elten
ĠV al
ĠV aters
ion age
ĠR Ã¤te
ĠI S
ĠI ron
Ġan nehmen
ĠL ad
ĠL iquid
Ġauf weisen
Ġl ern
Ġl ande
Ġl anger
Ġl uk
ĠSch ock
ĠSt ill
rei be
ĠH ein
ĠH ert
ĠH Ã¤uf
ĠH Ã¤ndler
ĠN iger
ĠN ationalen
ĠVer schieden
ĠJ us
ĠJ ungs
Ġso zusagen
Ġbe wir
Ġst Ã¼tzt
im es
ĠAn schubfinanzierung
Ġp erson
Ġp unkt
ind lich
Ġbei der
eg ger
ĠÃ¼ber holt
Ġvor sÃ¤tz
Ġt abu
ul a
ĠEr be
ieren der
anz ipation
est in
uss ion
ĠO x
Ġnach weis
Ġr isik
gr Ã¼n
art is
art igen
be c
be ck
ĠAus gabe
ĠVor sicht
ĠBe weise
Ġunter st
ĠGes uche
ru he
bl Ã¼
ativ es
gel agert
Ġsp ort
Ġsp eichern
sst aaten
ĠAb setzen
zeit schrift
Ġzwei einhalb
geb rochen
ob ot
Ġkon stant
Ġlie b
Ġlie ben
ad o
pro b
ĠAl pen
per iode
ĠWer ke
ĠGrund recht
Ġob jekt
Ġ19 50
Ġange hoben
ohn heiten
Ġins ofern
ĠGesch lechtern
Ġeigen stÃ¤ndig
eist ert
ĠFl Ã¤chen
Ġverb ill
Ġverb reiten
Ã¤tz ten
akt oren
Ġgesch w
setz te
ĠFrei willigen
ĠMon ats
od us
ĠGer Ã¤t
ĠGer Ã¤ten
fach ung
stÃ¤nd igkeit
sor ger
ĠEm anzipation
Ġausge ht
Ġwo her
Ġ8 1
Ġ8 3
dr Ã¤ngen
ĠOr te
ĠOr ganis
Ġfrei heitlichen
ak ul
hol ung
ĠSozial versicherung
ĠSelbst verstÃ¤ndnis
ma ck
ĠBÃ¼rger meister
ĠWahl jahr
ĠRÃ¼ck sicht
ph Ã¤nomen
werk schaft
Ġversch rieben
ĠOb serv
sm odell
uropÃ¤ ische
Ġen gen
bed Ã¼rf
ĠGleich stellungs
ĠDe al
bes itzer
ĠNeu bau
stoss es
Ġaufge geben
Ġbew Ã¤hrt
spro jekt
ĠDar stellung
Pro gramm
ĠExper te
ĠDig it
ĠBes onder
ĠBes itz
achte te
Ġausser gewÃ¶hn
Ġhinter lassen
ĠHo tel
Ġ199 3
Ġtechn isch
ĠFlug verkehr
Un iversitÃ¤t
ĠHier archie
beg leitungen
Ġchines ischer
Ġeinzu halten
ĠNot stand
ĠGeg nern
ĠSpital s
rax en
Ġanzu erkennen
ĠZur zeit
verl etzungen
ĠJustiz minister
ĠBundesamt es
Ġmensch liches
ĠWest schweizer
ĠMÃ¤r kte
Ġverein facht
Ġwider sprechen
wÃ¤rt ig
ĠFuss gÃ¤nger
ĠVerbot s
ĠRep ut
Ġinteress ieren
ĠBÃ¼r os
hÃ¤ ut
Ġbeant ragt
Ġgener iert
wissen schaften
ĠGrenz Ã¼ber
ĠAussen grenzen
ĠVoll zugs
Ġ197 2
ĠGebur ten
ign ale
ĠÃ¼berw inden
Ġausgeb ildet
deck te
Ġehemal iger
ĠBi od
ĠZentral banken
Ġvergleich bare
press ion
ĠAutor itÃ¤t
ĠKrankenkassen prÃ¤mien
Ġstabil isiert
Ġhistor ische
ĠJur ist
ĠJur isten
Ġrep ar
sol id
ĠbenÃ¶t igten
Ġvorhanden en
Ġkomplex e
iqu e
ĠHÃ¼r de
Ġlehn ten
Ġerstaun lich
ĠKunst stoff
ĠSym b
ĠSym ptome
Ex perten
reck end
ĠMechan ismen
ĠEp idem
ĠgewÃ¼n schte
ĠBerechn ung
ĠSum men
ĠQuart al
Ġbill iger
ĠKol onial
ĠLauf zeit
ĠSubvention s
ĠBÃ¼ hne
ĠAuseinander setzungen
ĠThe ater
ĠVerschwÃ¶rungst heoretiker
Ġnormal erweise
ĠPersÃ¶n lichkeiten
Bundes rat
ĠMut uel
Ġeingetragen en
ĠBundest ags
Ġvereinbar ten
Ġverbind lichen
Um frage
ĠÃĸkonom ie
Bet rieb
ĠFin ma
ĠHeil mittel
ĠObdach losen
Ġfair en
ĠUngleich heit
ĠMittag essen
ĠEint ritt
schaf tet
Ġschuld ig
Ġgelegen tlich
ĠStadtp arlament
ĠHilf sorganisationen
herr schaft
ĠHalbleiter komp
ĠFreitod begleitung
ĠGroup e
ĠVegan er
Ġumzu gehen
ĠAx po
ĠPubl iz
ĠMeeres spiegel
atell iten
qualifiz ierten
ĠSteuersen kungen
ĠDom inanz
Ġbewill igt
ĠGesinn ung
ĠEntgegen kommen
ĠFranzisk us
ĠmÃ¼h sam
Ġneur on
ĠWahls ieg
ĠNov artis
ĠÃ¤nder te
ĠBekennt nis
ĠDav os
ĠLebensstand ard
ĠAssoc iation
ĠZigar etten
Ã©d ric
Ġfot ograf
ĠgÃ¤nz lich
Ġoste uropÃ¤ischen
ĠRuh estand
ĠKaspar ow
ĠKantonspar lament
B ranche
D oping
F R
G ren
H ot
H eute
K P
K o
K eine
S I
S ol
S eite
S utter
T ank
V S
V iele
W ar
W ettbewerb
Z one
a vor
b an
g p
h am
i or
r er
t im
u c
v a
w elle
z ielen
Ġd Ã¤n
Ġd ran
Ġd ikt
ie ter
un ruh
st et
in tern
in zen
Ġs c
ein richtung
on ie
on or
Ã¤ le
Ã¤ ften
ĠS C
ĠS hen
as a
sch Ã¼ssen
ĠD isp
Ġb lau
Ġb rechen
Ġb Ã¶se
Ġb Ã¶rsen
Ġm ater
ĠB on
al isten
ĠM eld
ĠM eilen
Ġzu gesch
Ġh el
ĠF le
ĠF BI
Ġf akult
Ã¼r ftigen
ĠG ipf
ĠG Ã¶te
ĠK uh
ĠK Ã¼rzung
ĠP ieren
Ġk op
Ġk andid
icht ige
ĠW arte
ĠV elo
ĠV ontobel
Ġge op
ĠR ent
Ġer bringen
Ġer kran
Ġer Ã¶ffnen
Ġver geben
Ġver hÃ¤ng
Ġver stossen
Ġver rechnen
Ġver heer
Ġan schliessen
ĠL ab
ĠL imm
Ġauf zur
ĠT reiber
ĠZ in
Ġl og
Ġl ernt
ent scheide
ĠSch Ã¶pfung
ĠSch merzen
ĠSt irn
ĠN ub
ĠN erv
Ġbe zi
Ġbe stellt
Ġbe eintrÃ¤cht
il en
il ot
Ġst rebt
Ġun ternehmen
Ġun frei
Ġun angen
Ġun real
Ġp osition
ab zug
eg es
ĠEin bezug
Ġvor n
Ġvor kommen
Ġvor genommen
ver sion
ed ia
Ġt rain
ul i
ĠEr lass
ĠEr wÃ¤
ĠEr fÃ¼llung
Ġ20 35
ĠRe flex
ĠRe chnungs
la y
ant ast
ant asie
gr em
ĠGe fÃ¼
ĠAus weis
ĠVor sitzende
ĠBe frei
ĠBe werber
ang aben
ĠZu h
ĠSp e
hen g
ĠBundes lig
Ġgegen teil
gel ung
zi diert
Ġsp art
sst il
br achte
kl ein
Ġviel fÃ¤lt
icher ung
Ġhin nehmen
Ġbet reten
Ã¼t teln
geb unden
ri ften
Ġkon tro
vor rang
Ġbest rafen
form ationen
ĠGo uv
ĠÃľber schw
ĠÃľber schuss
pro ben
pro jekte
ĠMed aillen
ĠAl b
ĠAl ib
ĠAl icem
per li
Ġger ufen
fl Ã¤chen
ĠMar ie
ĠLeben sstil
ĠUnter lagen
ĠUnter drÃ¼ck
ĠWelt bevÃ¶lkerung
Ġange hen
Ġange gangen
Ġange wendet
Ġ6 000
Ġher ge
ĠFl Ã¼ge
ĠGesetz en
ĠGem perli
ĠGen om
ange ls
ĠMehr heits
ĠFrei sinnigen
ĠMon ika
ĠGer ichten
ĠFinanz krise
ex perten
Ġausge prÃ¤
Ġeinge fÃ¼hrte
Ġbek rÃ¤
sk ultur
ib ra
ib iot
Ġhier fÃ¼r
verb ote
wert ungen
ho fer
ĠBl ue
ak zept
Ġex pon
Ġschw Ã¤chen
ĠHin gegen
ĠKl ische
pr iv
ĠMa in
kr eter
erst attung
ĠPat r
liess ung
ĠStaats bÃ¼rger
ĠerhÃ¶ hten
fang s
stru ment
ĠGleich wohl
ĠZukunft s
bild et
ĠPreis vergleich
ĠPrÃ¤ ferenzen
ĠReform ierten
reib ungen
ĠDatenschutz gesetzes
liegen den
ĠzusÃ¤tz licher
ĠRes ol
ĠBel eg
ĠBel ohn
schw ig
ĠStimm bevÃ¶lkerung
ivi den
ĠMo dern
Ġ199 4
ack e
ĠRei chen
rakt ionen
Ġgebe ten
ĠVertr etung
ifiz ieren
ĠBeruf stÃ¤tigkeit
ĠErn Ã¤hrungs
beg riff
spr achen
Ġversu che
Ġqu ant
Ġerf reu
Ġerz ielte
ĠAbt eil
sph ase
Ġspe zielle
ĠFilm stiftung
ix el
Ġung esch
berecht igt
ĠNacht eil
ĠModell s
Ġmedizin isch
ĠPass anten
Ġat om
ĠLeg itim
Ġgener elle
ĠX ia
pflicht igen
Ġsozial demokrat
Ġberuf lich
ĠInfluenc ern
ĠOst ern
Ġzeit lich
ĠBi ologie
ĠZivil stand
ĠZivil gesellschaft
ĠAlltag s
ĠLei der
ĠRegen bogen
ĠSoll ten
ĠWind kraft
ĠFunktion sweise
nahm sweise
ĠRegion al
ĠAktion splan
eicher ung
ĠFot o
.. .
ĠTex as
Ġeth isch
Ġinstitution elle
ĠMenschenrechts konvention
ĠLeistung ss
bÃ¼r o
ĠJung frei
ĠschÃ¶n e
hÃ¼ll ungen
ĠKar in
Ġuntersch Ã¤tzen
ĠNahr ungs
Ġvorzu gehen
pfl anzen
mar sch
ĠSubvention ierung
ĠNachhalt igkeits
Ġeffekt iven
ĠBrun schwig
ĠreprÃ¤sent ativen
Fir ma
ĠAmts zeit
ĠParlamentarier n
ĠGlob alisierung
ĠFinger abdruck
Ġveget arische
ĠdrÃ¤n gt
Ġmonat el
Ġmotiv ieren
wid r
ĠAsylsuchen de
ĠBundesk anzlerin
ĠAutob auer
ĠÃ¤rzt liche
Ġelektron ische
ĠWeltkrieg s
Ġschwed ische
ĠFo od
ĠtatsÃ¤ch lichen
Ġev angel
ĠFlÃ¼chtling spolitik
ĠwÃ¶chent lichen
Ġzweif ellos
Ġvertrauen s
ĠQualifik ation
ĠKÃ¶nig reich
stimm recht
Ġenth ielten
Ġpoln ische
sozial ismus
ĠKohÃ¤ sionsmilliarde
ĠLev rat
ĠGet rÃ¤n
Ġliefer ten
Ġverbrei tete
ĠKandidat innen
berat ung
Ġregulator ischen
ĠAp ok
ĠÃĦm ter
ĠAgglomer ation
ĠPor temonna
Ġpragmat ische
ĠFortpflanz ungs
Ġann Ã¤hernd
ĠAuffor derung
HC R
ĠSchal ke
ĠErmitt lungen
ĠAutom obil
ĠRapha el
Ġverschlechter t
ĠKonsult ation
ĠGraub Ã¼nden
ĠBeeintrÃ¤cht igung
Ġbeschlag nahm
ĠPhilosop hen
ĠBertsch y
ĠSorg falt
ĠKÃ¤l in
Ġrenten bilden
ĠZufrieden heit
ĠHert ha
ĠGÃ¶te borg
ĠNub ana
ĠGouv erne
. ),
3 8
A t
A ust
A HV
B es
B Ã¼r
B ank
C l
D i
D urch
I S
I de
N I
O hne
W issen
d ossier
f amil
f liessen
f ragt
g rat
g rit
h ad
k annten
l em
l Ã¤ssig
l Ã¼sse
m Ã¼nd
m eid
m auern
m ischung
n B
o od
p se
p end
r y
r ise
r hoden
t ar
y ss
z og
Ã ³
Ġ Q
Ġd iene
st eu
st age
in st
an ische
ein bar
Ã¼ hen
Ġw ach
Ġw Ã¤hlt
Ã¤ hn
Ã¤ hen
ĠS ack
ung ss
at isiert
it ar
ĠD iversitÃ¤t
Ġein treten
Ġein sparen
Ġein heitlichen
ĠA ch
ĠA pfel
Ġn ein
Ġb o
Ġb Ã¶s
ar is
or fen
ĠB ier
ĠB ald
ĠB ack
al tete
em ann
ĠM L
ĠM u
ĠM aster
ĠM Ã¼ttern
Ġzu ver
Ġf ehler
ĠG V
ĠK Ã¶r
ĠK omm
au gen
au schen
Ġk apital
ier baren
ig ter
ig sten
ĠV ak
Ġge leistet
Ġge holfen
Ġge bildet
de fizit
ach us
ĠR et
ĠR iv
ĠR ande
Ġer b
Ġer laub
ol d
Ġver wiesen
Ġver sorgen
Ġver schafft
re volution
re chnungs
Ġan fallen
Ġan mel
om etr
ĠL ande
ĠT ragen
um f
ĠSch a
ĠSt ar
rei f
rei ks
och t
ĠVer haft
ĠVer fahrens
Ġbe vÃ¶lker
ik els
il etten
Ġst ill
Ġun besch
Ġsch ade
ĠAn schuld
Ġp hil
eg g
ĠFr anzÃ¶s
ĠÃ¼ber leben
ĠUn t
ĠUn er
ĠUn ser
ĠC Ã©dric
ĠEin igkeit
Ġvor stellbar
ill t
ser klÃ¤rung
ant in
ant innen
ĠDas ein
ort iert
ot iert
ot he
ot stand
ĠO ff
ers wil
ĠAr men
ĠGe org
ĠVor schul
ĠVor bilder
Ġent lang
Ġunter suchen
ĠZu wanderungs
Ġbis weilen
ĠKon zession
ĠSp ahn
Ġre volution
Ġdurch zusetzen
bar b
ran chen
ment s
ĠBundes staat
iger en
Ġet hn
ess ung
Ġgew orfen
ĠAuf hebung
ĠAuf spaltung
ĠMenschen rechten
Ġkon zip
Ġbest and
Ġlie f
ĠZeit ungen
ĠÃľber leben
pro zent
ktion s
Ġger echnet
Ġgr enz
ĠGrund problem
ĠUnter zeichnung
lan rei
mit tele
ĠUnternehmen ssteuern
ĠKinder k
ĠGem essen
sl Ã¶sung
licher e
ĠEl ite
ĠGegen entwurf
ĠFinanz kontrolle
ĠZÃ¼rich see
St and
stand ard
Ġgleich wert
Ġausge handelt
Ġeinz ahlen
Ġdrei mal
if ikan
Ġverl agert
Ġwo hin
ho u
gar ien
ĠSchul z
ĠSchw eine
Ġho ffe
ĠAnt id
Ġverm ag
ĠSchl Ã¼sse
get rieben
Ġstatt gefunden
Ġstehen den
Ġintern e
Ġde zentr
ĠVolks republik
frist igen
ĠApp enz
Ġdort hin
ĠSol othur
spro du
ĠIde ologie
Pro tokoll
ĠStrom markt
chter halten
wahr heit
aly pse
ĠNe bst
Ġ199 6
Ġdr ehen
ĠKontro verse
spruch s
ĠTechnologie konzerne
Ġbie te
Ġfehl te
herap ierbar
inter essen
politik er
ĠCo in
Ġheraus finden
ĠSport arzt
Ġeinzu dÃ¤mmen
Ġzahl ten
Sch w
Ġerz Ã¤hlte
andid aten
zin s
Ġanges ied
ĠArbeitgeber n
Mit te
yp ten
ĠErst aun
ĠGesprÃ¤ chen
ĠHinter t
ĠFilm em
ĠFilm schaffen
Ġbevor zug
ĠAkt uell
Ġung erecht
mel ze
ĠPfle gef
ĠSe co
hem en
ĠWasser fallen
ĠErd og
ifik ant
hil fer
sprach igen
Ġfl ankierenden
ĠProgramm s
res ult
ĠWo her
Ġpsych ische
ĠMil ie
ĠReduktion s
ĠverstÃ¤r kte
ĠHoff man
deck end
Ġinternational es
Ġverantwort ungs
ĠEmpf Ã¤nger
Ġproduz ierten
ĠArbeitspl Ã¤tzen
ĠUrs ula
Ġbi ometr
ĠGol ta
besch Ã¤ft
besch luss
Ġunbe kannt
Ġwesent lichen
Ġungew iss
zum ut
Ġbedeuten d
ĠBar bara
Ġgeringer e
Ġtran sparen
ĠLeistungs fÃ¤higkeit
ĠÃ¤r mer
ĠSchwar ze
Ġvertr aut
Ġobligator ische
stre ben
iter ran
zÃ¤hl ung
ĠWechsel kurs
ĠSa al
ĠEp stein
ĠHei rat
ĠKÃ¶n n
Ġeffizien te
Ġglaub wÃ¼rdig
isl am
ĠTrain ings
ĠHandeln s
ĠKÃ¼ sten
Ġerforder lichen
ĠSolidaritÃ¤t s
ĠInteress anter
ĠDeutsch schweiz
ĠDeutsch schweizer
ĠUnabhÃ¤ng ig
Ġeffekt ive
Mitglie der
ĠRein hard
ĠUrt eile
spflicht ige
ĠMas ke
Ġhies ige
ĠEv angel
ĠHy pothe
verantwort lich
ĠProv inz
ĠgefÃ¤l schten
ĠgefÃ¤l schte
ĠAdoptions recht
ĠPassag ier
Ġveget arisch
ĠSexu al
sproblem e
ĠKrie ge
ĠVerpflicht ungen
Ġverste ckt
gro ssen
ĠPopul isten
Ġdur ften
glÃ¤ub igen
Ġehr lich
ĠmÃ¤cht ige
mechan ismus
Ġkanad ischen
zufrieden heit
Ġdrast isch
ĠKlei der
Ġinhalt lich
viel falt
Ġitalien ische
ĠPas cal
Ġautorit Ã¤re
Ã¤dagog ischen
Ġdokument iert
Ġgeforder te
Ġkorre kt
ĠVerpack ung
ĠÃĦl teren
Ġindustrie llen
Ġkonkur r
cco unt
schÃ¼t t
ĠKy oto
ĠHundert tausende
grenz ung
Kam pagne
ĠGestalt ungs
Ġnirgend s
orth odox
udd h
ĠBeteil igten
Ġsugger iert
ĠBetreuungspl Ã¤tzen
Ã¼g samkeit
Ġra p
ĠTiefen lager
ĠAngel es
ĠMerkm ale
Block chain
Ġillustr iert
Ġprodu ktiv
ĠSowjet union
ĠUnions bÃ¼rger
ĠÃ¼berpro portional
ĠGrupp ierungen
ĠArgentin ien
ĠBul garien
Ġfac to
ĠPand em
achus etts
A ss
B K
F ahr
G A
H and
H aus
K VG
M R
M ark
P O
S h
V ol
Z oll
b i
d ann
d isp
e bt
f as
h Ã¤ren
m eisten
n Ã¤chst
o fer
p ers
s iger
s zeit
u ge
u ber
z ertifik
Ã §
Ġ enden
en h
ch o
ch ern
ie ssen
st ro
st raf
an p
Ġs age
Ġs amt
Ã¼ ben
Ġw ucht
Ġw uchs
Ġw endet
Ġw usste
at i
at iker
sch ern
ĠD ingen
ĠD ub
Ġein halten
Ġein kommens
Ġn atur
Ġn die
ar o
ar men
ar akter
or y
ten t
Ġm eldet
ĠB arn
al istische
ĠM ah
Ġin wie
Ġzu lasten
Ġh Ã¤ngig
ĠF en
ĠF ro
ĠF eiert
ss o
Ġf ung
ĠG ei
ĠG ig
ĠK ant
ĠP ok
au bt
el as
ĠW M
ĠW Ã¤l
ĠW ichtiger
ĠV est
ĠV inc
Ġg Ã¼lt
Ġg igant
Ġge drÃ¤ngt
ĠR iesen
ĠR olf
Ġer teilt
Ġer werben
Ġer kenn
Ġver zeichnet
Ġver schlÃ¼ssel
Ġan im
Ġan ger
Ġan wenden
ĠL enz
Ġauf er
Ġauf suchen
Ġauf weist
ĠT ieren
ĠT asche
ĠZ H
ĠZ ins
ĠZ auber
ĠZ Ã¼ge
ag o
ĠSt ro
ĠSt Ã¤nde
ĠSt ark
ĠSt utt
ĠH alt
ĠH ond
ĠH ome
ĠN ik
ĠVer ab
ck ing
ĠJ ong
Ġbe kl
ell a
iv es
Ġaus gen
Ġaus fÃ¼hr
Ġun sicht
im ul
Ġsch aff
Ġsch ickte
Ġp ri
Ġp rÃ¤gen
Ġp olizei
sp ann
ab a
ĠPro m
ĠPro t
ĠPro min
Ã¤t ten
ĠÃ¼ber ein
ĠÃ¼ber fordert
ĠÃ¼ber setzt
eil t
ĠC our
ĠEin es
ĠEin weg
ĠEin klang
Ġj Ã¼d
ver handlungen
âĢ ł
Ġall fÃ¤lligen
Ġt angiert
esch aft
ĠEr laub
Ã¶n e
ĠO ut
Ġr Ã¤t
Ġr Ã¼ckt
Ġab ziehen
gr Ã¼nen
be wohner
be kÃ¤mpfung
ĠAus sch
ĠAus richtung
ĠVor aus
ĠVor schlÃ¤gen
iz ipation
ges p
Ġre chte
Ġre zykl
bl ing
Ġber Ã¤t
Ġsp ielten
Ġsp reche
Ġzw ang
Ġgew oll
ĠAuf weich
fe kte
geb Ã¤ude
ap et
ap othe
Ġbest reiten
Ġe cht
Ġe ffizient
ĠÃľ PF
pro zente
ĠWer bes
dent in
ĠPart eil
Ġange m
fr auen
ĠArbeit nehmen
Ġverb inden
sto ckung
Ġstar tet
ĠWie so
ĠDeut lich
anc ial
ha ftet
ĠStud ierenden
Ġgel Ã¶
Ġausge fallen
ĠPrei ser
Ġ7 9
Ġbek am
Ã¤d oph
Ġfrei heitliche
pl Ã¤tzen
pl attform
ĠSteuer abzÃ¼ge
ĠSteuer fuss
Ġwei te
Die se
upp erswil
schlag ung
ĠPl Ã¤tzen
ĠAnt eile
ĠAnt ibiot
ĠMarkt es
ĠSelbst t
Ġgest orben
alitÃ¤t s
urs ache
ĠHand ys
Ġ9 4
ĠKl eine
ĠKranken versicherungen
ĠGew innen
get an
ĠSystem wechsel
ĠstÃ¤r kt
ĠPh asen
Ġbef inde
Ġbed ient
Ġind ische
ump ing
ĠHaus aufgaben
ĠDienst leistungs
Ġal ter
ĠDurch fÃ¼hrung
str ich
ĠMedien konferenz
ĠWissen s
ĠRicht ern
Ġaufge stellt
Ġaufge griffen
wirtschaft liche
Ġsicher en
ĠSpiel banken
ĠKonzern s
ĠKonzern en
ĠKonzern chef
ĠStraf rahmen
ĠBel astungen
ĠKirchen steuern
ĠZwei f
Ġvoll zogen
ĠStÃ¤nder Ã¤te
ĠHo he
fess oren
Ġwirtschaft licher
ĠVater schafts
Ġabge wiesen
haft igkeit
ĠRechts ordnung
ĠPatienten verfÃ¼gung
ĠBlick e
ĠTechnologie firmen
Ġfehl ten
Ġfehl enden
ĠLie gen
Ġheut zutage
abhÃ¤ng ig
ĠGeb Ã¤udes
ĠÃľberwach ungen
ĠMitte ls
ĠMutter schaftsurlaub
Ġdiskut ierten
ĠMittwoch abend
mut h
ĠRegul atoren
ĠArbeitgeber verband
brem st
ĠPer formance
ĠDro ge
ĠBur ger
Ġmensch licher
Ġkanton aler
ĠAnaly sen
ĠKinderbet reuungs
ement iert
Ġeinst imm
ĠauslÃ¤nd ischer
Ġselten e
ĠTw eet
Ġaufzu geben
Ġvorge geben
ĠMinder jÃ¤hrige
ĠRep orter
Ġniemand em
Ġprakt iziert
Ġorganis ierte
Ġorganis ierten
reb ungen
ĠProgramm ier
res erven
ĠGrenz schutz
ĠBerat ungen
Ġkompl izierter
Ġbl ickt
ĠHe ft
Ġislam ische
ĠMerk els
ĠLÃ¶ hnen
ĠTages schulen
ct ion
stÃ¤t te
Ġvers agt
Ġbeteil igten
deck ten
Ġgek nÃ¼pft
ĠPublik ums
ĠgenÃ¼ gt
ĠPolit ische
ĠSitz ung
Ġwissenschaft lich
ĠWÃ¤hler anteil
Ġras cher
Ġbi ologisch
ĠEinwanderung spolitik
vertr auen
Ġwesent liche
ĠLes er
ĠLes art
ĠLetz te
Ġformul ierte
Ġkommun ale
Ġfrag te
ĠPort fol
ĠReich weite
pon enten
Ġpubl izierte
minist ration
Ar beit
ĠBerufs bildung
atri ce
spartei en
ĠEmissionshandel ssystem
Ġirgendw elche
verdien ende
Ġgewiss ermassen
ĠVerteid igungs
Ġverteid igte
ĠKÃ¶n nen
ĠEmbry os
bot schaft
ĠDr eh
Ġ196 9
frem det
ĠSer ie
ĠSer bien
Ġregistr ierten
Ġmel deten
wirt schaften
Gen eral
ĠlÃ¶ schen
bem arkt
Ġkur ze
Ġrelev anten
ĠOlymp ischen
ĠAg gress
Ġoper ieren
ĠSpr achen
ĠKategor ien
mÃ¤r kten
bas ierte
Fl Ã¼cht
Ġschie ben
ĠBÃ¼nd nis
Ġverdopp eln
ĠverÃ¤nder te
ĠOptim ismus
ĠPopul ismus
ĠSteuerer hÃ¶hung
ĠAutob ahn
ĠWett stein
ĠUmwandlungssatz es
ĠProte ste
Ġinnov ative
ĠNeur al
ĠWein stein
ĠSteuers ystem
ĠSeg ment
Ġkanad ische
ĠHarv ey
Ġmitge teilt
ĠPortug iesen
Ġjung er
Ġvorange hen
ĠErgÃ¤n zung
ĠvernÃ¼n ftigen
fiz ite
Ġerreich ten
Ġimport iert
Ġausgesch Ã¶pft
ĠAngelegen heit
ĠGewaltt aten
Ġvirt uellen
Ġdebatt iert
ĠAtt acken
ĠRecher che
skrit ik
ĠVerzÃ¶ger ung
Ġunbeg renz
Ġinterpret ieren
ĠFeh lanrei
ĠFit ness
ĠElektroaut os
Ġgescheiter ten
ĠKaffe e
ĠbelÃ¤st igt
ĠUg anda
kap azitÃ¤ten
ĠSoziall eistungen
Ġvorberaten den
Ġsieb ziger
Schl umpf
ĠKopft uch
zet tel
sszenar ien
ĠNÃ¶t igung
Ġgerau mer
ĠWÃ¤r me
Ġbudget iert
ĠReicht um
ungss aldo
ĠbevÃ¶lker ungs
ĠAppenz ell
ĠHond ur
ĠAufweich ung
$ .
. â
1 00
8 0
9 5
A ff
B eg
C I
D u
G u
J un
L eben
M odelle
N e
S teuern
T A
e ge
f Ã¶rder
g anz
g ing
h aufen
i ften
i dent
k auft
l Ã¼cke
m eist
m eter
n est
n Ich
n Ja
v es
w ig
w oll
w Ã¤lt
w andern
Ġ Ã¤lte
ĸ ł
en berger
er kte
un ternehmer
st ation
st Ã¤d
st Ã¤be
an walt
an sprÃ¼che
Ġa rabischen
Ã¼ mer
Ã¼ gel
on anz
Ġw agen
Ġw ww
ĠS undar
ĠS atelliten
ge werbe
it h
sch war
sch licht
Ġv age
ĠD iss
ĠD estin
Ġein drÃ¼ck
ĠA id
ĠA eb
ĠA BB
Ġn eigen
ar den
hr op
ĠE PA
ĠB ord
ĠB reiten
ĠB Ã¼ch
al o
ĠM er
ĠM ahl
ĠM eist
Ġzu kÃ¼nftig
ĠF unktionen
et on
et he
Ġf lie
Ġf ru
Ġf reut
ĠG al
ĠG Ã¼n
ĠK art
ĠK aren
ĠK inos
ĠP uls
Ã¶ re
Ġk at
Ġk rei
Ġk ost
ber uf
ĠV eg
ĠR oll
Ġer worben
Ġver kehr
Ġver arbeiten
Ġver sehen
Ġan zunehmen
Ġan fangs
om i
om ben
ĠT en
ĠT her
ĠT icket
ĠT AS
ĠZ oll
Ġl agen
Ġl ocker
um or
ĠU top
ĠSch ief
ĠSch eidung
ĠH ir
ĠH ank
ĠH arm
ĠH eilung
le hre
ĠIn nern
se ud
ra un
il de
Ġst eck
iv itÃ¤t
Ġaus b
Ġaus n
Ġun gel
Ġun vor
Ġsch Ã¤r
Ġsch leichen
Ġwer tet
ĠAn recht
ĠAn schlag
ĠAn geboten
ĠAn zeige
Ġp ension
sp erson
sp ots
ab st
ab ler
ab teilung
ĠFr an
ĠFr ust
ĠFr iedr
ĠC a
ĠC ic
ĠEin zug
Ġvor zeit
ver eine
ver kauf
ver pack
ver yth
ver mutung
ungs gemÃ¤ss
lei erung
Ġall mÃ¤h
ger s
ill ot
ill igungen
ĠRe b
ĠRe fer
ĠRe krut
ot ov
ĠO t
ĠO u
ĠO hr
Ġab ger
Ġab stra
Ġab schliessend
ĠVor reiter
ĠBe arbeitung
ĠBe zahlung
ĠBe amten
Ġent sp
Ġent schlossen
aus rÃ¼
ĠMit sprach
Ġwar f
ĠZu stÃ¤ndig
ĠZu stÃ¤ndigkeit
ges agt
ĠKon stell
ru chtung
Ġre alen
Ġdurch setzt
ran ge
rie se
utz ern
os z
ĠAb id
ĠAuf schwung
auf ent
auf nahmen
aut omat
Ã¼t telt
schie bung
Ġkon vention
Ġe uropa
Ġe veryth
arb eite
ĠKlim an
ĠPar ag
Ġger inge
fl Ã¼ge
qu e
ic al
Ġange stellt
ne y
klÃ¤r ten
ĠFl ag
ĠArbeit nehmern
ech nen
ĠGesetz entwurf
spiel er
Ġgesch lagen
ĠAm nest
ett i
ange stellten
ĠMehr kosten
Ġbesch liessen
Ġbesch uld
Ġfest genommen
ĠArbeits stunden
ĠzurÃ¼ck ziehen
ĠzurÃ¼ck kehren
ĠPersonen kontrollen
stit uten
ĠDem enz
ek ter
ĠTr am
ĠVol umen
ĠMass stab
nit z
ĠVerb ote
ĠThem atik
wor ker
wor tete
ĠSteuer ung
ĠSchw ester
Ġte stet
ĠLu gan
ende te
ktiv itÃ¤t
ĠSozial isten
Ġbeh andel
ma il
Ġgest eigert
ĠHin dern
Ġstark es
ĠHand lungen
ĠBeg leitung
Ġbeg Ã¼nst
ĠKranken haus
erst Ã¶rung
Ġde zidiert
gew ohnheiten
Ġen erg
Ġind ischen
ĠGross verteil
will en
Ġal iment
ĠDurch setzung
achten s
best Ã¤nde
ĠMin arett
ĠVert rÃ¤gen
Ġersch ien
ĠWissen schaftern
ĠNeu es
Ġbew Ã¤ltigen
spro gramme
Ġsicher zustellen
Ġpr inzip
ĠY o
ager ung
ĠBef ruchtung
Ġ199 7
ĠInternet konzern
ĠBau ten
ĠMindest lÃ¶hne
th emen
ĠJahres arbeitszeit
ĠGesundheits minister
ĠHaupt grund
ĠSub jekt
ĠLie ss
ka sten
ĠForm el
Ġhal ben
ĠAuslÃ¤nder stimmrecht
Ġben utzen
Ġauszu arbeiten
ĠWohn ungs
staat lichen
Ġabzu schaffen
Ġabzu warten
ĠKont ra
Ġgegeben en
gef asst
ĠPfle geb
ĠPfle gehei
Ġreag ierten
Ġel se
ĠBlock ade
Ġernst hafte
Ġ198 8
ĠgefÃ¤hr licher
ĠSil ber
ĠgÃ¼nst ige
ĠPass us
ĠPap i
Ġend et
ripp en
ĠfÃ¼hl te
ĠKoll ision
ĠLiber alen
anst alten
Ġvern etzt
ĠunabhÃ¤ng igen
Ġunver hÃ¤ltnismÃ¤ssig
ĠBen utzer
ĠIndien s
iat rie
Ġgek ostet
Ġzeit weise
Ġgewalt ig
Ġkultur ell
ĠVorsorge einrichtung
Ġmuslim ischer
ĠWebs eite
Ġfrem der
Ġvegan es
ĠStre cke
kÃ¤m pfer
ĠWen ige
Ġtr aur
aw att
Ġrei st
Ġbedeuten den
zut ragen
Er satz
kore anischen
ĠspÃ¼r bar
ĠPharma firmen
Ġpubl izierten
Ġvorhanden e
Ent scheid
Ġkomplex en
stre am
ĠMach o
kir che
ĠTro t
For schung
use el
ĠExp orte
Ġberu he
ĠNationalrats wahlen
ĠAtomkraft werken
ĠTrain ing
Ġmobil en
Ġverurteil te
Ġbegrenz te
ĠPilot projekt
ĠSek unde
Ġlebensl ang
ĠStad ion
ĠStad tr
Ġbekannte sten
ĠreprÃ¤sent ative
ĠBeweg ungen
Ġregion alen
ĠSpekul ation
ĠOlymp ia
ĠProv inzen
ĠBurk ina
ĠHaar e
Ġhart nÃ¤ck
Ġtyp ischerweise
Ġmin us
ĠÃĦrzt eschaft
Klima wandel
ĠBetr achtung
versch mutzung
ĠPrior itÃ¤ten
Mill iarden
** **
ĠWÃ¤hrungs fonds
Ġstud iert
ĠAlp iq
Ġkorrig iert
mon at
ĠNat alie
ĠSympath ien
ĠHistor iker
ĠMail and
ĠPortug al
ĠgrosszÃ¼g ig
Grund verordnung
kund ig
gegn et
Ġvari ieren
ĠlÃ¤nd lichen
ĠAngelegen heiten
Ġungen Ã¼gend
ĠSau d
Ġengl ischen
Ġmaschin ellen
Ġblock ieren
ĠSchill ing
Ġarbeits los
Ġabsolv ieren
ĠEreig nis
Ġzah ll
ĠZimmer mann
ikamen te
ĠJose f
ĠBeschrÃ¤n kung
ĠErneuer bare
Bot schafter
instru mente
ĠinlÃ¤nd ische
dustri alisierung
verhÃ¤lt nisse
ĠBewerb ungs
ĠGeschw ister
ĠWeltklim arat
Ġzuverl Ã¤ssig
ĠVÃ¶ V
ĠIngenie ur
ĠCal ibra
Ġunabding bar
Ġkontra produktiv
Ġinszen iert
Ġvernach lÃ¤ss
Ġpla c
ĠGeldwÃ¤ scher
Chr ist
ĠPalli ativ
ĠBetrach tet
fle kt
ĠWettbe werber
ĠThin k
ĠKorrupt ion
ĠEidgen ossenschaft
ĠFreiwilligen arbeit
ĠShen zhen
Ġfakult ativen
ĠLimm at
ĠAlib aba
ĠJungfrei sinnigen
ĠApok alypse
ĠPortemonna ie
Ġzuver sichtlich
ĠInteressanter weise
sso ftware
.â ĸł
Jun i
wÃ¤lt in
ĠSchief lage
ĠFriedr ich
ĠAbid jan
Ġeveryth ing
. *
6 2
B F
B as
B ill
F in
L ife
M ein
P lan
R Ã¼ck
S k
S port
T E
T r
T est
T age
a ks
b auer
c el
d ieren
f unktionen
g asse
h us
h ans
j ah
j ob
l esen
m Ã¤cht
o o
p ert
p rÃ¤sidenten
r and
s elbst
u gend
y e
z le
z eut
z zi
Ġ @
Ġ rÃ¤umen
Ġ euch
er be
ch ner
st ern
st Ã¤nden
in at
an griff
an asie
ein heit
Ã¼ ster
Ġdie jenige
Ġw eiten
Ġw eckt
ĠS ab
ĠS aw
Ġder jenigen
at zen
sch ritte
te uf
Ġein setzt
Ġein heitlich
ĠA gentur
Ġz ir
Ġz eichnen
Ġn a
ar nt
or i
or es
or ik
Ġm at
Ġm erken
Ġm iser
ĠE h
ĠB ast
ĠB ibel
al isierten
al gorith
em mt
ĠM ete
Ġin spir
Ġzu kommen
Ġzu recht
Ġh or
Ġh om
Ġh ind
ĠF ox
Ġf lei
Ġf rom
den kt
ĠK Ã¤
ĠK le
ĠK ai
ĠP el
ĠP ot
ĠP ause
ĠP ausch
Ã¶ hnen
Ġk ass
icht igen
ĠW elle
ĠW ada
ĠW urst
Ġge lei
Ġge ahn
Ġge stossen
Ġge braucht
ach tern
ĠR y
ĠR assen
ĠR ennen
ĠR upperswil
ĠI rak
Ġer bracht
Ġer arbeiten
Ġer zeugen
Ġver Ã¤r
re ffer
ĠL au
ĠL ag
Ġauf gebaut
ĠT oten
ĠT aschen
ĠZ will
ĠZ TE
ent o
wei fel
and t
ĠSch am
ĠSch iesser
ĠSt off
ĠH ut
ĠH etz
ĠN av
ĠVer mittler
us h
ĠJ enn
Ġbe wirkt
Ġbe werben
Ġbe erd
ra fe
Ġes kal
il f
Ġst Ã¶ren
Ġaus f
Ġun ent
Ġun voll
Ġsch rieben
Ġsch lafen
ĠAn schein
ĠAn fragen
ĠAn wen
ĠAn wÃ¤lte
Ġp ra
Ġp ost
ern den
sp opul
sp ezif
ab ien
Ġbei behalten
Ġwie so
ĠPro ject
ĠÃ¼ber troffen
ĠEin willigung
chen kt
Ġum setz
ĠJahr gÃ¤nge
ken nungs
lei ster
Ġall tÃ¤
rÃ¤ gern
ĠRe chst
ĠRe pression
anz lei
anz eige
Ġmehr erer
Ġab halten
ĠAus schlag
ĠAus schuss
ĠAus zahlung
ĠVor bereitung
ĠGr Ã¼nd
eiter in
zent u
ĠKon zepte
ĠSp ur
ĠSp ass
ste cken
bl i
ĠUm zug
Ã¤l sch
teil ten
br and
ĠMenschen handel
Ġhin kt
ri sten
ĠSte ll
ĠSte ve
Ġlie st
ĠÃľber rasch
ĠWer bemarkt
lin ks
kon stru
ĠPart ners
gesch w
ĠBet rieben
wir ft
Ġdeut lichen
Ã¤ng nis
ĠSu pp
fÃ¼ gt
ĠHer zin
Ã¤m mung
gegen Ã¼ber
ive aus
ĠFrei sinn
ĠFrei zÃ¼gigkeitsabkommen
ĠMan uel
ĠMon d
satz es
ĠWirtschaft sm
ĠGegen stand
ĠGegen massnahmen
ĠFinanz verwaltung
von ne
St re
Ġfor c
wach e
Ġeinz ut
Ġeinz iger
Ġeinz eln
ĠMass achusetts
ĠCh amp
Ġwo zu
Ġ7 000
Ġbrau chten
dr eht
ak r
ak el
ĠSozial staat
Ġbeh Ã¶rd
Ġbeh indert
iar abien
ĠFol gendes
Ġverm Ã¶gen
Ġschw inden
ĠAt traktiv
ĠAt hlet
ĠMus iker
ĠGew isse
Ġfinanz ierten
ĠfÃ¼nf zehn
rÃ¤n kte
unter stÃ¼t
Ġen ge
hÃ¤ng ern
ypt o
ĠVerein igung
ĠWei chen
spro jekte
Ġentsprechen der
Ġkrit ischer
Ġkrit isierten
Ġsicher lich
handel te
ĠNutz ungs
ĠStrom versorgung
ĠStraf verfahren
ĠY vonne
wahr ung
Ġvoll en
ĠHo f
Ġ199 2
deut schen
Ġgeworden en
Ġfr isch
zess ionen
rakt ive
vert eid
ĠIns assen
mÃ¶glich t
ĠWirtschafts redaktor
Un ser
ĠPlan et
Ġzahl reicher
ĠAsyl politik
ĠSen ats
spolitik er
Ġ16 0
ĠArzt es
Ġanzu gehen
Ġgez ielte
ĠAtom strom
Mit tel
ĠInd iz
ĠSuch anfragen
ĠAkt ionen
Ġak ut
oph ob
ĠItalien s
ĠSe eh
Ġentst Ã¼nden
polit ischer
hei mer
fil m
ĠBeitrag s
Ġselten er
Ġfort setzen
Ġautomat ischen
Ges ellschaft
ĠAngebot s
ĠKlimaschutz abkommen
lass ungen
ins el
Ġgener ieren
ĠBetrieb ssystem
ĠRad sport
ĠGrenz gÃ¤nger
ĠOber gericht
ĠStreit schlicht
ĠVis ionen
ĠStellen wert
ĠKommun en
nÃ¼ pfen
Ġherr schen
Ġlok aler
glei che
Ġintegr ierte
ĠWa ffe
ĠKn ochen
Ġunge achtet
ĠVertrauen s
Ġfestge legten
uk yd
kÃ¤m pf
Ġtr auen
Ġhe ftigen
Ġabgesch oben
mitglie dern
ĠFunktion ieren
Ġfreiwill igen
Ġautonom es
Ġsteuer lichen
ĠBez nau
ĠFortschritt s
ĠgeprÃ¤ gte
Ġrei cher
Ġsubvention ieren
Ġstabil isieren
ĠDes ign
Ã¼ss elt
ĠUmsatz es
ĠFest nahme
met hoden
ĠBu ben
ĠerwÃ¤hn te
ĠAllein gang
ĠKompro misse
Ġvorgeschlagen en
Ġide ologischen
ĠGebÃ¤ude programm
ĠmÃ¤nn lich
ĠFranch isen
ĠfrÃ¼h zeitig
Ġhalb iert
Ġausger ichtete
Ġproblem los
ĠtÃ¶d lich
Ġglaub ten
ĠHÃ¶chst arbeitszeit
ĠSchwer punkt
uth anasie
Ġpar allel
Ġzerst Ã¶ren
sstand ort
Ġverlang ten
ĠBeweg ungs
ĠKrimin elle
ĠClo wn
Ġlangfrist ige
ĠAbtreibungs gegner
Ġeingeb aut
beding te
ĠVenezu elas
teu ert
ĠbefÃ¼rwor ten
ĠTotal revision
ĠmilitÃ¤r ischen
ĠBÃ¼nd ner
Ġenor men
ĠMad uro
Klima konferenz
bef ragung
ĠGlied staat
ĠLat if
ĠZertifik at
Ġmarkt beherr
ight s
Ġindir ekte
Ġstrateg ischen
ĠUrteils fÃ¤higkeit
ĠSÃ¤ ulen
ĠLeu p
Mitglied staaten
Ġselbstfahr ende
ĠBefÃ¼r chtungen
ĠSympath isanten
Ġkonsum ieren
Ġsign ifikan
neu e
Ġpoln ischen
ĠLuxem burger
ĠFernmelde verkehrs
kÃ¶pf ige
Ġgeforder ten
ĠKoordin ations
ĠGlÃ¤ub igen
ĠSpitzensport ler
Ġprogramm iert
Ġperf ekt
ĠPsychot herapie
Ġzeu gen
ĠBlack f
ĠgÃ¤ng igen
ĠHoriz ont
ĠTrav ail
low ak
Ġstraff rei
brÃ¤ uch
ĠHorm on
ĠÃľberzeug ungen
inf rastruktur
ĠDimen sion
ged anken
ĠThurg au
Ġpatriarch al
ĠBemer kungen
ubil Ã¤um
ĠSlog an
ĠBetreuungsgut scheine
ĠKlÃ¤r ung
ĠUnsicher heiten
ĠÃĦg ypten
Dig ital
Ġaufre chterhalten
Ġrenomm ierten
ĠLiquid itÃ¤t
ĠJus o
prob ieren
Ġbezi ff
ĠFortpflanzungs medizin
ĠGouverne ur
Aust ritt
meid lich
ĠAnschuld igungen
ĠSchweine fleisch
Ġangesied elt
Ġeuropa weit
ĠSaud iarabien
ĠRechst einer
ĠAttraktiv itÃ¤t
ukyd ides
B o
D eut
D isk
D ollar
E S
G ut
G ew
H ier
K JPD
M utter
M ails
N utzer
P f
Z ertifik
b ase
b ox
e ffekt
f onen
g in
g it
g ige
g han
i op
i Ã¨
j amin
k Ã¤ufe
l aut
m un
m ischen
m ark
m iet
m aterial
p ut
p raxen
s an
s iv
v el
w unsch
y la
z immer
Ã ±
Ġd ien
Ġd Ã¼ster
ie ber
ie fen
an geboten
Ġs uchte
ein wanderung
Ġw ohn
Ġw od
Ġw andern
ĠS ignale
at es
at ischer
it ation
sch rei
sch le
ll ten
ĠD op
ĠD essen
ĠD ow
ĠD rug
Ġein nimmt
Ġein fordern
Ġein vern
ĠA c
ĠA h
Ġn ukle
Ġn eutrale
or de
ĠE VP
ĠB E
ĠB al
al teten
Ġzu kÃ¼n
ĠF ell
ĠF ische
ĠF uk
ĠF raktionen
et agen
ĠG C
ĠG ute
ĠG mail
ĠK etten
ĠK anzlerin
ĠP rÃ¤sid
Ġk assen
el ikte
ur k
ur es
ur ter
icht lichen
ĠW ey
ĠW Ã¤hlern
ĠV au
Ġge fÃ¼hl
Ġge einigt
ĠR asch
ĠR io
ĠR Ã¤um
ĠI b
Ġer achten
Ġver schl
Ġver leihen
Ġver haftet
Ġan gen
Ġan stehende
ĠL om
ĠL och
ĠL iz
ĠL aw
Ġauf hÃ¶ren
ĠT ot
ĠT ib
ĠT euerung
ĠT heoretisch
ĠT ausenden
ĠT apet
ut schen
Ġl ob
um me
ĠSch Ã¼tzen
ĠSt Ã¤nden
ĠSt eigerung
ĠH ill
ĠH Ã¶l
ĠH ip
ĠN ei
ĠN atri
ĠN HS
ĠVer h
ĠVer un
ĠVer eine
Ġo ffer
Ġbe arbeitet
Ġst iegen
Ġaus zur
Ġaus gleichen
Ã¼ber schuss
Ġun ternehmer
Ġun bem
im pft
Ġsch affe
ĠAn kl
Ġp ersonen
Ġp rek
sp rit
sp ersonal
ĠEin stieg
Ġvor bild
ssen kungen
Ġt Ã¤u
Ġt aiw
ger Ã¤t
ul iert
ĠEr ziehung
ĠEr Ã¶ffnung
ĠRe yn
zu wanderung
anz ut
est e
Ġr einen
ing lichkeit
ĠAus schluss
ĠVor fÃ¤lle
ĠVor gÃ¤nge
Ã¶r dern
end igung
ĠBe geg
ĠBe wohnern
aus ibel
Ġunter suchte
ĠMit einander
stell igen
stell ers
ru p
iger e
ick ets
Ġber eitet
os in
ĠAb satz
ĠAb sicherung
ĠAb spaltung
ĠEnt zug
ĠEnt sorgung
kl ub
Ġweiter gehende
Ġpro m
urop as
Ġbr is
ud ium
Ġe vent
Ġe chten
ĠReg isse
ĠÃľber w
pro jekten
Ġger eist
Ġger Ã¼ckt
fl ix
ĠDaten mengen
ĠFor k
qu in
ĠGrund e
ĠGrund sÃ¤tze
ĠUnter t
ĠWelt macht
Ġange fÃ¼hrt
ĠBet rÃ¼ger
ĠGesch wind
recht ler
ehn te
Ġerst ar
Ġaller meisten
ĠFl Ã¤che
Ã¶ff nete
ĠArbeit st
ĠHer mann
Ġgesch ah
chte ten
ĠGen auso
ĠGen Ã¼gsamkeit
ĠMon op
ĠMon itor
Ġfest hÃ¤lt
richt linie
beh alt
ĠGegen wÃ¤rtig
ĠFinanz in
ĠFinanz kommission
ĠPersonen verkehr
ex trem
Ġfor scht
ĠEm ot
io se
Ġausge stossen
ĠTr Ã¤nen
ĠMass ent
ĠCh ile
Ġ7 4
Ġ8 8
verb esser
verb Ã¤nden
ĠBl att
ĠPl Ã¤nen
ĠAnt on
gesetz e
gesetz ten
grund lage
ĠSozial versicher
ĠSozial werke
ĠSelbst verstÃ¤ndlich
ĠRegel werk
ĠSter bew
ĠBr emen
Ġverm uten
ĠFacebook s
ĠBÃ¼rger liche
ĠAt hen
ph yla
ĠÃ¤ sthet
ĠÃ¶ffent liches
Ġ9 2
Ġwohl haben
ĠTag ess
sm an
ĠMa y
ĠMa inz
ĠZusammen spiel
ĠRenten zuschlag
ĠGleich behandlung
str Ã¶me
ĠBest se
bild ungen
frist ige
ĠApp ell
ĠMann schaft
ĠPreis gestaltung
Ġdort igen
erk ran
spro zesse
wirtschaft ung
ĠSeit dem
ĠStrom verbrauch
ĠZum al
tw ende
ĠPrivat wirtschaft
Ġleg ten
Ġvoll umf
reg ister
ommun ikation
Ġdr eht
ator ium
Ġfr auen
Ġverw echseln
ĠMot iven
ĠEinzel personen
abil ity
ĠFlug reisen
ĠverfÃ¼ gten
ĠCo ach
wur fs
red ite
ĠComp aris
Ġgesellschaft licher
arr iere
Ġerw Ã¼n
Ġerfolg ten
Ġeinzu sch
Ġeinzu stellen
ĠProjekt s
Ġdro hten
Ġinte grat
Ġerf inden
Ġerz ielten
Ġ202 3
Ġauszu gehen
ĠInd ik
ĠJustiz vollzugs
ĠKern kraft
zentr ale
ĠDro hne
ĠGel Ã¤nde
Ġung es
fel dern
ĠGesamt heit
ĠBildung ssystem
Ġirgend wie
ĠEng p
Ġwider sprÃ¼ch
ĠgefÃ¤hr lichen
hei ssen
ĠfÃ¤ llen
ĠGeh Ã¶r
ĠNutzer daten
ĠMobil tele
ĠTe en
Ġerhe bt
ĠChancen gleichheit
Ġbeschlossen e
ĠfÃ¼hl ten
ĠKandid ierenden
ĠLiber o
Ġle er
ĠDi pl
ĠhÃ¤ufig sten
Ġvern Ã¼nftig
ĠOber flÃ¤che
ĠImpf ungen
ĠImpf stoffen
Ġunver meidlich
ĠBudget s
blig ationen
ĠBen jamin
Ġislam isch
ĠTages ordnung
ĠÃ¼berw unden
Ġanst ren
Ġgek Ã¼rzt
ĠEind Ã¤mmung
ĠTerror isten
Ġsinnvoll e
Ġsinnvoll er
ĠDetail handels
ĠBi ot
Ġreal isieren
Ġumge ht
ĠRegen fÃ¤lle
ĠNachbar lÃ¤ndern
Ġ27 0
ĠkÃ¼nd igt
Ġmaxim alen
ĠUN HCR
ĠDes wegen
ĠAust ritts
Ġbedeuten de
Ġzweit grÃ¶sste
Ġdomin ierte
Ġteuer sten
ink el
Ġverh elfen
Ġverh Ã¼llen
ĠGeneral versammlung
Politik erin
ĠPatient in
ĠLager ung
stat tet
stat istik
Ġries ig
ĠÃĦhn liche
ĠTon i
ĠfÃ¼ gte
Ġerl itten
ĠsÃ¼d lich
Ġoptim ale
ĠHei z
we sten
ĠFraktion s
ĠLob siger
Ġberu hen
ĠLetzt es
Ġunmittel baren
Ġglaub te
Ġgeeig neten
mord et
Ġeinseit ige
Sc ann
Ġstraf rechtliche
klus iv
Ġnieder lÃ¤nd
ĠÃ¶k ologische
ĠÃ¶k ologisch
Ġverbind lich
Ġausgew Ã¤hlt
oy er
verantwort liche
Um welt
ĠReal itÃ¤ten
ĠAf ro
ĠChe ck
ĠParallel en
Ġanalys ieren
ĠBeschuld igten
wald ner
orient ierte
ĠAbs ichten
ĠStaatsse kretÃ¤r
ĠOptim ierung
ĠWÃ¼n schen
ĠFur rer
Ġkr ass
ĠÃľbergangs frist
ĠunzÃ¤hl igen
ĠSuchmaschinen betreiber
Ġverun s
ĠGefangen en
Ġmark ant
Ge walt
ĠWertsch Ã¶pfungs
ĠMc Donald
Ġdi plomat
ĠEi fer
ĠÃĸk osystem
ĠBehaupt ungen
Ġsign ifikant
ĠProf ile
ommissar in
Ġprognost iziert
Ġerreich bar
Ġdemograf ischen
ĠÃĦl tere
ĠPlastiks Ã¤cke
ĠflÃ¤chen decken
Ġminim ieren
Ġleb ten
emit teilung
ĠNid walden
Ġangestreb te
ĠJahrh underten
ĠDoku mente
Ġweiterentwick elt
ĠVeget arier
ĠExekut ive
ĠSÃ¼nden b
kompeten z
ĠReprÃ¤sentanten haus
Ġveran l
Ġkonstat iert
ĠJÃ¼nger en
ĠFair ness
ĠPress emitteilung
kra ine
ĠOpern haus
Ġirre vers
ĠWurz eln
ĠSilv ia
ĠKollekt iv
ĠSchlussfolger ungen
ĠJes us
ĠSig g
ĠKehr twende
Ġvergewalt igt
ĠInfluenz a
Arb eits
Glob al
ĠBir git
ĠHein z
ĠPatr ick
Ġquant it
barb ital
ĠFen ster
Ġaufer legt
ĠgelÃ¶ scht
ĠbevÃ¶lkerungs reich
illot ine
ĠAmnest y
ĠLiess mann
ĠGeldwÃ¤scher ei
ento barbital
ĠChamp ions
Ġwod urch
ĠBegeg nung
ĠSterbew unsch
3 4
5 3
A C
B it
B eh
B io
B lack
C S
F P
G eb
G eld
H och
H Ã¤ndler
K unden
M S
O u
P ost
Z B
b ungen
b undes
c omm
c vp
d s
f i
f asten
f iguren
g ler
g ingen
h opp
i j
j man
k om
k op
m ill
p osition
s c
s land
s ied
w ier
x e
z on
z icht
Ã ¡
Ã «
Ì Ī
Ġ ug
Ġ urteil
er os
un s
st att
st Ã¼cke
in te
Ġs aison
ein fluss
Ġw ohnt
Ġw Ã¤rm
ĠS elt
ĠS itzen
ĠS erien
ĠS endung
ge fallen
as zin
it o
it Ã¤ren
sch ichten
sch Ã¤tzungen
sch melze
ĠD isziplin
Ġein gerechnet
Ġein leiten
Ġz Ã¤hlte
Ġb u
Ġm achbar
hr in
Ġau gen
ĠE fta
ĠB a
em pl
der te
der ungs
ĠM i
ĠM auch
Ġin t
Ġzu seh
Ġh itz
ĠF isch
ĠF utter
ĠF asten
Ġf esten
Ġf aszin
den ker
ĠG uten
ĠG FS
ĠK L
ĠK ore
ĠK Ã¶pfe
Ã¶ ll
Ã¶ sser
Ġk ap
Ġk urs
ur pos
ig a
ĠW ach
ro ute
ĠV ietn
men ge
Ġge gessen
ach st
ĠR ing
ĠR ank
ĠR ake
ĠI MF
Ġer weisen
Ġer weist
Ġer langt
Ġver schie
Ġver fl
Ġver klein
Ġan sprechen
Ġan bietet
om etern
ft igt
ĠL en
ĠL isa
Ġauf bewahr
ĠT us
ĠT rÃ¼
ĠT ille
ĠT oc
ĠT abu
Â» ),
ĠU kraine
ĠSch reck
ĠH Ã¤nden
ĠN ischen
ĠVer ursacher
ĠJ er
Ġst ol
Ġun aus
Ġun ertrÃ¤glich
im pfung
Ġdem nÃ¤chst
ĠAn griffe
ind liche
ern ob
sp ezial
ab ay
ab ile
eg arden
ĠPro ben
Ã¤t te
ĠÃ¼ber partei
ĠC PU
ĠEin ge
Ġvor behalten
ver arbeitung
ed raogo
Ġt aten
ger echten
ĠEr achtens
ass hopp
Ã¤r zt
ill es
ser satz
ist et
la v
ĠO hren
Ġnach ts
Ġab hÃ¤ngen
ĠAus bruch
ĠAus nahm
ĠAus lÃ¶ser
Ã¶r ten
end lich
Ġent kommen
Ġent schÃ¤r
lo om
Ġunter laufen
ĠMit wirkung
for me
bst adt
ru fe
Ġre ale
Ġre flekt
Ġdar stelle
bl er
bl endet
rie gen
Ġber eiten
Ġsp iegeln
ert rÃ¤ge
ĠUm lage
ĠIm pl
Ġgew ann
ĠEs kal
ĠEnt f
nah en
Ġweiter ver
ĠAuf klÃ¤r
ĠAuf nahmen
ĠAuf satz
ĠAuf stockung
ze denz
Ġhin dern
Ġpro phe
inanz ierung
Ġkon kreter
Ġbest ritten
ĠStaat sk
Ã¤ch eln
ad ogo
ĠÃľber t
Ã¤u ten
fahr ung
Ġger ichtlich
ĠFor aus
kon to
kon servative
kon takt
kon forme
qu ev
gesch oben
Ġ19 48
Ġange halten
Ġange hÃ¶ren
wir r
Ġeigen em
Ġher stellen
ĠSu izide
ĠEurop apolitik
sto ur
gleich ung
ĠFrei burger
ĠKlima krise
ĠKlima ziele
ĠFinanz trans
St aats
Ġgleich berechtigt
Ġausge legt
Ġausge zeichnet
Ġausge drÃ¼ckt
Ġausge stattet
ĠVol vo
ĠPrei sst
sk reis
dr ehen
Ġern Ã¼chtern
ĠBl ase
ĠSteuer geldern
ĠSchw ule
ĠEnergie quellen
so zi
ĠMedik ation
ĠEltern teile
ĠKir ch
ĠSozial departement
zw ecken
Ġgest ritten
Ġgest euert
Ġgest altet
eim pf
ĠWahl beteiligung
ĠPf ad
ĠKrit erium
ĠÃ¶ffent licher
Ġversch reibung
ĠOb walden
ĠMittel alter
ĠMittel feld
ĠZusammen leben
kr emp
20 18
ĠHaus halten
ĠGross konzerne
ĠUmwelt politik
wandel n
ĠBed roh
ĠIslam ischen
ĠBesch affung
Ġlang jÃ¤hrige
ip eh
Ġentsprechen des
wirtschaft lichen
ĠPrÃ¤ zedenz
ĠKind heit
ĠLohn d
ĠnÃ¤ch stes
kam pagnen
ĠStraf rechts
ĠSon dern
ĠStimm recht
Ġricht er
ĠBran den
Ġnah el
ator ische
An aly
gn issen
ĠRechts lage
ĠRechts Ã¼bernahme
vert rÃ¤gen
ĠFamilien nach
ĠEigen miet
Ġ12 5
ifiz ierte
inter nen
ĠJahres beginn
ĠGesundheits ministerium
Ver handlungen
ĠBrÃ¼ der
Ġunterschied licher
ĠKat hrin
Ġerw ischt
Ġmass gebend
mehr heit
ĠBank ier
Ġerz Ã¤hlen
Ġdiskut ierte
erv iert
ĠWohn raum
ĠAtom waffen
ĠPlastik mÃ¼ll
Ġlau ten
ĠKern kraftwerke
zentr ums
ĠKonsu ment
ĠVerfassungs gericht
ark tet
Ġregul Ã¤ren
ĠSe c
ĠWahr zeichen
Ġverein bart
ssp recher
Ã¶rder ten
ĠGeh alt
ĠbeschÃ¤ft igte
Ġverurs achte
ĠSwiss quote
ĠMinder jÃ¤hrigen
ĠFakt isch
ĠjÃ¼ng ster
Ġbeschlossen en
ĠAd ministration
Ġbeding ten
samm elt
Ġehem als
Ã¼m m
ĠvÃ¶ ll
ĠBundesver fassungs
Ġnational rÃ¤tlichen
ĠIdent itÃ¤ten
ĠVermÃ¶gen sver
ĠSk la
ibil isieren
ĠVerband s
ĠJournal istin
ĠPolit ologe
ĠPolit ics
Ġumge gangen
ĠzurÃ¼ckge ht
ĠHerr n
ĠLei bstadt
Ã¤um t
Ġhe bt
ĠTrans aktion
ĠErnÃ¤hrung ssicherheit
rig ht
aw ane
Ġans Ã¤ssigen
Ġabl ehnt
ĠGeburt stag
ĠAusnahme zustand
ĠDes igner
Ã¶m isch
kat alog
ĠInterview s
Ġorient ierte
Ġmoder ate
ĠWieder wahl
ĠTour isten
ĠGu id
Ġabseh bare
ĠBew Ã¤ltigung
Ġamb ition
lÃ¶ hnen
Ġleich ten
ĠSterbe fasten
ĠgÃ¼nstiger e
ĠFÃ¶rder gelder
ĠFÃ¼hrung spositionen
ĠMeth an
ĠVervoort s
ĠGra ben
ĠKredit re
bot schaften
Ġreich sten
ĠMik e
Ġ196 4
Ġbreit es
entscheid ung
frem dung
ĠLink sextremismus
leiter in
Ġko oper
vers agen
ĠKas inos
ĠHor at
bo den
ĠNetto zuwanderung
Ch ips
ĠPrÃ¼ f
Ġabges p
ĠIs land
ĠQual comm
Ġmenschen gemachten
Ġeingeb unden
ĠSpr ung
Bet reiber
ĠKennt nisse
Ġscheiter ten
ĠMitarbeiten de
Rep urpos
iden z
ĠBor de
ĠhÃ¤r tere
disk ut
Ġbeschleun igt
ĠArten vielfalt
ĠSchauspiel er
sbe kÃ¤mpfung
ĠMode llen
ĠZer schlagung
ĠAufsichts behÃ¶rden
Aut or
ĠTsch ernob
Ġgrundlegen de
ĠwÃ¶chent lich
ĠbrÃ¤ chte
Ġziel fÃ¼hrend
Ġrisk iert
ĠHasht ags
Ġitalien ischen
beauftrag ter
ĠbetrÃ¤cht lich
ĠungewÃ¶hn lich
ĠSÃ¤kul arisierung
Ġdemograf ische
phe ten
ĠTa ipeh
Ġverwende ten
ĠSpannungs feld
hinter grund
ĠSur abay
Ġmassen haft
Ġhar ter
ĠKer osin
ĠEreig nisse
Ġeinheim ische
Ġtherapeut ische
Ġwirkungs voll
Ġmangeln de
ĠKlub s
ĠprÃ¤vent ive
ĠSing ap
ĠFachhoch schule
ĠEck werte
ĠfÃ¼n fte
Ġgetr ennt
ĠSah ara
ĠEmissionsredu ktionen
ĠberÃ¼hm te
Ġbefried igen
ĠIndividual besteuerung
ĠSoft war
ĠRÃ¼ckt ritt
ĠInlÃ¤nder vorrang
Ġangewand t
ĠNic ol
ĠVerord nungen
rÃ¤g ger
ĠMeinungsforschungs instituts
ĠerlÃ¤u tert
Netz werk
ĠWesent lichen
Ġisol iert
ĠParadig men
ĠGreg or
Ġamt ierende
Ġzusammenzu arbeiten
ĠGrippeim pfung
ĠJacqu eline
ĠMim i
ĠJeden falls
ĠTeufel skreis
bec ca
blÃ¼ ff
ĠBiod iversitÃ¤t
ĠBundeslig a
ĠÃľberschw emmungen
ĠUnterdrÃ¼ck ung
priv at
ĠBelohn ung
ĠAbteil ungen
itar ismus
Ġanmel den
ĠPflegef inanzierung
disp ensation
ĠStutt gart
ĠErlaub nis
Ġgewoll t
ĠPreiser hÃ¶hungen
ĠHondur as
Ġkost spiel
ĠMitsprach erecht
Ġaliment iert
Ġprinzip iell
ĠSaw adogo
ĠLeup i
ĠEmot ionen
Ġveruns ichert
Ou edraogo
jman i
Ġug and
Ġzuseh ends
ĠVietn am
ĠToc quev
asshopp ers
ĠFamiliennach zug
Repurpos ing
ĠTschernob yl
% ).
2 3
8 3
? )
B IP
D o
D en
D eleg
K ette
N ur
O S
O AA
R o
S chn
S Ã¼d
W h
b ab
b lock
b Ã¼ch
f ro
f arkt
f risten
h y
h ut
h ent
h ls
h abe
h Ã¤ngt
h istor
l Ã¼cken
l Ã¤ufer
m ein
n or
n eter
o ol
p ositionen
s oll
s fÃ¤higen
t ingen
v ar
v ii
w enn
w itter
w ay
Ġ ed
Ġd ivers
ei s
st ad
st uf
an schlag
Ġs uchten
ein genommen
Ã¼ tet
Ã¤ gern
ĠS y
ĠS un
sch aut
sch ild
sch Ã¤tzung
sch weren
ĠD ab
ĠD ist
ĠD Ã¶r
ĠD res
ĠD PU
Ġein ander
Ġein dÃ¤mmen
Ġn Ã¼chtern
ar y
or sam
or ganis
or respon
Ġm erk
ĠE cke
ĠE uthanasie
ĠB AFU
ĠB rÃ¤gger
al in
der en
ĠM achen
ĠM indestens
Ġin akzept
ĠF eu
ĠF ed
ĠF erg
ĠF Ã¼ssen
ĠF igur
ss ituation
eit igung
et was
Ã¼r me
ĠG ent
ĠG il
ĠK Ã¼n
ĠK ler
ĠP fer
ĠP ositiv
au sser
Ã¶ ver
icht liche
ber eit
ig in
ĠW omÃ¶glich
ĠV a
ĠV at
ĠV oten
Ġge fahren
Ġge leitet
Ġge laufen
ĠR ud
ĠR oss
ĠR iegel
ĠR ieder
ir urg
ĠI BM
ol ta
Ġver sto
Ġver eint
Ġver brauchen
eh er
re ger
Ġan gel
ĠL ud
Ġauf stellen
Ġauf steigen
ĠT ri
ĠT eller
Ġl ock
Ġl imit
Ġmit halten
Ġim men
ĠSch acht
ĠSch wach
ĠSch lecht
ĠSch liessung
ĠSt ars
ĠH it
ĠH ob
ĠH ype
och te
ĠVer hin
ĠVer gehen
ĠIn tens
ĠIn dustrialisierung
Ġbe wiesen
Ġbe worben
il dert
il icon
Ġst reben
Ġaus richten
Ġaus zahlen
Ġaus zumachen
Ã¼ber schÃ¼sse
Ġdem selben
ĠAn f
ĠAn schlÃ¤ge
ĠAn wohner
ĠAn gleichung
Ġp rÃ¤sid
ind ungs
ab ranche
ĠFr ied
ĠÃ¼ber weisen
ĠÃ¼ber sehen
ĠUn ver
ĠUn verstÃ¤ndnis
ĠC om
ĠEin sp
ĠEin heiten
Ġvor werfen
ver stand
ver gÃ¼t
ger echte
ĠEr ster
ĠRe becca
ant ritt
ĠDer weil
ĠO pen
be finden
ĠGe ber
ĠAus weich
ĠAus bildungs
ĠBe endigung
Ġent scheide
Ġent sprÃ¤
Ġunter halten
Ġunter stehen
Ġunter durchschnitt
Ġunter zeichnen
ĠMit bewerber
ĠZu ger
her e
ran ger
ĠProzent satz
ĠProzent punkten
ĠBundes prÃ¤sident
ĠBundes schulden
ĠSie ges
ick ten
rie ssen
Ġber echnet
Ġber appen
ok apital
Ġgew Ã¤hlte
Ġgew arnt
teil ungen
ĠAb falls
ĠAb gelt
ĠAb wesen
ĠEnt steh
Ġges chenkt
hin ein
auf bau
Ġzwei jÃ¤hrigen
ri fiz
ĠSte ht
ap ro
Ġson der
vor gaben
Ġbest anden
Ġbest reitet
Ġe chter
Ã¤nd iger
ragen den
ad get
ĠZeit ungs
ĠÃľber trag
ĠÃľber stunden
ĠKlim ar
ĠKlim am
ĠDaten missbrauch
ĠNach kommen
gesch Ã¤fte
ĠBet Ã¤ub
wir ksam
ĠGesch Ã¤ften
ĠTh ukydides
Ġgesch ossen
Ġgesch Ã¤tzten
Ã¤m pfer
ĠGeld es
Ġfest zustellen
ĠEl iten
ĠfÃ¼hr end
ĠFinanz politik
Ġausge arbeitet
ĠTr auer
ĠInter vention
ĠThem as
dr Ã¤ng
reichen de
ho use
Ġwei blicher
ĠSchw ank
ĠGemein wohl
Ġho hes
Ġex ot
ĠBeh inderung
ĠLu kas
ĠSozial system
In flu
echs els
Ġverm utet
Ġschw anken
Ġschw indet
alitÃ¤t sprinzip
ow ern
ow ski
Ġzusammen gefasst
ĠhÃ¶her er
Ġeh esten
ĠRÃ¼ck blick
bet rieben
ĠKl aus
zahl te
ĠfÃ¼nf mal
Ġbef Ã¶rdert
Ġbel ohnt
our ce
iber alen
such ung
Ġleben de
ump ft
best imm
ĠWeg fall
str ong
Ġglob ales
ĠBest rebungen
ĠNicht reg
ĠVert rieb
ĠBesch eid
ĠBesch leun
ĠRisik okapital
az itÃ¤t
Ġaufge worfen
ĠWochen arbeitszeit
ĠPrÃ¤ mie
Pro jekte
ĠLohn prozente
ĠStraf mass
ĠPrivat personen
schw ier
schw elle
ĠNe useel
Ġvoll em
Ġnah en
ĠFil men
Ġbekannt gegeben
Ġir regul
ĠFamilien arbeit
Ġ0 4
jahr e
ĠMindest strafen
kraft werken
auss ichten
ĠverfÃ¼ ge
Ġinter nen
ĠDrit te
ĠHaupt problem
Ġheut iger
ĠWar e
ĠErn te
Ġper iod
ĠSchluss abstimmung
Ġerw eiter
ĠDollar s
ĠAuslÃ¤nder anteil
Ġ11 0
Ġ11 5
Ġjem als
Ġerf uhr
ĠRegul a
Ġauszu geben
ĠHa fen
up s
verl uste
Ġneben bei
ĠJustiz ministerium
ĠJustiz vollzug
ĠDro hnen
ĠGesundheit ssektor
Ġliber aler
ĠFrankreich s
ĠWest afrika
verbot s
Ġgemeinsam es
Ġverein z
Ġ21 0
hem m
ssp ital
ĠKrank heits
Kon kur
wÃ¼rd iges
Sp iel
ifik ation
Ġbeein druck
ĠRu der
ĠDel ikte
hÃ¤ usern
ĠBranchen verband
Ġle be
Ġakzept abel
Ġtief sten
itÃ¤r er
ĠAnrei zen
ĠBasel bieter
rich e
eister ung
glei s
Ġinform ierte
schaff ungs
ĠPosition ierung
ĠLang fristig
Ġras chen
Ġkathol isch
Ġtr inken
ĠprÃ¤ gn
vertr etung
techn ologie
Ġstren ge
ĠBez os
ĠDiskrimin ierungen
Man ager
ĠrÃ¼ck gÃ¤ngig
Ġzuge wander
Ġuner lÃ¤sslich
ĠBevÃ¶lkerungs gruppen
ĠKa iser
rang ig
Ġentfern en
Ġgeschlossen en
ĠKil o
Ġetabl ierte
Ġmiss brÃ¤uch
ĠMeinungs um
Ġdopp elte
ĠspÃ¼r t
Ġjur istisch
ĠHerkunft slÃ¤ndern
krit isch
ĠSc ott
ĠMigrations hintergrund
ĠHaft ungs
ĠBÃ¶ den
Ġbas ieren
ĠBrutto schulden
ĠÃĦhn liches
ĠEp is
ĠEt hn
ĠKar l
Ġuntersch Ã¤tzt
Ġordent lich
Konzern e
ĠMarc el
ĠErwerbs einkommen
leb ten
ĠnatÃ¼r licher
Ġgeeig nete
ĠVergewalt iger
Ġvieler orts
ĠHerz og
ĠBrun o
Ġanerk annten
ĠVerhÃ¤lt nissen
Ġflex ibel
ors ia
ĠIll usion
Mar ke
Ġgelang te
Ġass ozi
ĠProv ok
Ġstat istische
ĠStÃ¤nderats kommission
Ġreform iert
Ġreform ieren
bas ierten
ĠAuskunft s
ĠSexu ald
Ger ichts
ĠBru st
ĠBru cht
ĠLaden Ã¶ff
ĠstÃ¤rk ste
Ġmotiv iert
ĠKrie ges
ĠMinim al
Rep ort
ĠFas el
ĠVir en
Ġlesb ischen
ĠClau de
ĠkÃ¶rper liche
ĠBevor mund
glÃ¤ub ige
ĠAnalyt iker
Ġgewaltt Ã¤tige
ĠAir lines
ĠBig ler
ĠMeg vii
ĠÃľbergangs zeit
ĠEnergiet rÃ¤gern
Ġemotion al
ĠAlex ander
ĠKund endaten
ĠPen sen
Ġstud ierte
ĠFo und
ĠNiederlan de
Ġharm los
Ġdemonstr ieren
bahn hof
ĠKomment are
Ġbevorzu gt
zungs leistungen
Ġkaliforn ischen
ĠÃľbergang slÃ¶sung
Ġverabschiede ten
Ġprogress iv
kÃ¶pf igen
religi Ã¶sen
ĠErgÃ¤n zungsleistungen
Ġeingesetz ten
gesprÃ¤ che
Ġew ig
ĠKoordin ation
Ġeig net
ĠNet flix
ĠPharm abranche
Ġrat ifiziert
ĠEinbÃ¼rger ung
ĠVizeprÃ¤sident in
ĠHann a
Ġmanipul ieren
Ġkonkur renz
ĠWeiss buch
Ġungewoll t
Ġfundament ale
ĠBehandlungs kosten
GrÃ¼n e
Ġzuges ichert
ikamen ten
ĠCl ub
ĠIndustriel Ã¤nder
Ġdepress iven
gra ben
ĠBekannt gabe
Ġkomment ierte
Red u
Ġjeg liche
ĠEinblick e
Ġumsch reibt
ĠFM H
ĠOpf ern
Ġsubstanz ielle
ĠClick work
ĠParade beispiel
Ġfestzu halten
Ġurb anen
ĠPlur alismus
ĠMosche e
ĠAdr esse
Ġwidersp iegelt
Ġatt raktive
eigent um
ĠSchulter schluss
Ġmill iarden
ĠHÃ¤ft linge
ĠStrass burg
Art ikel
ĠOffiz iell
Ġbenachbar ten
ĠAkquis ition
ĠOste uropa
ĠentschÃ¤d igt
Ġnachweis lich
Gren ze
ĠbÃ¶rsen k
Ġzugesch nitten
Ġunfrei willig
Ġunreal istisch
ĠbekrÃ¤ ftigt
ĠModern isierung
ĠXia omi
ĠGetrÃ¤n ke
ĠErdog an
ĠPandem ie
ĠVest ager
Ġerkenn bar
Ġausgen utzt
ĠPromin ente
ĠUtop ie
otov olta
Ġflei ssig
Ġgeahn det
ĠRy tz
ĠJenn i
ĠHerzin farkt
Ġeinvern ehm
Ġunbem erkt
ĠReyn ard
Ġvollumf Ã¤nglich
Ġbu hlen
Ġverschreibung spflichtige
ĠEigenmiet wert
nor men
ĠFerg us
Ġversto sse
ĠSchacht Ã¼r
Influ enc
ĠNichtreg ierungs
" ,
1 4
5 7
7 3
A d
B ar
B udget
B innenmarkt
F ranchise
G renz
K urs
K amer
M o
M us
P S
P rÃ¤
P ublik
P ersonen
R icht
S en
S ter
T S
V on
a der
b licherweise
c i
e c
f ehl
f igur
h ein
h ir
i Ã¤r
i Ã¤ren
k ollege
m es
m asse
m Ã¤chte
n es
o cken
t astet
u sten
u pf
v ir
w Ã¼ch
w ly
y en
z ol
Ġ ,
Ġ y
er eig
er klÃ¤rung
Ġd ulden
Ġd Ã¼nn
st utz
st reiber
an griffe
Ġs ur
Ġs anken
Ã¼ chten
Ġw ehrt
Ġw ehrte
Ġw Ã¼ssten
ĠS ort
ĠS end
ĠS egen
ge ls
at istik
ĠD urst
ĠD ividen
ĠA gen
Ġz ens
Ġn omin
Ġm ess
Ġi sst
gen au
gen eration
Ġund enk
ĠE ier
ĠE iz
ĠE ast
ĠE volution
ĠB J
ĠB uss
ĠB ud
ĠB ad
ĠB ub
ĠB loss
ĠB oni
em mer
ĠM all
ĠM eister
ĠM EI
Ġin e
Ġin iti
Ġh omosexuellen
ĠF erne
et as
Ã¼r ze
ĠG AV
ĠK ult
ĠK reb
ĠK anzler
ĠP ragmat
ĠP rÃ¤sentation
ĠP entag
ĠP ixel
Ã¶ hne
Ġk la
men schen
Ġg inge
Ġge fÃ¼hrte
Ġge werkschaft
ach ine
ĠR Ã¼st
ĠR Ã¤ume
ĠR aser
ir ale
Ġer mittelt
Ġer zwingen
Ġer mordet
is ierungen
ol i
Ġver raten
Ġver werf
re a
re flex
Ġan gerechnet
ĠL ut
ĠL aufen
ĠL iga
Ġauf bauen
ĠT rie
ut ionen
ut sam
Ġl aden
Ġl ight
Ġl Ã¤cher
Ġmit te
Ġmit best
and ale
ĠSch ind
ĠSch Ã¤r
ĠSch Ã¤u
ĠSch weigen
ĠSt ig
rei ssen
ĠH ote
ĠH elfen
ĠN immt
ĠN azi
ĠVer wand
ĠVer urteil
ĠVer dienst
ĠIn der
ĠJ ene
Ġbe stens
Ġbe quem
Ġbe freit
Ġst eige
Ã¼ber greifen
eu wly
Ġun bew
Ġun iverse
Ġun zumut
Ġsch utz
sp iell
sp apier
ĠÃ¼ber steigen
ĠUn klar
ĠC it
ĠC ent
ĠC are
ĠEin gang
Ġvor nehm
ver sen
ver braucher
ungs gesetz
lei teten
igen den
Ġt Ã¤tige
ĠEr reichen
ist isches
Ġ( âĢł
Ġmehr en
ĠAus legung
ĠGr icht
Ġent b
Ġunter ziehen
ĠMit hilfe
ĠGes p
zent scheid
for um
ges undheits
ĠKon servative
Ã¼hr t
ĠBundes p
ĠBundes republik
ĠSie d
ick er
ĠBer ger
sst rafe
ĠAb gesehen
ĠAb sol
ĠEnt haltung
ĠEnt fremdung
kl are
Ġges part
Ġges perrt
Ġzwei wÃ¶chigen
icher te
rÃ¼ gen
ĠWir bel
form ation
Ã¤nd lers
inder ten
ĠÃľber see
per ren
Ã¶s li
Ġsol ide
ĠFor um
qu elle
ĠMar gen
ĠMar ok
ĠMar io
ic y
Ġange ben
Ġselbst bewusst
ĠFl or
ĠEx ponenten
Ġverb indet
Ã¤tz te
ĠHer stellern
ĠAm ate
ĠAm stutz
ust iz
Ġstar ben
ange stellte
ĠMehr heiten
od y
ĠÃĦ ra
ĠÃĦ th
ĠTeil nehmern
ĠGer Ã¼chte
ĠFinanz dienst
wend ige
Ġgel agert
Ġausge tragen
schutz es
ĠAut omaten
Ġeinz iges
ĠInter sex
Ġverl etzen
rach e
Ġbek lagen
Ġbek rÃ¤ftig
ard ian
sy m
Ġoffen kundig
Ġfrei er
ĠKr is
ĠSteuer vorlage
ere br
ĠEnergie versorgung
ĠKosten wahrheit
schied ung
ĠSozial partnern
ĠMarkt stellung
ĠMarkt forschungs
app t
ĠSter bem
Ġarb eit
Ġverm arktet
ĠBÃ¼rger krieg
ĠSchl Ã¤
Ġrecht fertigt
rom ant
Ġversch lei
Ġ9 7
ĠKl einen
ĠGew inner
Ġzun ichte
ĠMa j
ĠZusammen lebens
prÃ¤ vention
Ġch em
ĠPriv atsache
20 19
20 17
Ġen ergie
ĠHaus Ã¤rzte
will igkeit
Ġ10 4
ĠBesch lÃ¼sse
Ġschn eidet
Ġersch ossen
az is
ĠMÃ¶glich erweise
ĠWissen schafts
ĠVerein fachung
Ġaufge wachsen
Ġbew Ã¤hrte
ika ment
ĠFahr plan
ial er
ĠSpiel regeln
kur ve
ĠVergleich sport
ĠBes eitigung
ĠPrivat bereich
ĠFach leuten
ĠFach zeitschrift
ans ion
ans Ã¤tze
ĠVerl agerung
zess ive
ĠFil ialen
Ġknapp en
Ġabge klÃ¤rt
Ġinner en
Ġabs eits
Ġtechn ischer
Ġsteigen der
ĠFlug gesellschaften
Ġinter ven
Ġpl ausibel
ĠLie bes
weis ungen
ĠHier zu
beg leiter
ĠÃ¤hn licher
ĠStimmen den
ĠKat astrophen
weil ig
Ġerfolg reicher
ĠGesetzes vorlage
ĠGesetzes stufe
mass nahme
ĠGut schein
ĠGut haben
ĠGut achter
ĠAlters freit
Ġben utzt
Ġdro hte
zul Ã¶sen
ĠÃ¤uss eren
ĠWort laut
ĠÃ¼berzeu gend
ĠNatur schutz
ĠMitglied schaft
ĠMet rop
ĠBo x
ĠJe ff
Ã¤h le
ĠDro hung
Ġdemokrat ischer
ĠMÃ¤r kten
Ġzentr aler
ĠStra hlung
Ġverf assen
ĠAmazon s
Ġ198 2
Ġ198 4
ĠMedikamenten preise
hei zungen
ĠMitarbeiter in
Ġverpflich tete
Ġfort schritt
ĠTe z
ĠKor respon
ĠRu edi
ĠLehr en
Ġat test
Ġprakt ischen
Ġinteress ante
ĠZwischen mensch
ĠX in
ĠAussen politik
Ġvern eint
ĠNord amerika
Ġbem erk
ĠSÃ¤u g
Ġkompl izierte
Ġbl ut
Ġ197 1
ĠAugen blick
Ġabgel aufen
ĠGebur ts
ĠLÃ¶ wen
ĠBundesver sammlung
ĠSzen en
ĠWerbe kampagne
Re gel
ĠWor ks
Ġsub s
Ġanst reben
ĠSk y
ĠChef arzt
ĠGest Ã¼tzt
ĠVideo spielen
ĠOffen sichtlich
ĠOst mittele
eiger ungen
ĠWol ken
Ġbehaup tete
ĠVernehm lassungs
ĠStre aming
Ġras ante
ĠAss ura
Ġmon iert
ĠAbl auf
ĠNachbar schaft
ĠermÃ¶glich te
ĠBro t
ĠBers ets
ĠBahn hÃ¶
ĠGeschÃ¤fts fÃ¼hrerin
ĠImm un
problem e
ong ch
Ġexist ierenden
ve get
Ġgeringer en
Ġradik aler
ĠSchaden ersatz
ĠFehl verhalten
Ġtran sport
Ġintens iver
Pl Ã¤tze
ĠLeiter in
ĠAnst att
ĠSchlag wort
Ġkomplex er
ĠStaatsanwalt schaften
ĠMigrations druck
ĠRand daten
ĠChristian e
ĠUmst Ã¤nde
stat us
Ġide ologische
ĠZwang smassnahmen
fÃ¤lt ige
ĠÃ¶konom isch
ĠsÃ¼d lichen
ĠSterbe willigen
ĠFÃ¶rder mittel
ĠZuge stÃ¤nd
ĠGesichts ver
sd am
Al ter
ĠSal z
ĠQuart ieren
ĠBeratungs unternehmen
ĠKÃ¼ ste
Ġrespekt ive
ĠSchn euwly
Ġvorher r
Ġspezial isierte
Recht s
sitzen der
ĠChar les
Ġafrikan ische
ĠEhepaar en
ĠHausarzt modell
ĠHÃ¤ fen
Ġschm Ã¤l
ĠGlob al
Ġabges ichert
ĠHung ers
ĠSchwellen lÃ¤ndern
ĠSolar strom
Ġwarn ten
ĠVerst Ã¶sse
ĠAf ghan
Ġmitteil ten
ĠInhalt lich
ĠChe fin
ĠChe fs
Finanz ierung
ĠJed och
bas is
ĠFÃ¶der ation
Fl ug
Ġschie bt
ĠTie fe
ĠBÃ¼nd el
ĠvÃ¶lkerrecht liche
Ġbeherr schen
ĠAsylbewerber n
Ġeinges p
ĠBay er
Ġwor auf
redu ktion
Ġpromin ente
Ġverp Ã¶nt
Ġvol atil
Ġstossen d
ĠNeur entner
ĠSchauspiel erin
Ġehr gei
ĠLeu enberger
ĠTur n
Ġzut age
ĠTsch ech
Ġev alu
konfl ikte
Ã¶konom ische
Ġnachge wiesen
ĠAlp ha
ĠInitiativ text
ĠZeu gen
Ġkonsum iert
Ġexport iert
Ġeint ritt
Ġignor iert
Ġprotest ieren
Ġanhalten de
ĠUnterhalt ungs
ĠPhilipp inen
ĠEigent Ã¼mer
Ġdetaill iert
Ġunglaub lich
ĠbemÃ¤n geln
lÃ¤uf igen
ĠHann over
ĠGewiss heit
ĠKos met
Ġunheil bar
ĠOs wald
Ġperman enten
ĠGesamtarbeits vertrag
Ġangestreb ten
ĠTaiw an
weiger ung
Ġsepar ate
ĠeinschlÃ¤ gigen
Ġprovo ziert
Ġkoordin iert
Check out
ĠWag nis
stÃ¤r k
Ġverant wortet
ĠElektriz itÃ¤ts
ĠMarktzugangs abkommen
Ġradioakt iven
ĠWander ungssaldo
kamer as
Ġhol t
Vir us
Vater schaftsurlaub
ĠTrocken heit
Kanton s
Ġzukunft s
Ġausbe zahlt
ĠGood all
ĠWeihn achten
Ġgrundle gend
ĠPlac eb
ĠGeschen k
ĠTax i
ĠAnnÃ¤her ung
ĠInitiativk omitee
kÃ¼hl ung
ĠBist ums
ĠReput ations
Betrieb ssystem
ĠdÃ¤n ische
Ġdikt ieren
Ġtrain ieren
ĠBefrei ung
Ġerlaub te
Ġphil osoph
ĠMilie u
Ġtransparen te
ĠHeirat sstrafe
Ġrap ide
ĠUnionsbÃ¼rger richtlinie
Ã§ ois
enh agen
ĠBarn ier
ĠFro ome
ĠWÃ¤l der
ĠVinc ent
ĠVerab schiedung
ĠWerbes pot
Aff Ã¤re
ĠAeb ischer
ĠallmÃ¤h lich
ausrÃ¼ ster
ĠYo ung
Ġmat hem
ĠPot sdam
verteid igung
Ġbeziff ert
iop ien
ĠRÃ¤um lichkeiten
Ġevent uell
phyla xe
ĠKL M
loom berg
ĠEskal ation
Ġlock ern
Gerichts hof
ĠFergus on
Ġundenk bar
ĠLut her
Ġmitbest immen
ĠSchind ler
ĠSchÃ¤u bli
Ġvornehm lich
ĠÃĦth iopien
ĠbekrÃ¤ftig te
ĠSterbem it
ĠAltersfreit od
ĠAfghan istan
3 2
7 9
A K
A kt
D C
D ann
D ien
D ikt
E K
E u
E fta
F ood
G ross
J uli
K opf
L in
M G
M V
M obil
P entobarbital
S w
S erv
T ag
T iers
b a
b isch
c ia
d ic
e geln
f red
f aktoren
g Ã¤ngern
k u
k ern
k eine
l ein
l eit
m sten
m utz
m ix
m atisch
m uster
n Nein
n eutral
o ide
o fs
p la
r ational
s b
s ions
t or
t halb
t abu
u ung
w s
w Ã¤nde
Ġ ehren
er hÃ¶hungen
ch rist
Ġd Ã¼n
Ġd unkel
st aben
st est
st eine
Ġs atte
es ische
Ġw ander
Ġw ett
Ġw achstum
Ġw echsel
ĠS at
ĠS ot
ĠS lem
ge zogen
as ium
at ient
sch Ã¼ler
ll te
ĠD is
ĠD ram
ĠD riessen
Ġein b
ĠA chtung
Ġb lo
ar me
ar gument
ar isieren
ar mee
hr ich
Ġau str
ĠE ur
ĠE DU
ĠB ein
ĠB ut
ĠB utter
ĠB aden
ĠB Ã¶se
ĠB VG
ĠB alth
der weise
ĠM etz
Ġh eben
ss ituationen
ĠG lau
ĠG Ã¼tern
ĠG adget
ĠK ra
ĠK ab
ĠK alk
ĠP ant
Ã¶ tet
Ã¶ lle
Ġk ol
Ġk alt
Ġk rÃ¤ftig
Ġk Ã¤mpf
ur n
icht igt
ĠW in
ĠW it
ĠW Ã¼t
ĠW Ã¶l
ĠW eimann
ro llen
ĠV f
ĠV irt
Ġge klagt
ĠR Ã¶
ĠR am
ĠR eimann
ĠI EA
Ġer Ã¼
Ġer mut
Ġer fordern
Ġvon einander
Ġver setzt
Ġver arbeitet
Ġver passen
Ġver teuern
Ġver teuf
Ġver sammelt
eh ne
re chnet
Ġan ziehen
Ġan zusetzen
Ġan zum
Ġan stehenden
Ġan spruchs
ĠL ey
Ġauf halten
ĠT al
ĠT rad
ĠT PU
ĠT oy
ĠT alent
ĠZ it
ĠZ ehn
Â» /
am ed
Ġl itten
wei gt
and ieren
ĠSch alt
ĠSch ild
ĠSch affen
ĠSch riften
ĠSt ahl
ĠSt einer
ĠSt reik
ĠH an
ĠH Ã¤r
ĠH art
ĠN ag
ĠN ehmen
ĠN Ã¤chst
ĠN ukle
le jmani
ĠVer fe
ĠVer einen
ĠVer gessen
ĠVer folgung
Ġo pf
ĠIn stanz
Ġso gleich
Ġbe geben
Ġbe kennt
Ġbe absicht
Ġbe unruh
Ġst Ã¼nde
Ġst euert
ah ne
Ġaus laufen
Ã¼ber schreiten
Ġun ein
Ġun beh
Ġsch rÃ¤nkt
Ġsch melzen
ĠAn sehen
ĠAn sprech
sp ur
sp sych
sp reise
sp ause
ĠÃ¼ber b
ĠÃ¼ber qu
Ġwerden den
ĠC ur
ĠC omm
ĠC ity
ĠC NB
ĠC NI
ĠC orsia
ĠEin heits
Ġvor sor
Ġvor wÃ¤rts
chen d
ver d
ver dacht
Ġt rugen
ger ten
ger ien
ul ver
ĠEr mittler
Ġ20 60
Ġ20 45
ĠRe vol
ĠRe aktor
op s
la de
ant as
tern ehm
mer zeugung
ot te
ot ten
ĠO MV
Ġnach t
elt reffen
Ġr ational
fen ster
ĠVor lieben
ĠVor stands
ĠVor marsch
ĠGr as
ĠGr asshoppers
end em
ĠBe sten
ĠBe achtung
ĠBe erd
ĠBe zÃ¼ger
ĠBe wirtschaftung
Ġent fÃ¤llt
Ġunter legen
Ġunter einander
Ġunter werfen
Ġman gel
ĠMit sprache
ĠZu ber
Ġander thalb
ĠKon vention
lie sse
ru d
ĠSp arte
ĠSp ionage
Ġre krut
Ġneu ste
pp chen
ner in
gel ten
ĠSo f
Ġber echnen
Ġsp eichert
Ã¤l en
Ġgew ichtet
sst aats
ĠAb kehr
ĠAb rechnungs
ĠEnt weder
ĠEnt tÃ¤u
ekt akul
ĠAuf nahm
ĠBei hilfer
ĠMenschen verstand
Ġhin weisen
Ġbet rafen
Ġpro portion
Ġkl uge
Ġbes agt
Ġbes uchte
ĠSte m
eb ast
Ġbr icht
Ġkon fession
vor sitzende
ĠStaat stro
Ã¤ch s
ĠÃľber ras
ĠÃľber dies
Ã¤u den
ĠMed ian
ĠMed base
Ã¶s bar
ĠWer bet
wie der
Ġger ungen
ĠZÃ¼r chern
kon zept
ĠLand oberflÃ¤che
ĠGrund gesetz
ĠMar sch
ĠWelt unter
olog isches
land ung
Ġange d
Ġange kÃ¼nd
Ġange stossen
Ġange hÃ¶rt
ĠBet rÃ¤ge
ne cht
klÃ¤r te
Ġdeut scher
ac y
Ġher ange
ĠSu chen
ĠSu lejmani
ĠFl ankierenden
agen turen
Ġverb ot
ĠAm elia
inde x
ĠGen ugt
ĠGen ossenschaft
ĠMehr ausgaben
ĠFrei lich
ĠKlima konferenz
ks amen
ĠGeld geber
Ġbesch reiben
ĠWirtschaft spolitik
ĠWirtschaft sstandort
ĠzurÃ¼ck gefÃ¼hrt
ĠProblem s
ĠFinanz ausgleich
ĠFinanz direktor
ex t
St art
Ã¼nd ig
ĠEm o
Ġeinge bracht
Ġeinge holt
ĠNational staaten
ĠNational rÃ¤te
ĠÃĸ V
ĠÃĸ VP
Ġbek amen
Ã¤d oyer
ĠStadt verwaltung
sy l
sk y
sk ap
Ġgef angen
Ġhier zu
verb indungen
gar ant
pl ungen
Ġwei sser
Ġwei gert
ĠSchw ung
Die ser
ĠProdu ktivitÃ¤t
Ġte ure
Ġte uren
ĠStr ess
ĠQu itt
ĠLu pe
ĠLu ca
ĠAnt is
ĠAnt rieb
ende ten
ĠSozial ismus
ĠSozial werks
In f
ĠSelbst dispensation
Ġschw ulen
ĠInte llekt
ĠRÃ¼ck kop
ster ben
Ġrecht sstaat
bet reuung
weit ern
Ġ9 8
legen heit
sm achen
ĠSystem en
Ġfinanz ierte
ĠlÃ¤ ge
ĠlÃ¤ gen
Ġbef unden
Ġbef anden
gew innen
ĠStaats fonds
lecht ung
ĠDe fizite
ĠAlter ung
ĠLebens bedingungen
ĠMin a
ĠMin eral
Ġteil haben
ypt ow
Ġbegr Ã¼sste
Ġlang wier
ĠNeu auf
ĠAbst amm
ĠAbst urz
Ġaufge st
Ġaufge teilt
ĠWei le
Ġvier zig
Ġentscheiden der
ĠFahr rad
ĠInvest or
ĠInvest ment
ian er
ĠNutz ers
tem peratur
Pro fil
ĠBes p
ĠPrivat recht
ĠHu ys
arte te
schw ellen
Ġ50 10
Ġgeb rochen
ĠVerl ierer
Ġwirtschaft s
Ġwirtschaft spolitischen
ĠRechts weg
ĠBlick w
Ġ0 5
ĠEigen kapital
Ġerwar tete
Ġ12 00
ĠChrist ine
jahr es
Ã¶st lichen
ĠBericht erstattung
Ġverz eichnen
Ġverz errt
Ġverz weifel
fert igung
ĠSub s
Ġpl us
ĠWirtschafts dach
sum me
ĠÃ¼ bt
ĠÃ¼ blicherweise
Un ivers
ĠWar nungen
ĠAdopt ionen
abhÃ¤ng igen
Ver hÃ¤ltnis
ka v
Ġheraus ge
ĠGesetzes Ã¤nderungen
Ġeinzu beziehen
ĠGef ragt
ĠBank er
ce pt
ĠMitglied sstaaten
ĠStat ement
Ġauszu weiten
ĠAuft akt
Ġbereit gestellt
ĠHa ken
ĠBo ys
ĠComputer spielen
verl Ã¤ngern
Ã¤h mt
Aus schuss
Ġung lÃ¼ck
abl es
ĠTest phase
ĠverÃ¶ffent lichen
ĠAuto fahrer
nei gung
Ġzentr ales
Ġverein fachen
ĠEng ine
Jahr e
Ġ198 7
ĠGeh orsam
ĠEmissions zertifik
ĠStrassen verkehrs
ĠEinfluss nahme
ĠÃĸffent lichkeits
ĠNieder gang
Ġaufzu zeigen
Ġaufzu heben
ĠSÃ¼d afrika
ĠSÃ¼d sudan
ĠLehr erin
hil fs
Ġinteress ierten
Ġrelativ iert
Ġforder e
ĠDep arte
Ġvern ichten
ĠNord korea
ĠOber sten
Ġsozial er
ĠAugen hÃ¶he
demokrat ischen
Ein kommen
Ġant wortete
ĠPrÃ¤mien verb
Ġausgeb rochen
ĠTrend s
eutr alen
Ġauss ichts
ĠSchweden s
ĠOffen legung
Ġzeit gemÃ¤ss
Ġgesp alten
Ġgesp annt
Ġc an
Ġc ont
ĠzurÃ¼ckge wiesen
ĠLang strecken
ĠZivil isation
ĠStre cken
ĠStaatsan leihen
ĠZusatz finanzierung
Ġunbe zahlten
ĠErwerb sersatz
ĠBro w
vertr etern
af u
af Ã©
Ġuner war
ĠSonder bericht
ĠBar cel
Ġkonserv ativ
pen alty
verein barungen
ĠBeob acht
Ġjur istischer
ĠAnst alt
ĠAben teuer
iter atur
erken nungs
wÃ¤ gen
Ġlebens verlÃ¤ngern
ĠArmut sm
wandlung ssatz
ĠArgu menten
ĠKarr ier
ĠKohl en
Ġlegal isiert
Ġlangsam er
ĠFrem de
Ġeffizien tere
ĠExp ansion
ĠWall iser
ĠErwerbst Ã¤tige
Ãĸ k
ĠDenken s
ĠGemeinder ats
ĠgrÃ¼n es
Ġ196 8
ĠDien sten
Ġbill igen
Ġrespekt iert
frem den
itzer land
ĠInteress ierte
ĠSozi ologe
Sc ience
Ġflex ible
ĠNetto einwanderung
ĠlÃ¶ sten
ĠGlob egarden
ĠSchicks als
bezogen en
Ġrelev ante
ĠplÃ¤d ierte
Ġverbind liche
ĠGeschÃ¤ftsl eitung
Ġzuzu schreiben
Ger Ã¤ten
Ġsauber en
ĠStrafver folgung
ĠMag ier
Ġbeherr scht
gro sse
ĠFas o
Ġnorm ale
ĠMad rid
ĠÃ¤rzt lichen
Ġsech sten
Ġdigital er
grÃ¶s sten
disk riminierung
ĠkÃ¶rper lichen
Ãľber wach
Gemein de
Ġberecht igte
Ġinnov ativen
Ġvertie fte
Ġunterb inden
ĠPremier ministerin
ĠEu phor
Ġresult iert
ĠKlin iken
Ġdemonstr iert
Ġsan ktion
ĠFix kosten
Ġrevid iert
ĠVerhandlungs ergebnis
afrikan ischen
ĠQualifik ationen
ĠArm strong
ĠKond itionen
Ġheim ischen
ĠEg al
ĠPas quin
ĠErl Ã¶s
Ġgenet isch
ĠKohÃ¤ sions
Kr yptow
ĠPubl ic
ausschuss es
Ġsolid arisch
Mehr heit
ieb ig
Ġprofession ell
Ġsim pel
wÃ¶r tern
Ġeig nen
ĠGlÃ¤ub ige
Ġpropag ieren
ĠAff ol
ĠWellen berg
Ġverbrei teten
ĠverdÃ¤cht ig
ĠflÃ¤chen deckend
ĠCont ainer
Ġbezweif elt
Ġbezweif eln
Ġkollekt iven
ĠDam ore
ĠHoriz on
Ġkenn e
ĠJahrh underte
Ġmutmass lichen
Ġheterosex uelle
Ġter ror
ĠBol ÃŃ
ikett iert
Ġprovo z
ĠLuc as
Ġkommer ziell
Ġdurchge fÃ¼hrten
Ġerwirt schaftet
Menschen rechts
wirk lichung
ĠTritt brett
ĠThun berg
ĠPest alo
ĠIO C
ĠUrnen gang
Ġplatz ieren
Ġbelieb ig
El tern
Hel vetia
Su per
deuten d
Ġbelg ische
Ġerwerbst Ã¤tig
ĠNar rativ
Ġunber echen
Ġspont an
ĠStereot ype
Te am
Ġinvolv iert
Ġpersonal isierte
ĠBankgeheim nis
ĠMosk au
ĠUmverteilungs wirkung
ĠBatter ien
andin av
ĠPropag anda
ĠErschein ung
Ġruh ig
ĠzurÃ¼ckerst attet
Ġselbstbestimm ten
ĠvergrÃ¶ss ern
ĠJord an
ĠErspar nisse
ĠErbkrank heiten
ubert Ã¤t
Ġmex ikanische
ĠEpidem ie
ĠHalbleiterkomp onenten
Ġsc annen
ĠGipf eltreffen
eges etz
ĠGefÃ¼ hle
ĠRegenbogen familien
widr ige
Ġbeschlagnahm t
Di plomat
famil ie
Ġbo omen
ĠKÃ¶r pers
ĠScha fe
Ġgrenz Ã¼berschreiten
ĠLenz burg
ĠStro merzeugung
ĠSelbstt Ã¶tung
ĠGebÃ¤udes an
Ġeinstimm ig
ĠPortfol io
ĠFehlanrei ze
ĠHank o
ĠKliman otstand
Ġbehandel ten
ĠPflegeb ed
ĠStadtr Ã¤tinnen
ĠPalliativ medizin
ush ima
ĠBlackf ace
Ġnukle aren
ĠFuk ushima
ĠNei gung
ĠNatri um
ĠMonitor ing
ĠSozialversicher ungs
ĠTagess Ã¤tzen
ĠBestse ller
ĠTeen ager
ĠTus k
ĠPrÃ¤zedenz fall
ĠvÃ¶ll ige
ĠSingap ur
ĠTocquev ille
ĠDab bur
ĠEntsteh ung
ĠKilo gramm
ĠBrucht eil
ĠLadenÃ¶ff nungszeiten
ĠPentag on
ĠlÃ¤cher lich
ĠTez os
Ġbemerk bar
ĠTschech ien
Eu GH
ĠSot schi
ĠSlem beck
ĠWÃ¼t hrich
ĠToy ota
ĠNÃ¤chst es
ĠCNI L
ebast ian
ĠGenugt uung
ĠRÃ¼ckkop plungen
ĠBarcel ona
ĠBolÃŃ var
) ;
7 2
A L
A M
A W
A ug
B row
B fS
C om
C hin
C lau
D enn
D ame
G el
G eh
J ournal
L ei
L ohn
L Ã¶sungen
N ature
O per
R ad
S eit
S uch
S NB
S how
b chen
c ap
f al
f lieger
j ak
j aner
k i
k la
k lima
l ust
m otiv
m essung
n atÃ¼r
n iveaus
p ost
p ark
r is
s f
s ich
t isch
v eg
v ok
w Ã¤hrungen
z il
z est
z end
z ierung
z heimer
Ġ raten
Ġ tert
en sen
er ischen
ch ines
ch ancen
Ġd an
Ġd icht
Ġd aten
Ġd Ã¤mpfen
Ġd eleg
ie sse
st Ã¼nd
an fall
an bul
Ġs yr
Ġs aldo
es ommer
Ġw andelt
Ġw agt
Ġw ussten
Ã¤ us
ĠS G
ĠS V
ĠS i
ĠS ent
ĠS ehn
ĠS einer
ĠS emin
ĠS EM
ĠS lowak
ĠS ebastian
at ent
sch ere
ĠD og
ĠD omin
Ġein kaufen
Ġein setzten
Ġein fliessen
Ġz ers
Ġn Ã¼tzen
Ġb itte
ar ren
or ien
or ado
Ġm ol
Ġm od
Ġm obile
Ġm Ã¤nner
ĠE DA
ĠB ook
ĠB ai
ĠB BC
ĠM ent
ĠM agen
Ġin ne
Ġin strument
Ġzu legen
Ġh ast
Ġh eilen
ĠF asch
ĠF ahn
ĠF eier
ĠF lieger
ss itz
et orik
Ġf ein
Ġf rage
Ġf amil
ĠG a
ĠK en
ĠK ell
ĠK urt
ĠK Ã¤ufer
ĠK ela
ĠP ir
ĠP seud
ĠP ranger
au be
Ġk lagen
el f
Ġdas jenige
ier haltung
ier barkeit
ber ge
ber ufen
ĠW ut
ĠW ell
ĠV PO
Ġge fl
Ġge laden
Ġge lebt
Ġge fÃ¼llt
Ġge steckt
ĠR eu
ĠR od
ĠR ate
ĠR obot
ĠI hm
Ġer m
Ġer od
Ġer spart
Ġer zwungen
is abeth
Ġvon seiten
Ġver braucht
re z
Ġan stellen
Ġan sehen
Ġan rufen
Ġan fangen
Ġan ony
ĠL id
ĠL Ã¼gen
ĠL arry
Ġauf nimmt
Ġauf werfen
ĠT hal
ĠT akt
ĠT reiben
ĠT eils
ĠZ elle
ĠZ iels
ĠZ aun
ĠZ erstÃ¶rung
am pf
ĠDie ss
Ġl as
Ġl Ã¶se
Ġl itt
Ġmit teilen
Ġmit reden
um feld
ĠU s
ĠSch aria
ĠSt aub
ĠH und
ĠH ind
ĠH eut
ĠH eils
ĠH ong
ĠH Ã¤ndlern
ĠN Ã¤chsten
ĠVer anstaltung
ĠIn zest
ĠJ ud
Ġbe acht
Ġbe werten
se bene
ik um
il ette
il deten
Ġaus richtet
Ġun problem
Ġun zur
Ġun bewusst
Ġsch ief
Ġsch adet
ĠAn griffen
ĠAn hebung
sp raxis
ĠPro be
ĠPro fessoren
ĠÃ¼ber fÃ¤llig
ĠÃ¼ber mittelt
ĠUn schuld
ĠC entr
ĠC up
ĠEin wanderern
ĠEin fuhr
Ġvor ant
Ġvor schreiben
Ġvor anzut
scha d
scha den
ver halt
ĠJahr esen
lei d
lei te
Ġt heoret
Ġt rÃ¤umen
ĠEr stellung
ill ard
zu wachs
ieren des
est ern
est ehen
ot os
Ġnach kommen
Ġr ut
Ġr isiko
rit tel
Ġab st
Ġab legen
fen sive
art iges
ĠGe folg
ĠAus fÃ¤lle
ĠAus Ã¼bung
ĠAus schreitungen
ĠVor beu
iz il
iz ation
Ã¶r tlich
ĠBe amte
ĠBe wahrung
Ġent p
Ġent gehen
Ġent worfen
Ġman ch
ĠMit arbeit
ĠMit str
ĠMit bÃ¼rger
ĠKon ten
lie b
lie fern
ĠSp Ã¤t
bar ometer
Ġdar zustellen
Ġneu em
chn e
Ġet lichen
ess im
ĠUm kehr
ĠUm sÃ¤tze
ĠUm sied
ĠBer ichten
ĠBer eicherung
Ġgew ehrt
ĠAb gab
kl ass
Ġges inn
Ġweiter gehen
ĠAuf schrei
auf nahme
Ġzwei fel
Ġpro sper
eb s
uch st
ank a
ap arlament
Ġkon junktur
Ġe klat
fÃ¼hr ende
ĠÃľber griff
ĠÃľber arbeitung
Ġwill kÃ¼r
ĠAl ice
Ã¤ss ern
Ã¤ss igkeit
ĠWer ken
ĠWer muth
Ġwieder ver
ĠDaten samm
Ġgr aus
att an
ĠLand schaft
ĠLand nutzung
ĠGrund s
ĠGrund rechts
ĠPart izipation
ĠUnter gang
ĠUnter richt
ĠWelt gesundheits
ĠNach krieg
ĠNach hinein
Ġange h
Ġange griffen
Ġange ordnet
wir d
ĠGesch lossen
Ġher auf
tr on
ĠFl aschen
echn ung
ĠEurop aparlament
Ġgesch Ã¼tzten
sl Ã¤ufig
chte te
oren s
ĠMehr fach
ĠKlima forscher
ĠMan ifest
Ġbesch impft
ĠEl isabeth
ĠArbeits lose
ĠMÃ¤n n
ens ationen
St rategie
Ġgleich er
Ġausge macht
ĠPrei ssenkungen
ĠMig rant
eln den
Ġwo gegen
Ġ7 50
Ġ8 000
sk an
Ġoffen es
Ġoffen sicht
ib elle
Ġhier bei
wor te
ho ff
eint ritt
ĠSteuer reform
hol zer
ĠPl Ã¤doyer
ĠStr eits
ov ic
gesetz te
ĠMarkt fÃ¼hrer
app e
ĠRegierung spartei
Ġgest rigen
Ġverm eid
ĠInte grit
ĠRÃ¼ck schlag
ĠRÃ¼ck zieher
ĠBeg eisterung
Ġbeg annen
ĠKranken pflege
ĠGew Ã¤hr
ĠTag ung
ĠOb jekt
sm Ã¤ssig
ĠPriv aten
ĠPh ys
ĠPh antasie
ĠPh otovolta
ĠlÃ¤ st
Ġbel aufen
uropÃ¤ er
Ġbed auern
Ġverst orben
gew iss
ĠFÃ¤ llt
ĠStaats beitrÃ¤ge
bed arfs
ĠGleich es
ĠStunden lohn
ĠBest e
ĠBest reben
eig nen
ffiz ienten
Ġersch liessen
ĠRicht linie
Ġem itt
ĠAbst riche
ĠKritik ern
Ġreg ierenden
ĠPrÃ¤ par
Ġor igin
ĠNutz n
ĠlÃ¤nger er
ĠeuropÃ¤ isches
ĠPoliz eid
Pro zess
ĠLohn gleichheit
kam mer
ĠSchutz es
Ġsozi o
Ġverk nÃ¼pfen
ĠPrivat heit
ĠPrivat leben
ĠGesicht ern
Ġkomp eten
ĠStimm beteiligung
ĠNe v
ĠNe on
ĠNe ure
ĠMo ser
Ġvert rag
Ġhinter fragt
reg ierungen
deut schland
ĠIhr en
ĠGl Ã¤tt
Ġsogen annter
ĠSterbehilfe organisationen
vert rÃ¤glich
ĠMuslim innen
Ġfehl ender
Ġerwar te
Ġerwar teten
Ġverw alten
Ġverw andelt
ĠSuizid s
man ager
zus atz
auft ragten
auss age
Ġverz err
ĠCo us
ĠJahres bericht
ĠHaupt bahnhof
Ġschl ucken
li ance
ĠComp utern
Ġglei cht
beg rÃ¼ndung
gl p
ĠGeb ot
Ġausl Ã¶ste
itter t
ĠAuslÃ¤nder innen
ĠDiskussion s
ĠAlters heim
ĠPlan ungs
Ġben annt
ĠÃ¤uss er
ĠÃ¼berzeu gte
spl Ã¤ne
Ġ202 4
ĠRest ri
ĠComputer s
Ġabzu schliessen
Ġabzu schÃ¤tzen
zehn tel
ĠUrteil en
ĠPlastik ab
ron ik
rÃ¤t liche
ĠFilm branche
ĠRed ner
Ġletzt mals
Ġirgend einer
ĠKonsumenten schutz
Ġkosten los
ĠRat ifizierung
Jahr en
Ġzahlen mÃ¤ssig
Ġ198 1
Ġ198 6
ĠFÃ¼hr er
ĠkÃ¼rz ere
ĠgÃ¼nst igen
Ġfort an
ĠSicherheits vorsteher
Fr au
Ġdefin ierten
ĠRegierungs rÃ¤tin
etter t
vertrag s
ĠSprach erkennung
amer ikanische
ĠIst anbul
Ġle eren
av ir
ĠDi abet
Ġvern ichtet
ĠNord mann
Ġzug Ã¤ng
ĠForschungs instituts
Ġ197 3
ĠNeg ative
Ġsozial es
Ġsozial eth
Ġabgel Ã¶st
ĠGesprÃ¤ch spartner
ĠBundesver waltung
ĠIdent ifikation
ĠWerbe kunden
Re al
Ġlok al
Ġintegr ierten
ĠJournal ist
ĠElekt rom
Ġunge plan
ĠRh etorik
Ġ28 0
Ġc arte
ĠGerichts hofs
ĠAss istent
ĠZusatz versicherung
ĠTrans fer
ĠMindestlohn s
ĠBro x
ĠAns innen
ĠInfrastruktur en
ĠMor de
Ġeinger eich
Ġbedeuten der
Ã¼ss ige
ĠBar geld
ĠursprÃ¼n gliche
Ġdomin ieren
ĠKil ometern
ĠEnd kunden
Ġkommun aler
kat egor
ĠMeinungs freiheit
ĠMeinungs Ã¤uss
Ġdopp elten
ĠBeob achtern
Ġsorg ten
Ġag iert
ĠVerschw inden
ĠWieder ein
ĠPharma industrie
Ġobligator isch
krit ischen
ĠSens ibilisierung
ĠStadtrat s
Ġide al
Ġide ale
ĠHandels hemm
System s
med ien
ĠStu hl
ĠKur se
ĠKur ve
ĠÃ¼berwie s
hÃ¼ll ung
ĠEt her
ĠStÃ¤r ken
Ġspr ingen
ĠBem erken
ĠKrÃ¤ ften
Ġober en
Ãĸ konom
ĠBeratungs stelle
mar ken
verk auft
Ġrest liche
Ġintelligen te
Ġelekt r
ĠVergewalt igungen
ĠSpann ungen
Ġlebensl Ã¤nglich
Ġregistr ieren
Ġeindeut ige
Ġaussen politischen
ĠKÃ¼nd ig
ĠPersÃ¶n lichkeits
ĠAusgleich s
feind lich
ĠAmts antritt
ĠOper ationen
Ġstr ikte
ĠMat hem
ĠFal con
Ġkom pro
ĠBegrenz ungsinitiative
ĠVerst Ã¶ssen
ibl en
ĠLange wie
Ġfair e
Ġjahrel ange
orient iert
Ġtyp isch
Ġdiskrimin iert
ĠFlex ibilisierung
All es
Ġvermeint lichen
ĠMilitÃ¤r s
Ġfried lich
Ġstrateg isch
ĠGewissen s
Ġschr umpfen
ĠPen alty
ĠPresse konferenz
Or ganisation
Parlament arier
Ġinst abil
ĠTun es
ĠNoten bank
KR K
ĠZeu gung
zenar io
ĠLobby ing
ĠMult ik
ĠFC Z
Ġgrav ierende
ĠkostengÃ¼nst ig
iot he
meld ung
religi Ã¶se
ĠZut un
ĠsÃ¤kular isierte
Ġphys ische
Handel s
ĠSÃ¤kul aritÃ¤t
Ġvirt uelle
Ġbinden d
Ġinnen politische
ĠTam edia
ĠVerpack ungen
lÃ¤uf ige
Ġpropag iert
Ġdram atisch
Par ole
Ġprogramm ieren
ĠRecher chen
Ġzeu gt
ĠOs c
Ġstattf indet
Ġbemerken swerte
Ġfokuss iert
budget s
Ġwid men
ĠÃľberzeug ungs
Ġumfang reichen
Ġweiterentwick eln
geboren e
ĠQuadrat meter
Kont o
mot oren
ĠPak istan
ĠFron ten
Ġthem atisiert
ĠExpert ise
kÃ¶n nen
Ġflor iert
ĠAnl Ã¤sse
Ġbetrieb s
ĠPrim ar
ĠSelbstver messung
Ġpsychiatr ische
Fil m
ĠParla mente
Ġexisten zielle
Ġseri Ã¶s
ĠFP Ãĸ
Ġverkauf ten
Ġbeeindru cken
ĠAcker mann
ĠSper re
risik en
ĠErweiter ung
ĠPlak ate
Ġpausch al
Ġstellvertreten de
ĠAsylges uche
Ġtempor Ã¤r
Ġfir st
Ġfotograf iert
ĠLeistungss port
Cl ub
ĠVerhaft ung
ĠReduktions ziel
Ġbiometr ischen
orthodox e
Vol ks
anp assung
Ġbekl agte
Ġunsicht bar
Ġangem eldet
ĠVaterschafts vermutung
FlÃ¼cht lings
ĠDestin ationen
ĠGrossverteil er
Sk andal
Ġzir kul
algorith mus
ĠKai ro
ĠAnwen der
ĠSeeh ofer
ĠDop ings
ĠgefÃ¼hl t
Ġoffer iert
ĠRegisse ur
ĠMassent ierhaltung
Ġintegrat ive
ĠBiot reibst
Scann ing
ĠniederlÃ¤nd ischen
ĠAfro amerikaner
Ġaugen fÃ¤llig
Analy t
blÃ¼ff end
ĠDres den
ĠLud wig
ĠHob bes
ĠprÃ¤sid iert
ĠEinsp eise
ĠNeuseel and
ĠProvok ation
ĠBevormund ung
ĠGricht ing
ĠMarok ko
ĠSÃ¤ug linge
Akt ien
ĠPrÃ¤mienverb illigungen
Ġcont ra
ĠBrow ser
ĠEuphor ie
ĠPestalo zzi
Aug ust
Clau de
Ġdan eben
ĠSent ience
ĠSlowak ei
Ġmol ekul
ĠVPO D
Ġunzur eichen
Ġvoranzut reiben
ĠJahresen de
ĠWeltgesundheits organisation
ĠPhotovolta ik
ĠGlÃ¤tt li
2 9
A bt
A dopt
B ahn
E V
F reund
G igant
I A
I T
J ob
K Ã¼nst
L U
L aren
M indest
O b
R und
R isiko
R eligion
S K
S tr
S eptember
S icherheit
T I
T rans
V erg
W M
W ochen
Z um
a al
a ys
b age
b eile
b leibt
c end
d lich
d os
e ffekte
f ungs
f ers
f ekt
g au
g rÃ¤
g locken
h or
h Ã¤re
h anc
k opf
k Ã¶rper
k reuz
l ett
m Ã¼r
m ans
m esser
m eier
m acher
n ab
n ischen
p erson
s ionen
t licher
u he
v enz
w ass
w all
y g
Ġ ...
Ġd eg
st ande
st Ã¶rungen
an y
an ier
an bietern
Ġs en
Ġa v
ein fach
Ã¼ blichen
Ġw Ã¼ten
Ġw echsels
Ã¤ qu
ĠS em
ĠS om
ĠS ehr
ĠS itten
ge kehrt
at hleten
at zentscheid
it ierte
sch end
ĠD id
Ġein sam
ĠA M
Ġi dy
hr eb
ĠE isen
ĠE cho
ĠB ag
ĠB ost
ĠB anden
ĠB KW
ĠB SV
ĠB ombe
al m
al isierte
em e
ĠM uss
ĠM obile
Ġzu wider
Ġh Ã¤nge
ĠF er
ĠF Ã¼n
ĠF Ã¶r
ĠF Ã¤sser
Ġf lossen
Ġf Ã¤ngt
ĠG rÃ¤
ĠG Ã¶t
ĠG arten
ĠG ius
ĠK ass
ĠK Ã¼rze
ĠP ubertÃ¤t
Ã¶ gern
Ġk asch
Ġk alten
Ġk auft
Ġk Ã¼hlen
el ang
ĠW Ã¶rter
Ġg alten
Ġge deutet
ach erin
ĠR Ã¤
ĠR ik
ĠR anch
ir chen
ir che
ĠI Q
ĠI KRK
Ġer Ã¶r
Ġer sparen
Ġer mÃ¶gliche
Ġver wir
Ġver min
Ġver legen
Ġver handel
Ġan wend
ĠL Ã¤nge
ĠL oy
ĠL Ã¤cheln
Ġauf ges
Ġauf geben
ĠT ank
ĠT ipp
ĠT herapeut
ĠZ ens
ĠZ iell
Â» ;
ut in
am b
Ġl ive
Ġl ust
Ġl oben
ent iment
wei ge
Ġim mun
ĠSch ritten
ĠSch iene
ĠSch weiss
ĠSt ore
ĠSt offe
ĠSt olz
ĠH ad
ĠH SV
ĠH omosexuellen
ĠN u
ĠN atÃ¼r
ĠN irgend
ĠN orth
ĠN OAA
le um
ĠVer nehmen
ĠVer stoss
ĠVer arbeitung
ĠVer fÃ¼g
us ionen
ĠIn halten
ĠIn gol
ĠJ ak
ĠJ ack
Ġso dann
Ġbe denk
Ġbe gehr
ik ar
ell t
Ġst ich
Ġst rich
Ġst agn
Ġst Ã¤ndigen
iv alent
ehr ten
Ġaus genommen
Ġaus zahlt
im ir
Ġsch alten
Ġsch loss
Ġwer ten
Ġdem ent
ĠAn stoss
Ġp acken
Ġp Ã¤doph
sp rÃ¤sidenten
sp eicher
Ġbei getreten
eg te
ĠPro gramme
ĠPro pheten
Ã¤t igt
ĠÃ¼ber aus
ĠÃ¼ber mÃ¤ssig
ĠÃ¼ber arbeitet
ĠÃ¼ber lastet
ĠÃ¼ber lebt
ĠUn be
ĠC amp
ĠJahr est
ĠJahr elang
âĢ ¦
Ġt oll
ill igung
zu fÃ¼hren
rat sprÃ¤sident
oll egen
ĠEn hanc
op fen
ist o
la f
la des
ant rÃ¤ge
ant asien
uss ierung
ĠO h
Ġr iefen
Ġab gebaut
art h
ĠAr g
aten te
be zahlten
ĠAus zeit
ĠAus schaffung
ĠAus lastung
ĠAus grenzung
ĠVor sprung
ĠVor herrschaft
ĠGr Ã¼ter
ĠBe gegn
Ġent sorgt
aus schÃ¼tt
for scht
ĠKon kord
ĠKon zessionen
ĠSp ren
ĠSp hÃ¤re
ĠSp anier
ste ck
imm ern
Ġdurch s
Ġdurch laufen
bl asen
ĠBundes staaten
ĠFrauen st
ĠFrauen quoten
ĠSo fern
Ġber ichteten
Ġsp rud
ĠUm gekehrt
ĠMen g
ĠBer echt
ĠEnt hus
ĠAuf wind
ĠBei des
Ġ3 60
Ġpro b
Ġpro vok
ĠSte ak
Ġgen auen
vor stand
vor aussetz
fÃ¼hr enden
ad s
ĠReg istr
Ġgibt s
ander s
ĠÃľber all
ĠÃľber setzung
ĠAl di
ĠAl fred
fahr ten
Ã¤ss iger
Ġwieder kehr
ĠPar olen
Ġgr Ã¼ndete
att ra
ĠLand wir
ĠPerson als
ĠUnter grund
ĠWelt bild
ic es
ĠNach hol
ĠNach denken
ĠNach folge
Ġ19 00
land s
land es
Ġange klagt
Ġange trieben
Ġange fochten
ĠGesch ehen
ĠGesch ichts
ehn ten
ingen ie
Ġher ein
Ġaller lei
ĠSu pr
ĠFl ut
ĠEurop arats
akt ischen
Ġgesch lecht
Ã¤m pfung
ĠGen de
ĠPolitik wissenschafter
ĠMon t
ĠMon u
ĠPartei chef
Ġar ch
Ġar rang
ĠzurÃ¼ck gehen
ĠhÃ¶ re
fach leute
stÃ¤nd nis
ens um
ikan ten
ex p
ha fter
ĠEm ission
Ġgleich wohl
Ġausge fÃ¼hrt
Ġdrei er
ĠEnde ffekt
ĠFrage stunde
ĠVol atil
nit te
ĠNational ismus
ĠVerb und
ĠUr spr
ĠGro s
sk andal
Ġeben die
Ġgef est
Ġgef asst
welt meister
ĠSchul zeit
pl us
ĠSteuer gelder
hol ten
Ġte ur
ĠQu ant
ĠEltern schaft
ĠSozial demokrat
In vest
Ġbeh eben
ĠSelbst verstÃ¤nd
ma fro
Ġgest anden
Ã¶t ungs
ĠFamil ia
Ġschw achen
ĠWahl versprechen
bet rÃ¤ge
Ġbeg ut
Ġ9 1
ĠKl ienten
pr es
pr ivileg
neh me
Ġhoch aktive
Ġhoch qualifizierten
Ġbef euert
ĠNationalrat skommission
Ġbed auer
20 16
unter schied
ĠerhÃ¶ h
ĠGross unternehmen
ĠUmwelt organisationen
ĠDe vis
ĠBed arfs
eig nung
ĠNeu ordnung
ĠVerein barungen
Ġaufge laden
Ġaufge klÃ¤rt
Ġaufge zeigt
erk ommt
spro zessen
Ġdah erkommt
Ġsicher es
ĠVerf asser
ĠVergleich s
ĠLohn unterschiede
ĠLohn beitrÃ¤gen
ziehen den
ĠInform atiker
ĠStraf vollzugs
Ġschnell sten
ĠBel ie
ĠGener ell
ĠKirchen steuer
ĠNe un
opp elt
wÃ¼r fe
ĠHoch zeit
ĠVerl etzungen
Ġgemein hin
ey er
ĠfrÃ¼her er
ĠFamilien politik
Ġverw undert
ĠChrist us
ĠMindest preis
ĠHÃ¶ hen
ts zeit
ĠHaupt ursache
ĠWirtschafts minister
wur de
red igt
Ġempf ahl
Ver fahren
spr ingen
Ġausl Ã¶st
Ġheraus gegeben
ĠForm ul
ĠForm ulierung
Ġhal f
ĠUnterstÃ¼t zer
ĠWeiter fÃ¼hrung
ĠDrittel n
krÃ¤ ft
ĠVolk es
ĠÃ¤uss erten
orm on
Ġlin k
Ġget Ã¶tet
ĠWill ens
ĠKantons gericht
Ġauszu wÃ¤hlen
ĠWohn bevÃ¶lkerung
ĠHa w
Ġakt ueller
ĠComputer spiele
ĠKont rast
ĠSuch ergebnisse
ĠPer mafro
ĠSw itzerland
Ġweg fallen
ĠVerfassungs artikel
ĠVerfassungs richter
Ġdir ekter
Ġverd rei
ĠWahr scheinlich
ĠAfr ikaner
Ġautomat isiert
Ges prÃ¤
Ges undheits
ĠSam bia
ĠHeim markt
ĠGesichtser kennungs
ĠprÃ¤sent ierten
hil ft
ĠForschung sprogramm
ĠDel ikten
uld ig
ĠArbeitnehmer innen
amer on
seit igen
seit ige
Ġbetrach tete
finanz ieren
ĠEle f
ausch alen
Ġvern etzen
Ġumstritten sten
ĠStreit beile
ĠPsych iatr
Ġmein es
ĠBen ed
Ġ197 6
Ġ197 8
Ã¼m mer
demokrat ie
ĠAktiv istin
rain er
ĠZul assungs
ĠBegriff s
spekt iven
ĠGanz es
ĠPublik ationen
ĠProdukt s
Ġreal istischer
Ġniedr ige
Ġverank erten
ĠParlaments wahlen
ĠParlaments dienste
sinn ige
ĠVerwaltungs gericht
ĠTÃ¤ter s
ĠBildungs niveau
ĠGol f
besch rÃ¤n
Ġeinsch Ã¤tzen
Ġeinsch neiden
Ġeingesch rieben
ĠprÃ¤ gte
ias mus
ĠBro wn
ĠAutor itÃ¤ten
eth ik
af tet
ĠExtrem isten
ĠrÃ¼ck wirken
Ġrei ste
ĠMor itz
ĠSelbstbest immungs
Ġzuge legt
ĠFok ussierung
Ġauseinander gesetzt
ĠRess entiment
ĠDes information
Ġrass istischer
fÃ¤ll iges
Ġvorgesehen e
Er hÃ¶hung
Ġmil it
Ã¶sst er
Ġgeringer er
Ġfrag wÃ¼rdig
Ġmiss brauchen
ĠFehl ende
ĠPharma konzerne
ĠSchwar zen
ĠbenÃ¶t igte
ĠHerkunft slÃ¤nder
freund licher
ĠGu illotine
krit ische
Ġdauer haften
kir ch
Ġinstitution ell
Ġinstitution elles
Ġwirken de
ĠGlÃ¼ck sspiel
Ġged ank
aktiv itÃ¤ten
Ex trem
ĠBio tech
Ġoptim ieren
Ġuntersch rieben
ĠverfÃ¼g bare
ĠBab bage
heirat eten
ĠFÃ¼hrungs krÃ¤fte
ĠPan el
ĠHel m
Ġjahr zehntel
Ãľ PF
Ġlegitim ieren
Ġstamm ten
Ġanerk annte
ĠThe ologie
ĠVerm inderung
ĠIll ustr
ĠMedikament s
ĠausdrÃ¼ck liche
Ġschm utz
ĠAbsch neiden
Ġjeweil ige
Ġad Ã¤qu
ĠViz e
Ġabges eg
Ġzugute kommen
por z
ĠSÃ¼ de
ĠHol t
ĠHaar en
ĠInhalt sst
Ġbesonder er
ĠschÃ¤d liche
ĠgefÃ¤l scht
Ġverfassungs konform
ĠRel ativ
ĠÃ¼bert reffen
ĠKoalition spartner
Ġsauber e
ĠSchieds richter
ĠgrundsÃ¤tz licher
ĠInner schweiz
ĠGrem ien
Ġstruktur ellen
App s
Ġsech zig
Ġsech ziger
Ġgegenseit ige
versch leierung
ĠAutomat ismus
ĠImpuls e
Ġfried lichen
ĠMikro steuer
ĠSand meier
Ġemotion alen
fest e
ĠErei gnissen
ĠVerteil schlÃ¼ssel
ĠBaum ann
ĠSteuers Ã¤tze
ĠWid rig
inform ationen
Ġsk iz
ĠKontingen ten
wÃ¼n sche
Ġnutz te
Ġrisk ieren
Ġaggress iv
Ġaggress iven
ĠFar ben
Raum s
neu en
Ġgrav ierend
ĠkostengÃ¼nst iger
Ġmult ilater
ĠzurÃ¼ckhalten d
ĠzurÃ¼ckhalten den
Kr ise
ĠFoll owern
Ġanhalten den
ĠErf indung
Ġprogress iven
ĠungewÃ¶hn liche
Ġausgebil deten
rel ev
Ġdokument ieren
Ġausgesch Ã¼t
gesprÃ¤ ch
wÃ¶r ter
Ġunglaub wÃ¼rdig
ĠFemin istinnen
ĠAnlauf stelle
ĠVorbeh alt
Comp liance
ĠTra cker
ĠSchill iger
kenn zeichnet
akult Ã¤t
ĠMaterial ien
ĠSteuersen kung
Ġeinheim ischen
Ġnirgend wo
ĠGymn asien
ĠGymn asium
Ġleb te
ĠFace ID
Ġpotenziell er
Ġflexibl en
ĠFeuer wehr
ĠNid waldner
Ġstraff Ã¤llig
Red aktor
ĠBisch ofs
Ġsepar aten
[...]
