{"<s>":0,"<pad>":1,"</s>":2,"<unk>":3,"<mask>":4,"!":5,"\"":6,"#":7,"$":8,"%":9,"&":10,"'":11,"(":12,")":13,"*":14,"+":15,",":16,"-":17,".":18,"/":19,"0":20,"1":21,"2":22,"3":23,"4":24,"5":25,"6":26,"7":27,"8":28,"9":29,":":30,";":31,"<":32,"=":33,">":34,"?":35,"@":36,"A":37,"B":38,"C":39,"D":40,"E":41,"F":42,"G":43,"H":44,"I":45,"J":46,"K":47,"L":48,"M":49,"N":50,"O":51,"P":52,"Q":53,"R":54,"S":55,"T":56,"U":57,"V":58,"W":59,"X":60,"Y":61,"Z":62,"[":63,"\\":64,"]":65,"^":66,"_":67,"`":68,"a":69,"b":70,"c":71,"d":72,"e":73,"f":74,"g":75,"h":76,"i":77,"j":78,"k":79,"l":80,"m":81,"n":82,"o":83,"p":84,"q":85,"r":86,"s":87,"t":88,"u":89,"v":90,"w":91,"x":92,"y":93,"z":94,"{":95,"|":96,"}":97,"~":98,"¡":99,"¢":100,"£":101,"¤":102,"¥":103,"¦":104,"§":105,"¨":106,"©":107,"ª":108,"«":109,"¬":110,"®":111,"¯":112,"°":113,"±":114,"²":115,"³":116,"´":117,"µ":118,"¶":119,"·":120,"¸":121,"¹":122,"º":123,"»":124,"¼":125,"½":126,"¾":127,"¿":128,"À":129,"Á":130,"Â":131,"Ã":132,"Ä":133,"Å":134,"Æ":135,"Ç":136,"È":137,"É":138,"Ê":139,"Ë":140,"Ì":141,"Í":142,"Î":143,"Ï":144,"Ð":145,"Ñ":146,"Ò":147,"Ó":148,"Ô":149,"Õ":150,"Ö":151,"×":152,"Ø":153,"Ù":154,"Ú":155,"Û":156,"Ü":157,"Ý":158,"Þ":159,"ß":160,"à":161,"á":162,"â":163,"ã":164,"ä":165,"å":166,"æ":167,"ç":168,"è":169,"é":170,"ê":171,"ë":172,"ì":173,"í":174,"î":175,"ï":176,"ð":177,"ñ":178,"ò":179,"ó":180,"ô":181,"õ":182,"ö":183,"÷":184,"ø":185,"ù":186,"ú":187,"û":188,"ü":189,"ý":190,"þ":191,"ÿ":192,"Ā":193,"ā":194,"Ă":195,"ă":196,"Ą":197,"ą":198,"Ć":199,"ć":200,"Ĉ":201,"ĉ":202,"Ċ":203,"ċ":204,"Č":205,"č":206,"Ď":207,"ď":208,"Đ":209,"đ":210,"Ē":211,"ē":212,"Ĕ":213,"ĕ":214,"Ė":215,"ė":216,"Ę":217,"ę":218,"Ě":219,"ě":220,"Ĝ":221,"ĝ":222,"Ğ":223,"ğ":224,"Ġ":225,"ġ":226,"Ģ":227,"ģ":228,"Ĥ":229,"ĥ":230,"Ħ":231,"ħ":232,"Ĩ":233,"ĩ":234,"Ī":235,"ī":236,"Ĭ":237,"ĭ":238,"Į":239,"į":240,"İ":241,"ı":242,"Ĳ":243,"ĳ":244,"Ĵ":245,"ĵ":246,"Ķ":247,"ķ":248,"ĸ":249,"Ĺ":250,"ĺ":251,"Ļ":252,"ļ":253,"Ľ":254,"ľ":255,"Ŀ":256,"ŀ":257,"Ł":258,"ł":259,"Ń":260,"en":261,"er":262,"ch":263,"Ġd":264,"ei":265,"ie":266,"un":267,"st":268,"in":269,"an":270,"Ġs":271,"ich":272,"Ġa":273,"ein":274,"es":275,"Ã¼":276,"Ġdie":277,"on":278,"Ġw":279,"Ã¤":280,"ĠS":281,"ge":282,"Ġder":283,"as":284,"ung":285,"at":286,"it":287,"sch":288,"Ġv":289,"und":290,"ll":291,"te":292,"ĠD":293,"Ġein":294,"ĠA":295,"Ġz":296,"Ġn":297,"Ġb":298,"ar":299,"or":300,"ten":301,"Ġm":302,"Ġi":303,"hr":304,"Ġau":305,"gen":306,"Ġund":307,"ĠE":308,"ĠB":309,"al":310,"em":311,"der":312,"ĠM":313,"Ġin":314,"Ġzu":315,"Ġh":316,"ĠF":317,"ss":318,"eit":319,"et":320,"Ġf":321,"Ã¼r":322,"den":323,"ĠG":324,"ĠK":325,"ĠP":326,"au":327,"Ã¶":328,"Ġk":329,"lich":330,"el":331,"ur":332,"Ġdas":333,"ier":334,"icht":335,"ber":336,"ig":337,"ter":338,"ĠW":339,"ro":340,"ĠV":341,"ion":342,"Ġden":343,"men":344,"Ġg":345,"Ġge":346,"de":347,"ach":348,"ĠR":349,"isch":350,"ir":351,"ĠI":352,"Ġer":353,"is":354,"Ġvon":355,"ol":356,"Ġver":357,"eh":358,"ben":359,"re":360,"Ġan":361,"om":362,"Ġist":363,"ft":364,"ĠL":365,"Ġauf":366,"ĠT":367,"Ġnicht":368,"ĠZ":369,"Â»":370,"Â«":371,"ut":372,"am":373,"ĠDie":374,"Ġl":375,"ĠfÃ¼r":376,"ent":377,"ĠÂ«":378,"Ġmit":379,"Ġsich":380,"wei":381,"um":382,"and":383,"kt":384,"ĠU":385,"ag":386,"Ġim":387,"ĠSch":388,"ĠSt":389,"rei":390,"ĠH":391,"Ã¤n":392,"ls":393,"ĠN":394,"och":395,"le":396,"ĠVer":397,"Ġeine":398,"us":399,"Ġo":400,"ck":401,"ĠIn":402,"ĠJ":403,"ahr":404,"Ġso":405,"Ġbe":406,"se":407,"ra":408,"Ġdes":409,"ik":410,"ell":411,"Ġes":412,"il":413,"Ġst":414,"sen":415,"Ġdass":416,"iv":417,"etz":418,"ah":419,"ehr":420,"Ġaus":421,"Ġals":422,"Ã¼ber":423,"eu":424,"ff":425,"ungen":426,"Ġun":427,"Ġauch":428,"im":429,"Ġsch":430,"sten":431,"Ġwer":432,"Ġdem":433,"cht":434,"ĠAn":435,"Ġp":436,"ann":437,"Ġsie":438,"ind":439,"ern":440,"sp":441,"ab":442,"Ġbei":443,"Ġwir":444,"Ġhat":445,"Ġ2":446,"Ġwie":447,"ation":448,"nen":449,"eg":450,"ien":451,"ischen":452,"ĠFr":453,"ĠPro":454,"Ã¤t":455,"ĠÃ¼ber":456,"eil":457,"ĠUn":458,"Ġwerden":459,"ĠC":460,"ĠEin":461,"Ġj":462,"Ġvor":463,"chen":464,"iel":465,"scha":466,"ssen":467,"Ġum":468,"ver":469,"ungs":470,"ĠJahr":471,"ken":472,"âĢ":473,"Ã¼n":474,"lei":475,"Ġ1":476,"igen":477,"ed":478,"Ġall":479,"weiz":480,"Ġt":481,"Ġsind":482,"ger":483,"Ġihr":484,"esch":485,"ul":486,"ĠEr":487,"ĠĊ":488,"Ġsein":489,"iert":490,"ass":491,"ĠAu":492,"ĠSchweiz":493,"Ġ20":494,"ĠâĢ":495,"Ã¶n":496,"rÃ¤":497,"ĠâĢĵ":498,"Ã¤r":499,"Ġeiner":500,"gt":501,"enn":502,"Âł":503,"ill":504,"ĠRe":505,"zu":506,"ser":507,"schaft":508,"rat":509,"aben":510,"Ġwird":511,"Ġoder":512,"hn":513,"hal":514,"oll":515,"ieren":516,"ĠEn":517,"op":518,"ist":519,"la":520,"anz":521,"Ġ(":522,"Ġmehr":523,"ant":524,"ĠkÃ¶n":525,"est":526,"all":527,"ĠDer":528,"tern":529,"mer":530,"ĠDas":531,"Ġaber":532,"ische":533,"ort":534,"ot":535,"uss":536,"Ġsei":537,"ĠO":538,"Ġnach":539,"wer":540,"elt":541,"che":542,"Ġr":543,"eits":544,"Ġsoll":545,"rit":546,"Ġnur":547,"bt":548,"dern":549,"Ġeinen":550,"Ġab":551,"ommen":552,"lichen":553,"ing":554,"liche":555,"ige":556,"ers":557,"gr":558,"fen":559,"urch":560,"Ġzur":561,"Ġeinem":562,"art":563,"ĠAr":564,"ahl":565,"aten":566,"00":567,"be":568,"iss":569,"Ã¤hr":570,"ĠGe":571,"Ġda":572,"ĠAus":573,"he":574,"og":575,"ĠVor":576,"iz":577,"Ġnoch":578,"ĠGr":579,"Ã¶r":580,"end":581,"ĠBe":582,"Ġent":583,"lo":584,"aus":585,"Ġunter":586,"Ġman":587,"olit":588,"auen":589,"Ġhaben":590,"hl":591,"eiter":592,"ĠÃ":593,"ĠMit":594,"ang":595,"Ġzum":596,"Ġwar":597,"ĠGes":598,"eben":599,"zent":600,"ĠZu":601,"Ġkein":602,"ĠBund":603,"tet":604,"ionen":605,"Ġander":606,"Ġbis":607,"heit":608,"stell":609,"for":610,"her":611,"ffen":612,"ges":613,"Ġam":614,"zen":615,"bst":616,"Â»,":617,"ĠKon":618,"ht":619,"Â».":620,"lie":621,"ru":622,"Ã¼hr":623,"ĠSta":624,"ĠSp":625,"pf":626,"ierung":627,"ste":628,"Ġre":629,"schen":630,"hen":631,"imm":632,"eut":633,"Ġdurch":634,"bar":635,"Ġdar":636,"ran":637,"Ġneu":638,"Ġ201":639,"Ġdies":640,"bl":641,"ment":642,"Ã¼ck":643,"ativ":644,"ĠProzent":645,"ehmen":646,"ĠBundes":647,"Ġgegen":648,"pp":649,"Ġsag":650,"ner":651,"assen":652,"iger":653,"ĠSie":654,"ĠFrauen":655,"gel":656,"ick":657,"rie":658,"omm":659,"ĠSo":660,"acht":661,"ehen":662,"leich":663,"Ġber":664,"zi":665,"Ġsp":666,"ert":667,"Ġzw":668,"chn":669,"Ġet":670,"keit":671,"etzt":672,"ok":673,"dem":674,"ess":675,"du":676,"ĠEU":677,"utz":678,"ĠmÃ¼":679,"Ġwenn":680,"eiten":681,"ĠUm":682,"ĠMen":683,"ĠBer":684,"ĠIm":685,"Ġkann":686,"Ã¤l":687,"lim":688,"ĠwÃ¼r":689,"Ġgew":690,"ĠEs":691,"pt":692,"alen":693,"kommen":694,"teil":695,"alt":696,"ĠkÃ¶nn":697,"eigen":698,"Ġwur":699,"sst":700,"Ġetw":701,"glich":702,"os":703,"ĠAb":704,"ĠEnt":705,"zeit":706,"ekt":707,"tel":708,"schl":709,"br":710,"abe":711,"kl":712,"rag":713,"ĠArb":714,"itÃ¤t":715,"Ġwen":716,"Ġdiese":717,"ĠkÃ¶nnen":718,"Ġges":719,"nah":720,"Ġweiter":721,"Ã¤nder":722,"amit":723,"hin":724,"ĠAuf":725,"gan":726,"ĠBei":727,"ale":728,"id":729,"auf":730,"Ġviel":731,"ĠJahren":732,"iele":733,"VP":734,"elbst":735,"Ġzwei":736,"aut":737,"ze":738,"ĠMenschen":739,"Ġ3":740,"icher":741,"anken":742,"fe":743,"Ġhin":744,"Ġbet":745,"Ġpro":746,"eute":747,"Ã¼t":748,"atz":749,"Ġihre":750,"Ġkl":751,"geb":752,"ri":753,"sse":754,"tschaft":755,"unden":756,"rÃ¼":757,"Ġkeine":758,"Ġbes":759,"fall":760,"ob":761,"anton":762,"ĠSte":763,"olitik":764,"Ġgen":765,"eb":766,"Ġgro":767,"ĠWir":768,"urop":769,"inanz":770,"Ġbr":771,"uch":772,"ank":773,"halten":774,"erson":775,"ibt":776,"sam":777,"schie":778,"me":779,"ap":780,"Ġkon":781,"Ġson":782,"Ã¶glich":783,"lle":784,"ĠUnd":785,"andel":786,"Ġwoll":787,"vor":788,"ud":789,"Ġbest":790,"schei":791,"Ġe":792,"ĠSchweizer":793,"ĠStaat":794,"form":795,"arb":796,"Ġlie":797,"fÃ¼hr":798,"Ã¤nd":799,"ative":800,"Ã¤re":801,"ĠMill":802,"Ġimmer":803,"ĠÃľ":804,"ker":805,"Ã¤ch":806,"Ġvom":807,"iti":808,"ierte":809,"ragen":810,"ad":811,"ĠReg":812,"mal":813,"fÃ¼r":814,"ohl":815,"Ġgibt":816,"hne":817,"inder":818,"ĠAuch":819,"Ġsagt":820,"lau":821,"eld":822,"Ġje":823,"ĠGo":824,"halb":825,"inn":826,"ander":827,"ĠZeit":828,"rage":829,"ĠÃľber":830,"issen":831,"Ã¤u":832,"pro":833,"achen":834,"Ġhabe":835,"ke":836,"ktion":837,"ĠMed":838,"Ġwill":839,"ĠKanton":840,"cher":841,"ĠAl":842,"ierten":843,"rÃ¤s":844,"fer":845,"enz":846,"per":847,"Ã¶s":848,"fahr":849,"Ã¤ss":850,"ĠWer":851,"Ġwieder":852,"Ġsol":853,"Ġetwa":854,"wie":855,"Ġwas":856,"ften":857,"Ġwurde":858,"ational":859,"lin":860,"ĠKlim":861,"Ġmuss":862,"Ġdamit":863,"Ġsondern":864,"ĠPar":865,"Ġger":866,"Ġ5":867,"fl":868,"zie":869,"ĠDaten":870,"Ġalle":871,"kte":872,"Ġgr":873,"ĠZÃ¼r":874,"att":875,"ast":876,"weise":877,"stem":878,"ĠFor":879,"Ġ4":880,"wick":881,"kon":882,"ĠLand":883,"ĠFranken":884,"fol":885,"ĠDoch":886,"ler":887,"ternehmen":888,"qu":889,"ĠGrund":890,"Ġeines":891,"ĠSVP":892,"fte":893,"ĠPerson":894,"Ġdieser":895,"ĠMar":896,"ild":897,"ĠGoog":898,"dent":899,"ult":900,"aum":901,"Ġhatte":902,"ystem":903,"ĠLeben":904,"ĠPart":905,"zt":906,"ĠUnter":907,"ĠWelt":908,"Ã¤lt":909,"ic":910,"lan":911,"ĠNach":912,"war":913,"zial":914,"Ġnun":915,"ellen":916,"ĠBundesrat":917,"ĠGoogle":918,"igkeit":919,"gesch":920,"mit":921,"mus":922,"osten":923,"olog":924,"Ġseit":925,"Ġob":926,"Ġ19":927,"Ġschon":928,"Ġjed":929,"llen":930,"land":931,"igt":932,"Ã¶l":933,"Ġange":934,"Ġbereits":935,"ohn":936,"eht":937,"Ġheute":938,"ĠBet":939,"ĠdÃ¼r":940,"ings":941,"innen":942,"Ġselbst":943,"ne":944,"erg":945,"age":946,"wir":947,"Ġdann":948,"Ġins":949,"blem":950,"lung":951,"egen":952,"Ġgem":953,"ĠGesch":954,"Ġeigen":955,"recht":956,"eist":957,"klÃ¤r":958,"fr":959,"ehn":960,"nis":961,".Â».":962,"sicher":963,"ord":964,"sser":965,"Ġ6":966,"ingen":967,"Ġdeut":968,"ĠmÃ¼ssen":969,"fÃ¤":970,"ismus":971,"ationen":972,"amen":973,"euer":974,"Ġerst":975,"ac":976,"Ġgeht":977,"Ġher":978,"Ġanderen":979,"Ã¤ng":980,"Ġpolit":981,"tr":982,"Ġweil":983,"Ġaller":984,"ĠTh":985,"Ġohne":986,"000":987,"ĠwÃ¼rde":988,"gangen":989,"omp":990,"Ġzwischen":991,"ĠSu":992,"isk":993,"ĠFl":994,"ahlen":995,"igung":996,"Ġwel":997,"ital":998,"Ã¶ff":999,"nahmen":1000,"ĠEx":1001,"ĠwÃ¼rden":1002,"itiative":1003,"eich":1004,"Ġseine":1005,"ĠUnternehmen":1006,"lage":1007,"Ġviele":1008,"ĠUS":1009,"abei":1010,"ritt":1011,"ĠArbeit":1012,").":1013,"echn":1014,"fÃ¼":1015,"Ġseien":1016,"ission":1017,"Ġihrer":1018,"walt":1019,"ĠRecht":1020,"ĠEine":1021,"ech":1022,"halt":1023,"Ġneue":1024,"ĠKinder":1025,"rechen":1026,"ĠGesetz":1027,"agen":1028,"Ġverb":1029,"orden":1030,"Ġsagte":1031,"Ġgut":1032,"isse":1033,"Ġrund":1034,"rÃ¤si":1035,"ĠFÃ¼r":1036,"Ã¤tz":1037,"ĠEurop":1038,"Ġallem":1039,"Ã¤ndern":1040,"spiel":1041,"akt":1042,"eigt":1043,"sicht":1044,"ĠkÃ¼n":1045,"onder":1046,"ĠHer":1047,".Â»":1048,"ĠSteu":1049,"Ġgesch":1050,"sto":1051,"Ġganz":1052,"gleich":1053,"ĠAm":1054,"ĠwÃ¤re":1055,"Ã¼rger":1056,"hÃ¶":1057,"ĠhÃ¤t":1058,"Ã¤m":1059,"Ġweniger":1060,"ĠGem":1061,"gegen":1062,"elig":1063,"zern":1064,"Ġsollen":1065,"sl":1066,"chte":1067,"inde":1068,"ĠGen":1069,"ats":1070,"ive":1071,"ust":1072,"ĠJahre":1073,"ett":1074,"Ġstar":1075,"oren":1076,"licher":1077,"Ġdiesem":1078,"Ġandere":1079,"Ġneuen":1080,"setz":1081,"lament":1082,"ischer":1083,"ĠDies":1084,"ĠPolitik":1085,"ange":1086,"ĠMehr":1087,"amt":1088,"elle":1089,"ommt":1090,"ater":1091,"eine":1092,"okrat":1093,"Ã¤hl":1094,"Ġjedoch":1095,"ug":1096,"ĠFrei":1097,"ĠkÃ¶nnte":1098,"asch":1099,"ellschaft":1100,"dings":1101,"Ġih":1102,"ĠDiese":1103,"ĠKlima":1104,"ĠĠ":1105,"ĠEnerg":1106,"Ġalso":1107,"ĠMillionen":1108,"ĠMan":1109,"ĠMon":1110,"gang":1111,"ks":1112,"wander":1113,"ĠPartei":1114,"Ã¶lker":1115,"oten":1116,"su":1117,"kehr":1118,"satz":1119,"ĠGeld":1120,"raft":1121,"Ġbesch":1122,"od":1123,"ren":1124,"Ġfest":1125,"Ġwollen":1126,"ĠAll":1127,"ĠWie":1128,"isten":1129,"Ġar":1130,"Ã¤ft":1131,"ĠDa":1132,"ĠÃĦ":1133,"Ġich":1134,"ĠWirtschaft":1135,"nung":1136,"min":1137,"richt":1138,"ĠEl":1139,"ĠTeil":1140,"ĠArbeits":1141,"ĠGer":1142,"isierung":1143,"ĠzurÃ¼ck":1144,"inden":1145,"ĠfÃ¼hr":1146,"amm":1147,"beh":1148,"raf":1149,"ĠProblem":1150,"ĠhÃ¶":1151,"ĠGegen":1152,"Ġbeim":1153,"ode":1154,"ĠDeut":1155,"fach":1156,"anc":1157,"hÃ¶r":1158,"Ġletz":1159,"rad":1160,"ĠFinanz":1161,"Ġblei":1162,"tag":1163,"ĠMÃ¤n":1164,"ĠPr":1165,"ĠPersonen":1166,"ĠDenn":1167,"stÃ¤nd":1168,"ens":1169,"ikan":1170,"Ġdoch":1171,"ĠZÃ¼rich":1172,"dt":1173,"ĠWoch":1174,"von":1175,"ĠFall":1176,"ex":1177,"St":1178,"stit":1179,"Ġzwar":1180,"rÃ¤sident":1181,"geben":1182,"ilfe":1183,"Ġsehr":1184,"Ġfor":1185,"heits":1186,"Ġhei":1187,"co":1188,"Ã¼nd":1189,"immt":1190,"Ġwicht":1191,"gaben":1192,"sor":1193,"ha":1194,"ĠStud":1195,"dert":1196,"esen":1197,"ĠEm":1198,"ade":1199,"Ġdazu":1200,"wend":1201,"scheid":1202,"gend":1203,"Ã¶ffent":1204,"io":1205,"stand":1206,"zeu":1207,"essen":1208,"wach":1209,"ĠDem":1210,"ister":1211,"ek":1212,"Ġgel":1213,"Ġgleich":1214,"Ġausge":1215,"gung":1216,"schutz":1217,"ĠAut":1218,"ĠTr":1219,"ommission":1220,"ultur":1221,"Ġlei":1222,"Ġeinz":1223,"Ġdrei":1224,"ĠEnde":1225,"ia":1226,"reu":1227,"ĠFrage":1228,"amil":1229,"Ġihren":1230,"Ġnie":1231,"ĠVol":1232,"Ġwerde":1233,"ĠMass":1234,"ĠPrei":1235,"Ġbesser":1236,"asse":1237,"tro":1238,"ĠMig":1239,"Ġdenn":1240,"ĠInter":1241,"eln":1242,"reich":1243,"Ã¤hrend":1244,"nit":1245,"ĠParlament":1246,"Ġeinge":1247,"ĠAber":1248,"wort":1249,"if":1250,"ĠKran":1251,"Ġverl":1252,"Ġbez":1253,"Ġunser":1254,"vÃ¶lker":1255,"ĠNational":1256,"ĠCh":1257,"ition":1258,"ĠVerb":1259,"ganis":1260,"alten":1261,"cken":1262,"aat":1263,"ĠÃĸ":1264,"ald":1265,"Ġkommen":1266,"ĠdafÃ¼r":1267,"Ã¤nger":1268,"Ġwaren":1269,"Ġklar":1270,"ĠWas":1271,"Ġwo":1272,"Ġseiner":1273,"Ġ7":1274,"ienst":1275,"Ġ200":1276,"unft":1277,"stellt":1278,"rach":1279,"ĠmÃ¶glich":1280,"Ġ8":1281,"Ġbek":1282,"ĠUr":1283,"Ġwurden":1284,"Ġmachen":1285,"ĠEntwick":1286,"Ġ-":1287,"Ġgar":1288,"Ã¤d":1289,"ĠStadt":1290,"weg":1291,"tz":1292,"ard":1293,"ĠGro":1294,"Ġkommt":1295,"Ġetwas":1296,"nahme":1297,"Ġbrau":1298,"sy":1299,"gem":1300,"sk":1301,"Ġlaut":1302,"lagen":1303,"ĠThem":1304,"hÃ¤lt":1305,"Ġuns":1306,"sÃ¤tz":1307,"Ġeben":1308,"dr":1309,"Ġoffen":1310,"annt":1311,"uf":1312,"aupt":1313,"stÃ¼t":1314,"Ġgef":1315,"ĠOr":1316,"mittel":1317,"Ġfrei":1318,"welt":1319,"ĠKr":1320,"ib":1321,"kunft":1322,"Ġhier":1323,"ĠZus":1324,"reichen":1325,"Ġwelche":1326,"eter":1327,"Ġdavon":1328,"ep":1329,"ost":1330,"Ġern":1331,"ĠCO":1332,"Ġsowie":1333,"verb":1334,"ate":1335,"wor":1336,"wert":1337,"falls":1338,"vent":1339,"vest":1340,"sprechen":1341,"ho":1342,"eint":1343,"ĠBl":1344,"zug":1345,"gar":1346,"Ġdeshalb":1347,"iff":1348,"ĠSchul":1349,"pl":1350,"ĠChin":1351,"Ġdiesen":1352,"ĠSteuer":1353,"enten":1354,"Ġwei":1355,"ere":1356,"Qu":1357,"ĠSchw":1358,"Die":1359,"ruck":1360,"ook":1361,"ichten":1362,"ĠerklÃ¤r":1363,"ĠProdu":1364,"ĠGemein":1365,"ute":1366,"atur":1367,"derung":1368,"Ġletzten":1369,"ak":1370,"ĠUSA":1371,"Ġwenig":1372,"ichte":1373,"HV":1374,"ammen":1375,"Ġlassen":1376,"hol":1377,"upp":1378,"ĠEnergie":1379,"ĠgegenÃ¼ber":1380,"schland":1381,"Ġdabei":1382,"Ġte":1383,"schlag":1384,"stens":1385,"ĠmÃ¼s":1386,"folg":1387,"Ġho":1388,"Ġsteht":1389,"schaften":1390,"so":1391,"anden":1392,"ĠKosten":1393,"ichts":1394,"ĠPl":1395,"ĠStr":1396,"Ã¤ter":1397,"ĠFir":1398,"rÃ¤ge":1399,"ĠkÃ¶nnten":1400,"Ġex":1401,"ĠBevÃ¶lker":1402,"slam":1403,"ĠAHV":1404,"ĠFac":1405,"glie":1406,"stitut":1407,"Ġvergangen":1408,"ĠQu":1409,"ĠBeh":1410,"licht":1411,"ĠTechn":1412,"ĠMedik":1413,"Ġkaum":1414,"ĠWenn":1415,"arkt":1416,"ĠLu":1417,"Ġworden":1418,"Ġbisher":1419,"ĠAnt":1420,"Ġallerdings":1421,"ĠEltern":1422,"ende":1423,"sche":1424,"ĠDeutschland":1425,"ov":1426,"reten":1427,"Ġweit":1428,"ilt":1429,"Ġstell":1430,"los":1431,"schied":1432,"bur":1433,"enden":1434,"ehl":1435,"Ã¤ren":1436,"gesetz":1437,"ktiv":1438,"ĠKir":1439,"auer":1440,"immen":1441,"ĠKam":1442,"ĠForsch":1443,"Ġzeigt":1444,"grund":1445,"ĠSozial":1446,"ĠMarkt":1447,"In":1448,"app":1449,"ĠBeispiel":1450,"ĠRegierung":1451,"Ġbeh":1452,"ĠSelbst":1453,"ĠRegel":1454,"ĠSter":1455,"alter":1456,"scheiden":1457,"ration":1458,"unkt":1459,"echs":1460,"ivers":1461,"ĠMÃ¤nner":1462,"Ġsolche":1463,"ogen":1464,"ma":1465,"zw":1466,"Ġjen":1467,"Ġgilt":1468,"aufen":1469,"Ġgest":1470,"iar":1471,"Ġsel":1472,"Ã¶t":1473,"lossen":1474,"Ġdieses":1475,"Ġarb":1476,"assung":1477,"ĠBr":1478,"ĠFol":1479,"eim":1480,"gehen":1481,"voll":1482,"DP":1483,"frage":1484,"ĠFamil":1485,"ĠFrau":1486,"ebook":1487,"ubl":1488,"einen":1489,"Ġverm":1490,"ahmen":1491,"schieden":1492,"Ġschw":1493,"ĠFacebook":1494,"alitÃ¤t":1495,"echt":1496,"ĠZudem":1497,"ĠBÃ¼rger":1498,"ĠPol":1499,"ĠInte":1500,"Ã¼nf":1501,"ĠhÃ¤tten":1502,"),":1503,"sammen":1504,"ow":1505,"indest":1506,"hand":1507,"urs":1508,"stellen":1509,"arbeit":1510,"Ġzusammen":1511,"immung":1512,"ĠhÃ¶her":1513,"roffen":1514,"ftig":1515,"Ġjetzt":1516,"Ġeh":1517,"ĠDass":1518,"lob":1519,"ĠHin":1520,"rotz":1521,"ĠBit":1522,"ĠRelig":1523,"ĠZahl":1524,"Ġsieht":1525,"Ġliegt":1526,"ine":1527,"ĠAt":1528,"Ġsollte":1529,"bung":1530,"coin":1531,"Ġeinmal":1532,"ĠWahl":1533,"Ġoft":1534,"gabe":1535,"frei":1536,"ĠRÃ¼ck":1537,"uten":1538,"wohl":1539,"Ġeinfach":1540,"ster":1541,"isik":1542,"ĠSchl":1543,"ph":1544,"ĠBild":1545,"Ġrecht":1546,"nitt":1547,"keiten":1548,"ĠPf":1549,"minister":1550,"ĠkÃ¶nne":1551,"Ġvergangenen":1552,"rom":1553,"Ġstark":1554,"chten":1555,"urz":1556,"anten":1557,"Ġdeutlich":1558,"ĠHand":1559,"ium":1560,"ĠKrit":1561,"ĠInitiative":1562,"ĠÃ¤":1563,"werk":1564,"aar":1565,"bet":1566,"ckt":1567,"ĠÃ¶ffent":1568,"ĠBeg":1569,"ĠBitcoin":1570,"bie":1571,"iell":1572,"ĠmÃ¶":1573,"ĠDisk":1574,"lichkeit":1575,"ĠThema":1576,"fÃ¼hrt":1577,"Ġheisst":1578,"ĠMedikamen":1579,"weit":1580,"genommen":1581,"ologie":1582,"ĠZiel":1583,"Ġdarauf":1584,"ĠDamit":1585,"ĠMus":1586,"Ġihnen":1587,"Ġversch":1588,"Ġbeg":1589,"Ġ9":1590,"ĠKl":1591,"Ġallen":1592,"aaten":1593,"pr":1594,"legen":1595,"ĠEntscheid":1596,"brau":1597,"ĠEuropa":1598,"Wir":1599,"ruch":1600,"ĠKranken":1601,"ĠBevÃ¶lkerung":1602,"ĠGew":1603,"wÃ¤r":1604,"als":1605,"Ġnichts":1606,"antwort":1607,"Ġgrosse":1608,"neh":1609,"Ġmei":1610,"Ġwohl":1611,"get":1612,"lligen":1613,"reibt":1614,"ritten":1615,"ĠTag":1616,"ĠOb":1617,"sm":1618,"Ġstatt":1619,"enzen":1620,"entr":1621,"ĠMittel":1622,"ĠSystem":1623,"Ġstehen":1624,"wanderung":1625,"Ġderen":1626,"Ġzun":1627,"ĠChina":1628,"zahl":1629,"ĠMa":1630,"olle":1631,"ĠZusammen":1632,"kr":1633,"Ġwegen":1634,"ĠRahmen":1635,"prÃ¤":1636,"ĠSicher":1637,"Ġintern":1638,"hung":1639,"Ġersten":1640,"ielt":1641,"erst":1642,"ont":1643,"Ġfinanz":1644,"bau":1645,"ider":1646,"ĠAls":1647,"ĠfrÃ¼":1648,"ĠstÃ¤r":1649,"iarden":1650,"ĠPat":1651,"Ġch":1652,"ĠwÃ¤hrend":1653,"atte":1654,"itz":1655,"ingt":1656,"Ġhoch":1657,"ĠfÃ¼nf":1658,"ĠGesund":1659,"Ġderzeit":1660,"ĠPriv":1661,"ĠSP":1662,"ĠPh":1663,"Ġerhalten":1664,"ĠlÃ¤":1665,"Ġbef":1666,"ient":1667,"jÃ¤hr":1668,"Ġwelt":1669,"ĠgehÃ¶r":1670,"nt":1671,"Ġdenen":1672,"ĠLaut":1673,"Ġbel":1674,"uropÃ¤":1675,"our":1676,"ĠNationalrat":1677,"ub":1678,"zÃ¼":1679,"Ġde":1680,"ĠReligion":1681,"onders":1682,"50":1683,"Ġbed":1684,"ĠGesellschaft":1685,"liess":1686,"ĠMassnahmen":1687,"irekt":1688,"ieg":1689,"Ġverst":1690,"Ġhatten":1691,"gew":1692,"ĠdÃ¼rfte":1693,"rÃ¤n":1694,"merikan":1695,"fahren":1696,"20":1697,"unter":1698,"ĠFÃ¤":1699,"gu":1700,"ote":1701,"ĠFDP":1702,"esse":1703,"ĠGrÃ¼n":1704,"iber":1705,"Ġsogar":1706,"haus":1707,"nisse":1708,"ĠUnivers":1709,"zei":1710,"eid":1711,"Ġschwer":1712,"Ġgrossen":1713,"Ġmacht":1714,"iels":1715,"ĠZÃ¼rcher":1716,"ĠKultur":1717,"ĠArt":1718,"ĠStaats":1719,"such":1720,"Ġen":1721,"liessen":1722,"Ġgerade":1723,"jekt":1724,"Ġleben":1725,"Ġfast":1726,"ĠFirmen":1727,"Ġind":1728,"ĠerhÃ¶":1729,"fang":1730,"stru":1731,"ache":1732,"etzen":1733,"werb":1734,"ĠStudie":1735,"ĠLÃ¤ndern":1736,"ump":1737,"ĠHaus":1738,"stellung":1739,"ond":1740,"schnitt":1741,"ĠDienst":1742,"ĠGross":1743,"will":1744,"ĠUmwelt":1745,"bed":1746,"Ġal":1747,"ĠRenten":1748,"markt":1749,"nehmen":1750,"wandel":1751,"ĠEntwicklung":1752,"dop":1753,"ĠDurch":1754,"lecht":1755,"ĠIntern":1756,"ĠMilliarden":1757,"laub":1758,"Ġmeisten":1759,"fft":1760,"eite":1761,"kung":1762,"ĠGleich":1763,"ĠDe":1764,"ĠBern":1765,"ativen":1766,"Ġ10":1767,"affen":1768,"achten":1769,"isiert":1770,"best":1771,"hÃ¤ng":1772,"kungen":1773,"ĠWeg":1774,"ĠAlter":1775,"ĠLebens":1776,"ĠDemokrat":1777,"asst":1778,"ĠBed":1779,"Ã¤chlich":1780,"str":1781,"Ġseinen":1782,"Ġwichtig":1783,"ĠMin":1784,"Ġglob":1785,"last":1786,"ĠStunden":1787,"versicher":1788,"ĠZukunft":1789,"Ġlange":1790,"ĠVolks":1791,"ĠDen":1792,"Ġihn":1793,"ĠBest":1794,"iere":1795,"ĠIslam":1796,"rieben":1797,"bild":1798,"ide":1799,"Ġtun":1800,"ĠMedien":1801,"ĠMehrheit":1802,"dien":1803,"Ã¤ten":1804,"ĠNicht":1805,"ĠmÃ¼sse":1806,"eicht":1807,"Ã¼cht":1808,"frist":1809,"ĠKI":1810,"ĠCVP":1811,"Ġseinem":1812,"ĠLÃ¶s":1813,"Ġteil":1814,"eig":1815,"gesetzt":1816,"rieb":1817,"Ġeigenen":1818,"ĠLin":1819,"ĠVert":1820,"Ġihrem":1821,"ĠApp":1822,"ĠBesch":1823,"ĠMann":1824,"Ġschn":1825,"Ġweitere":1826,"Ġzudem":1827,"Ġ2016":1828,"bes":1829,"reiben":1830,"Ġtie":1831,"Ġgross":1832,"ĠlÃ¤sst":1833,"lungen":1834,"issionen":1835,"duz":1836,"ĠRisik":1837,"indet":1838,"teilung":1839,"unktion":1840,"ffiz":1841,"ypt":1842,"Ġgeben":1843,"Ġersch":1844,"az":1845,"osit":1846,"Ġkonn":1847,"ĠZw":1848,"Ġmus":1849,"Ġbegr":1850,"ĠMÃ¶glich":1851,"ĠWissen":1852,"ĠRicht":1853,"Ġem":1854,"Ġlang":1855,"zept":1856,"eder":1857,"Ġfol":1858,"ĠNeu":1859,"ĠVerein":1860,"stoss":1861,"ĠStaaten":1862,"ĠAbst":1863,"ĠAnge":1864,"Ġbleibt":1865,"ĠWoche":1866,"Ġgehen":1867,"liesslich":1868,"ĠMitglie":1869,"ip":1870,"Ġaufge":1871,"cker":1872,"Ġbew":1873,"lÃ¤nder":1874,"Ġ2017":1875,"iven":1876,"ĠPreis":1877,"Ġdort":1878,"ĠKritik":1879,"ĠGeschÃ¤ft":1880,"Ġvielen":1881,"Ã¤uf":1882,"aren":1883,"ĠWei":1884,"Ã¤hrung":1885,"Ġvier":1886,"ationalen":1887,"ĠgrÃ¶s":1888,"glichen":1889,"ĠEhe":1890,"ika":1891,"erk":1892,"fern":1893,"ĠSol":1894,"ĠVersicher":1895,"Ġentscheiden":1896,"Ġbede":1897,"spro":1898,"ĠFahr":1899,"ĠÃĦr":1900,"Ġdah":1901,"Ġentsprechen":1902,"Ġaut":1903,"setzen":1904,"ĠMigration":1905,"Ġ2018":1906,"ial":1907,"Ġreg":1908,"odell":1909,"schul":1910,"Ġkrit":1911,"vention":1912,"ĠInvest":1913,"ffe":1914,"wirtschaft":1915,"einander":1916,"Ġsicher":1917,"Ġbeiden":1918,"ĠWochen":1919,"ĠPrÃ¤":1920,"ierungs":1921,"igten":1922,"ĠNetz":1923,"ĠKind":1924,"ktur":1925,"spiels":1926,"leist":1927,"Ġkeinen":1928,"bare":1929,"ĠjÃ¼n":1930,"izin":1931,"atsÃ¤chlich":1932,"Ġor":1933,"Ġwissen":1934,"Ġalles":1935,"stag":1936,"gramm":1937,"ĠSpiel":1938,"handel":1939,"Ġfinden":1940,"ĠReform":1941,"kten":1942,"geber":1943,"ĠDar":1944,"ĠIde":1945,"ĠKlimawandel":1946,"ian":1947,"ĠVerf":1948,"Ġpr":1949,"ĠNutz":1950,"kur":1951,"llt":1952,"ĠlÃ¤nger":1953,"reib":1954,"Ã¤tze":1955,"annte":1956,"Ã¼nst":1957,"ĠeuropÃ¤":1958,"ĠFragen":1959,"ĠPoliz":1960,"spielsweise":1961,"ĠBeit":1962,"ĠRolle":1963,"Ġbraucht":1964,"ĠDabei":1965,"ose":1966,"ember":1967,"ĠIntelligen":1968,"Ġeher":1969,"ĠSeit":1970,"tem":1971,"Ã¶rden":1972,"Ġihm":1973,"Pro":1974,"gericht":1975,"ĠDatenschutz":1976,"trem":1977,"ĠExper":1978,"eile":1979,"itu":1980,"unde":1981,"Ġpolitischen":1982,"ĠKommission":1983,"reicht":1984,"ĠKonzern":1985,"ĠKrypt":1986,"dopt":1987,"ĠVergleich":1988,"schafts":1989,"napp":1990,"ĠStrom":1991,"ĠLohn":1992,"liegen":1993,"Ġ30":1994,"ziehen":1995,"ĠhÃ¤tte":1996,"ĠBas":1997,"ĠKunden":1998,"ĠkÃ¼nst":1999,"ĠmÃ¼ssten":2000,"ĠZum":2001,"ienten":2002,"Ã¤ssig":2003,"ĠChr":2004,"rieg":2005,"ĠdÃ¼rfen":2006,"fit":2007,"usst":2008,"Ġ2015":2009,"Ġamerikan":2010,"ĠnÃ¤ch":2011,"andelt":2012,"ĠStand":2013,"ĠKantone":2014,"igte":2015,"eshalb":2016,"ĠkÃ¼nftig":2017,"ĠInform":2018,"Ġstaat":2019,"kam":2020,"ĠStraf":2021,"Ġ15":2022,"Ã¶sen":2023,"Ġbleiben":2024,"gst":2025,"ĠSicht":2026,"ĠDig":2027,"ĠzusÃ¤tz":2028,"utzen":2029,"ĠSchutz":2030,"Ġsozi":2031,"Ġsollten":2032,"port":2033,"ĠY":2034,"undert":2035,"derungen":2036,"chter":2037,"ĠBes":2038,"ĠAusland":2039,"gesamt":2040,"heiten":2041,"one":2042,"scht":2043,"ĠRes":2044,"ĠIntelligenz":2045,"atÃ¼r":2046,"Ġdarf":2047,"ĠdarÃ¼ber":2048,"ym":2049,"ager":2050,"Ġstellen":2051,"Ġbesonders":2052,"tw":2053,"ĠDeb":2054,"orgen":2055,"fÃ¼hrung":2056,"Ġselber":2057,"Ġschnell":2058,"ĠSon":2059,"achte":2060,"lex":2061,"wahr":2062,"Ġverk":2063,"ĠBis":2064,"Ġbeispielsweise":2065,"utter":2066,"ĠgrÃ¶":2067,"setzung":2068,"itzen":2069,"ĠBel":2070,"Ġgewesen":2071,"ĠGener":2072,"ĠKirchen":2073,"ĠPrivat":2074,"ĠFach":2075,"ĠHu":2076,"ĠAnfang":2077,"griff":2078,"ĠTrump":2079,"einkommen":2080,"Ġzehn":2081,"aly":2082,"Ġjeder":2083,"einer":2084,"Ã¼hl":2085,"ĠGesicht":2086,"baren":2087,"gument":2088,"arte":2089,"Ġkomp":2090,"fÃ¤h":2091,"schw":2092,"Ġausser":2093,"ise":2094,"ĠStimm":2095,"ĠBereich":2096,"Ġgelten":2097,"ĠNe":2098,"obil":2099,"stieg":2100,"itÃ¤ten":2101,"ĠZwei":2102,"ivi":2103,"Ġarbeiten":2104,"ĠMo":2105,"Ġvert":2106,"Ġricht":2107,"Ġ50":2108,"zieh":2109,"err":2110,"ssel":2111,"Ġgab":2112,"mÃ¶":2113,"Ġverschieden":2114,"mann":2115,"Ġsehen":2116,"hilfe":2117,"Ġdagegen":2118,"zte":2119,"agt":2120,"Ã¤nde":2121,"ĠBef":2122,"Ġdaran":2123,"adt":2124,"ans":2125,"omit":2126,"Ġleg":2127,"Ġwirk":2128,"ĠEinz":2129,"Ġtrotz":2130,"Ġvoll":2131,"ĠhÃ¤lt":2132,"opp":2133,"ĠGewalt":2134,"zeitig":2135,"Ġstellt":2136,"burg":2137,"Ġzeigen":2138,"imin":2139,"uppe":2140,"ĠDiskuss":2141,"stum":2142,"ations":2143,"Ġentwick":2144,"sych":2145,"ĠMedikamente":2146,"initiative":2147,"Ġgeb":2148,"ĠLÃ¤nder":2149,"ĠStÃ¤nder":2150,"ersÃ¶n":2151,"Ġhinter":2152,"ĠKo":2153,"wÃ¼r":2154,"geh":2155,"ĠHo":2156,"rateg":2157,"chnet":2158,"ĠFlÃ¼cht":2159,"ĠDon":2160,"ĠHoch":2161,"gemein":2162,"Ġnehmen":2163,"ĠBran":2164,"liches":2165,"ĠVerl":2166,"ĠAnteil":2167,"assungs":2168,"Ġzie":2169,"reg":2170,"Ġgenau":2171,"mals":2172,"brauch":2173,"fess":2174,"Ġgemein":2175,"mung":2176,"Ġhalten":2177,"ĠLeist":2178,"wiesen":2179,"ĠSterbeh":2180,"ĠVerkehr":2181,"izid":2182,"ommun":2183,"Ġpolitische":2184,"ĠstÃ¤rker":2185,"ĠDemokratie":2186,"Ġanders":2187,"rÃ¤sent":2188,"ey":2189,"ĠMein":2190,"iges":2191,"Ġwirtschaft":2192,"Ġ199":2193,"deut":2194,"ahn":2195,"Ġbetroffen":2196,"lungs":2197,"Ġdr":2198,"Ġschreibt":2199,"Ġ18":2200,"Ġnah":2201,"Ġgeworden":2202,"schlÃ¤":2203,"ĠfrÃ¼her":2204,"ĠKryptow":2205,"Es":2206,"ator":2207,"Ġhingegen":2208,"eligi":2209,"ĠInternet":2210,"Ġfr":2211,"ĠVater":2212,"ĠIhr":2213,"ĠNur":2214,"ielen":2215,"ĠVorlage":2216,"altung":2217,"produ":2218,"ack":2219,"ĠParteien":2220,"An":2221,"reuung":2222,"ĠWert":2223,"ekte":2224,"gn":2225,"zess":2226,"ĠFil":2227,"ĠKit":2228,"Ġknapp":2229,"Ġ100":2230,"ennt":2231,"eitet":2232,"Ġabge":2233,"haft":2234,"ĠGl":2235,"ĠPrÃ¤sident":2236,"ĠunterstÃ¼t":2237,"Ġebenfalls":2238,"ĠChanc":2239,"tlich":2240,"uter":2241,"fin":2242,"Ġkurz":2243,"ĠLandes":2244,"ĠRechts":2245,"ĠfÃ¼hren":2246,"ies":2247,"Ġsogen":2248,"Ġsolchen":2249,"ationale":2250,"Ġweiterhin":2251,"zung":2252,"Ġwahr":2253,"ĠAsy":2254,"ĠMal":2255,"ĠRei":2256,"stehen":2257,"ĠTod":2258,"rakt":2259,"isches":2260,"abkommen":2261,"zip":2262,"ĠspÃ¤ter":2263,"apital":2264,"ĠSterbehilfe":2265,"Ġgrund":2266,"eiden":2267,"ĠKontro":2268,"Ã¤hrungen":2269,"ĠPatienten":2270,"Ã©":2271,"Ġdisk":2272,"reffen":2273,"ettbe":2274,"fs":2275,"pag":2276,"vol":2277,"ase":2278,"Ġinner":2279,"reifen":2280,"vert":2281,"dust":2282,"ĠKraft":2283,"Ġbekannt":2284,"ĠBlick":2285,"Ġgebe":2286,"spruch":2287,"omen":2288,"Ġabs":2289,"sorge":2290,"ommer":2291,"asser":2292,"ĠMuslim":2293,"ai":2294,"schein":2295,"Ġir":2296,"ĠDieser":2297,"weisen":2298,"ĠFamilien":2299,"Das":2300,"ĠIniti":2301,"iker":2302,"fÃ¤lle":2303,"ĠTechnologie":2304,"to":2305,"tler":2306,"Ġ0":2307,"ĠViele":2308,"ĠDebatte":2309,"ĠEben":2310,"ĠBau":2311,"Ã¤chst":2312,"fter":2313,"Ġbie":2314,"ĠEigen":2315,"ĠVon":2316,"ĠTran":2317,"ĠMensch":2318,"Ġtechn":2319,"30":2320,"punkt":2321,"Ġfehl":2322,"Ġerwar":2323,"Ġverw":2324,"Ġverlan":2325,"ĠAuss":2326,"Ã¤hrlich":2327,"lock":2328,"herap":2329,"ĠSuizid":2330,"ĠSchulden":2331,"Ã¼d":2332,"ĠgrÃ¶sser":2333,"ausen":2334,"steuer":2335,"ĠMot":2336,"annten":2337,"Ġdarum":2338,"Ã¼ll":2339,"amals":2340,"Ġ12":2341,"ĠChrist":2342,"aden":2343,"jahr":2344,"ĠĠĠĠ":2345,"hÃ¤ltnis":2346,"Ġdig":2347,"ichtet":2348,"Ich":2349,"haupt":2350,"staaten":2351,"man":2352,"ĠVertr":2353,"Ã¤lfte":2354,"eck":2355,"ifiz":2356,"ielleicht":2357,"wand":2358,"eren":2359,"ines":2360,"ranten":2361,"ikt":2362,"ĠMindest":2363,"Ġja":2364,"ganisation":2365,"oss":2366,"th":2367,"zus":2368,"ĠFrank":2369,"ĠZuwanderung":2370,"ĠUniversitÃ¤t":2371,"uelle":2372,"ĠIns":2373,"Ġ25":2374,"kraft":2375,"nern":2376,"uro":2377,"spar":2378,"lauben":2379,"Ġgemacht":2380,"ĠEinzel":2381,"pfen":2382,"ĠBeruf":2383,"ĠLÃ¶sung":2384,"ande":2385,"auft":2386,"Ã¶st":2387,"urteil":2388,"omat":2389,"legt":2390,"ĠtatsÃ¤chlich":2391,"ĠBericht":2392,"Ġeinzel":2393,"zogen":2394,"ĠwÃ¤ren":2395,"auss":2396,"Ġsteigen":2397,"abil":2398,"ĠerklÃ¤rt":2399,"ain":2400,"renz":2401,"ÂŃ":2402,"menten":2403,"Ġverz":2404,"hÃ¶hung":2405,"Ġzunehmen":2406,"ĠHÃ¤lfte":2407,"Ġdessen":2408,"ĠEinkommen":2409,"Ġprofit":2410,"Ġjene":2411,"ettbewerb":2412,"mÃ¶glich":2413,"utet":2414,"ĠFort":2415,"Ġerste":2416,"ĠHÃ¶":2417,"ĠHandel":2418,"ĠJun":2419,"ts":2420,"reis":2421,"verkehr":2422,"ĠFlug":2423,"inter":2424,"gestellt":2425,"eitung":2426,"Ġverhin":2427,"ĠverfÃ¼":2428,"ĠgemÃ¤ss":2429,"Ã¤mlich":2430,"fert":2431,"tete":2432,"ituation":2433,"politik":2434,"artei":2435,"net":2436,"ehe":2437,"awei":2438,"erdings":2439,"inger":2440,"onnen":2441,"Ġinter":2442,"leg":2443,"ĠCo":2444,"ĠJahres":2445,"ĠGesundheits":2446,"isieren":2447,"ĠLeute":2448,"ĠDrit":2449,"ĠHaupt":2450,"Ġreligi":2451,"ĠSub":2452,"plan":2453,"Ġbestehen":2454,"ĠPolizei":2455,"Ġpl":2456,"Ġreduz":2457,"line":2458,"Ġzul":2459,"Ġbringen":2460,"Ġ40":2461,"ondere":2462,"ĠWirtschafts":2463,"ĠfÃ¼hrt":2464,"uchen":2465,"wur":2466,"itionen":2467,"ĠLie":2468,"Ġschl":2469,"li":2470,"sum":2471,"ĠÃ¼":2472,"ĠnÃ¤mlich":2473,"Ġmen":2474,"alien":2475,"red":2476,"Ġanderem":2477,"Ġeinige":2478,"ĠNein":2479,"lechter":2480,"ollar":2481,"ĠDigital":2482,"ĠGrad":2483,"ĠComp":2484,"ĠKrankenk":2485,"Ġweltweit":2486,"Un":2487,"raum":2488,"vis":2489,"Ġkam":2490,"els":2491,"kennung":2492,"gebot":2493,"ĠHuawei":2494,"ividu":2495,"dustrie":2496,"arf":2497,"Ġheut":2498,"ĠWar":2499,"ĠIch":2500,"fallen":2501,"zwischen":2502,"ĠAdopt":2503,"Ġfindet":2504,"Ġglei":2505,"ĠErn":2506,"Ġgesellschaft":2507,"ari":2508,"ehnt":2509,"Ġschwier":2510,"Ġempf":2511,"tens":2512,"abhÃ¤ng":2513,"ragten":2514,"rechts":2515,"Ġper":2516,"pfung":2517,"ĠFolgen":2518,"weis":2519,"Ġ14":2520,"ĠHier":2521,"ĠErfolg":2522,"wirkungen":2523,"Ã¤hlt":2524,"beg":2525,"arr":2526,"ĠPlast":2527,"osition":2528,"Ġchines":2529,"Ver":2530,"ĠBrÃ¼":2531,"ĠNie":2532,"spr":2533,"ĠAbkommen":2534,"Ġjeden":2535,"ĠÃ¤hn":2536,"gl":2537,"kosten":2538,"onom":2539,"ĠGeb":2540,"pfer":2541,"Ġwollte":2542,"ĠÃľberwach":2543,"ka":2544,"iver":2545,"Ġausl":2546,"ĠFolge":2547,"ĠSchluss":2548,"schri":2549,"Ġbil":2550,"ĠViel":2551,"ĠStimmen":2552,"ĠJa":2553,"Ġunterschied":2554,"arbeiter":2555,"prochen":2556,"Ġheraus":2557,"stitution":2558,"ys":2559,"ĠZahlen":2560,"ĠZentr":2561,"ĠÃĸff":2562,"durch":2563,"nach":2564,"ucht":2565,"eichen":2566,"ĠKat":2567,"weil":2568,"ĠAnder":2569,"gress":2570,"bracht":2571,"Ġbesteht":2572,"ober":2573,"llig":2574,"alisierung":2575,"Ġerw":2576,"Ġerfolg":2577,"ĠÃ¼berhaupt":2578,"laubt":2579,"ĠGesetzes":2580,"nehmer":2581,"ĠSport":2582,"Ġhinaus":2583,"ĠForm":2584,"Ġerneuer":2585,"eten":2586,"hnen":2587,"ĠDruck":2588,"ore":2589,"Ġmass":2590,"Ġfunktion":2591,"ierungen":2592,"Ġallein":2593,"ferenz":2594,"zÃ¼g":2595,"mass":2596,"angen":2597,"itter":2598,"Ġeinzu":2599,"ĠEuro":2600,"Ġhal":2601,"ĠpersÃ¶n":2602,"ĠUnterstÃ¼t":2603,"ĠhÃ¶ch":2604,"ĠmÃ¼sste":2605,"kret":2606,"pot":2607,"ĠWeiter":2608,"ĠLe":2609,"ĠGefahr":2610,"ĠDollar":2611,"ĠAuslÃ¤nder":2612,"ĠPolitiker":2613,"ĠDiskussion":2614,"feld":2615,"ĠProjekt":2616,"werke":2617,"flu":2618,"ĠOn":2619,"Ã¶rderung":2620,"ĠGut":2621,"istischen":2622,"ordnung":2623,"Ġ60":2624,"indestens":2625,"ĠAlters":2626,"ĠDrittel":2627,"ift":2628,"ĠPlan":2629,"ware":2630,"ĠSicherheit":2631,"Ġpriv":2632,"gÃ¤n":2633,"ssystem":2634,"Ġgute":2635,"Ġposit":2636,"Ġ11":2637,"atÃ¼rlich":2638,"Ġben":2639,"Ġgesetz":2640,"Ġdaher":2641,"Ġdro":2642,"edizin":2643,"ĠMitte":2644,"ĠFamilie":2645,"ĠnÃ¤chsten":2646,"druck":2647,"Ġzahl":2648,"ĠnÃ¶t":2649,"Ġunsere":2650,"ĠExperten":2651,"die":2652,"zul":2653,"ĠSinn":2654,"Ġjem":2655,"hef":2656,"krÃ¤":2657,"Ġversu":2658,"Ġrel":2659,"ĠKonkur":2660,"ĠInteresse":2661,"Ġqu":2662,"Ã¤tzen":2663,"ragt":2664,"ĠVolk":2665,"verband":2666,"kampf":2667,"ĠMutter":2668,"Ġinte":2669,"rÃ¤gt":2670,"ĠGef":2671,"Ġ32":2672,"konzern":2673,"Ġinsgesamt":2674,"ĠÃ¤uss":2675,"ĠAsyl":2676,"prÃ¼":2677,"eta":2678,"ĠStÃ¤d":2679,"verstÃ¤nd":2680,"ĠEuropÃ¤":2681,"ĠAllerdings":2682,"ĠDienstag":2683,"Ã¤ufig":2684,"ament":2685,"ĠProdukte":2686,"versicherung":2687,"mehr":2688,"ĠBank":2689,"mente":2690,"istische":2691,"fordert":2692,"arbeiten":2693,"nal":2694,"ule":2695,"arm":2696,"Ġerf":2697,"ĠSteuern":2698,"Ġfordert":2699,"ĠStÃ¤nderat":2700,"Ġdigit":2701,"orm":2702,"Ã¼rz":2703,"ĠNot":2704,"Ã¶rde":2705,"gelt":2706,"rimin":2707,"ches":2708,"Ġlin":2709,"kauf":2710,"ĠMacht":2711,"ĠWort":2712,"geln":2713,"Ġkonnte":2714,"ĠÃĦrzte":2715,"Ġsex":2716,"ure":2717,"ĠNun":2718,"allen":2719,"Ġ2019":2720,"ĠWerbung":2721,"Sch":2722,"ce":2723,"opf":2724,"fÃ¼hren":2725,"ĠParis":2726,"Ġerz":2727,"Ġerreichen":2728,"Ġ17":2729,"bei":2730,"ĠSen":2731,"ĠKrieg":2732,"ingungen":2733,"ĠRegeln":2734,"wohn":2735,"inzip":2736,"ĠGeg":2737,"Ġget":2738,"ĠÃ¼berzeu":2739,"ĠMittw":2740,"schluss":2741,"Ã¼tzen":2742,"sÃ¤tzlich":2743,"wÃ¤rmung":2744,"Ġdiskut":2745,"ĠMittwoch":2746,"enze":2747,"Ã¼nden":2748,"ĠProbleme":2749,"stra":2750,"Ġnimmt":2751,"ĠWÃ¤hrend":2752,"achsen":2753,"ritte":2754,"Ã¤ndert":2755,"fluss":2756,"ĠGericht":2757,"pft":2758,"serv":2759,"ĠLuft":2760,"mÃ¤ssig":2761,"ĠWill":2762,"Ġerreicht":2763,"reiche":2764,"ĠSpital":2765,"Ġdarin":2766,"des":2767,"rd":2768,"erv":2769,"Ġnot":2770,"etten":2771,"ĠNatur":2772,"ĠmÃ¶chte":2773,"ĠgehÃ¶rt":2774,"mut":2775,"ĠÃ¶":2776,"ĠSituation":2777,"ĠAbt":2778,"Ġmindestens":2779,"Ġweiss":2780,"ĠForscher":2781,"besondere":2782,"Ġlaufen":2783,"rax":2784,"erne":2785,"spolitik":2786,"ĠRegul":2787,"ublik":2788,"ĠMitglied":2789,"ief":2790,"inen":2791,"itze":2792,"schliessen":2793,"Ġfal":2794,"ĠWettbewerb":2795,"anteil":2796,"heor":2797,"Ġliegen":2798,"onds":2799,"Ġmich":2800,"denken":2801,"ĠStat":2802,"eller":2803,"sph":2804,"ĠKantons":2805,"ganisationen":2806,"Ġmo":2807,"ĠMet":2808,"ĠBehÃ¶rden":2809,"antwortung":2810,"ĠeuropÃ¤ischen":2811,"ĠDigitalisierung":2812,"Ġsagen":2813,"spl":2814,"leisch":2815,"Ġ202":2816,"Ġspricht":2817,"ĠÃ¶ffentlichen":2818,"rategie":2819,"wurf":2820,"andid":2821,"ĠJust":2822,"Ġauszu":2823,"ĠFreit":2824,"Ġ16":2825,"Ġmehrere":2826,"ĠArzt":2827,"ĠStudien":2828,"uppen":2829,"ĠRentenalter":2830,"Ġfolgen":2831,"ĠWider":2832,"ĠSchritt":2833,"schafter":2834,"istisch":2835,"ĠGrundeinkommen":2836,"agement":2837,"bieter":2838,"fessor":2839,"esser":2840,"ĠWohn":2841,"Ġscheint":2842,"ĠAuft":2843,"ĠRest":2844,"Ġspe":2845,"ĠEnergien":2846,"zin":2847,"achstum":2848,"Ġanges":2849,"Ġaufgrund":2850,"reiten":2851,"stelle":2852,"ĠMuslime":2853,"Ġbald":2854,"ĠBot":2855,"Ġbereit":2856,"ĠMÃ¶glichkeit":2857,"ĠSommer":2858,"Ġzuvor":2859,"Ġging":2860,"kennt":2861,"Ġbestimm":2862,"hundert":2863,"lassen":2864,"Ġdamals":2865,"staat":2866,"aler":2867,"Ġanzu":2868,"ĠHa":2869,"ĠArbeitgeber":2870,"ĠMigranten":2871,"ennen":2872,"indern":2873,"ite":2874,"ĠBo":2875,"Ġgez":2876,"ĠVerwalt":2877,"schiede":2878,"Ġbedeutet":2879,"mand":2880,"Ġakt":2881,"assismus":2882,"ierenden":2883,"ĠBetroffen":2884,"ĠAtom":2885,"ĠComputer":2886,"ĠBrÃ¼ssel":2887,"ntag":2888,"Ġsetzt":2889,"Ġgehe":2890,"Ġverab":2891,"stellten":2892,"ĠGemeinden":2893,"Mit":2894,"ipp":2895,"mart":2896,"up":2897,"yp":2898,"Ġsechs":2899,"ĠKomp":2900,"ions":2901,"leben":2902,"Ġschaffen":2903,"ĠEinfÃ¼hrung":2904,"Ġeigene":2905,"ĠMontag":2906,"ĠIdee":2907,"ĠZur":2908,"ĠNoch":2909,"ĠVerhand":2910,"Ġabzu":2911,"fÃ¼rwor":2912,"zehn":2913,"ehrt":2914,"ĠErfahr":2915,"ĠPartner":2916,"ĠUrteil":2917,"ĠPlastik":2918,"ĠDeshalb":2919,"ĠPaar":2920,"ĠWe":2921,"Ġlau":2922,"spricht":2923,"ĠErst":2924,"Ġwirklich":2925,"Ġsetzen":2926,"udget":2927,"Ġdeutschen":2928,"?/":2929,"aff":2930,"ĠJe":2931,"verl":2932,"Ġzweiten":2933,"echnet":2934,"ĠDieses":2935,"Ġamerikanischen":2936,"fragen":2937,"nov":2938,"recher":2939,"Ã¤ngt":2940,"ĠInd":2941,"ĠErhÃ¶hung":2942,"Ġzumindest":2943,"ĠHeraus":2944,"orit":2945,"brem":2946,"ĠPreise":2947,"ĠgrÃ¶ssten":2948,"denten":2949,"ĠJu":2950,"endum":2951,"Der":2952,"uer":2953,"erien":2954,"Ã¤te":2955,"are":2956,"ĠGeschichte":2957,"ĠKampf":2958,"ĠRisiko":2959,"ufen":2960,"ente":2961,"scher":2962,"berg":2963,"ĠAnd":2964,"ĠVorschlag":2965,"Ã¤ngst":2966,"ĠUnterstÃ¼tzung":2967,"zeiten":2968,"Ġneben":2969,"ĠET":2970,"ĠBil":2971,"urlaub":2972,"rechte":2973,"loss":2974,"Ġ2014":2975,"ĠJustiz":2976,"ron":2977,"Ġeinigen":2978,"ikel":2979,"ĠGesprÃ¤":2980,"ĠKont":2981,"ĠerklÃ¤rte":2982,"Ġhohe":2983,"ĠHinter":2984,"uellen":2985,"ĠSuch":2986,"Ġhandelt":2987,"ĠKern":2988,"ĠPer":2989,"ĠTreib":2990,"Ġmittler":2991,"sequ":2992,"Ġschliesslich":2993,"jÃ¤hrigen":2994,"ĠTrotz":2995,"ferendum":2996,"fÃ¼gung":2997,"Ġleisten":2998,"Ġbezahl":2999,"ĠKirche":3000,"pothe":3001,"rÃ¤t":3002,"Ġgegeben":3003,"ĠVerhalten":3004,"Ã¼nde":3005,"ĠhÃ¶here":3006,"ĠBuch":3007,"ĠErgeb":3008,"Ã¼cken":3009,"Ġsozialen":3010,"ĠFilm":3011,"ĠGegner":3012,"det":3013,"frie":3014,"Ã¤h":3015,"oral":3016,"ĠRed":3017,"Ġbevor":3018,"ffekt":3019,"zentr":3020,"folgen":3021,"ĠFreiheit":3022,"radition":3023,"zeug":3024,"ĠGrossb":3025,"erin":3026,"stimmung":3027,"ĠHeute":3028,"edig":3029,"ĠKonsu":3030,"nerstag":3031,"ĠKantonen":3032,"ekten":3033,"ĠFÃ¤llen":3034,"Aus":3035,"National":3036,"gef":3037,"ĠDro":3038,"ĠInstitut":3039,"âĢħ":3040,"Ã¤hlen":3041,"stÃ¤ndig":3042,"ĠKryptowÃ¤hrungen":3043,"PrÃ¤sident":3044,"ĠBur":3045,"Ġinvest":3046,"ix":3047,"ĠSw":3048,"ĠKapital":3049,"ĠWachstum":3050,"ĠLib":3051,"ĠBundesamt":3052,"ĠBerlin":3053,"bildung":3054,"Ġmensch":3055,"ĠOnline":3056,"Ġdank":3057,"iegen":3058,"ielle":3059,"Ã¼sse":3060,"ĠSmart":3061,"ĠGel":3062,"Ġdemokrat":3063,"geschlossen":3064,"iess":3065,"ĠAkt":3066,"Ġneg":3067,"ĠFern":3068,"ĠWohl":3069,"Ġletzt":3070,"reisen":3071,"ĠGewerk":3072,"losen":3073,"echsel":3074,"ĠGesundheit":3075,"ĠDonnerstag":3076,"schlÃ¤ge":3077,"ras":3078,"Ġung":3079,"Ġweg":3080,"orte":3081,"ets":3082,"Ġkanton":3083,"ĠIt":3084,"ĠTage":3085,"Ġwolle":3086,"linge":3087,"ĠdÃ¼rften":3088,"raxis":3089,"ediglich":3090,"fel":3091,"kul":3092,"mel":3093,"abl":3094,"ĠZusammenh":3095,"ĠVerfassungs":3096,"wart":3097,"Ġdirekt":3098,"inge":3099,"Ġmir":3100,"aur":3101,"ĠjÃ¤hrlich":3102,"Ġ2020":3103,"klÃ¤rung":3104,"ovember":3105,"ĠApple":3106,"Ġdir":3107,"under":3108,"org":3109,"berecht":3110,"Ġverd":3111,"Ġliber":3112,"ĠNeben":3113,"ĠAuswirkungen":3114,"ĠGesamt":3115,"forderungen":3116,"chnung":3117,"konom":3118,"ĠFrankreich":3119,"xim":3120,"Ġak":3121,"ĠVort":3122,"ĠTem":3123,"reise":3124,"ĠbestÃ¤t":3125,"ĠDazu":3126,"ĠBildung":3127,"Ġzeig":3128,"reund":3129,"ĠTest":3130,"Ġlediglich":3131,"oph":3132,"Ã¤lter":3133,"Ġgesam":3134,"ĠPfle":3135,"ĠerhÃ¶ht":3136,"Ġrichtig":3137,"ZZ":3138,"uman":3139,"sorgung":3140,"llung":3141,"test":3142,"ark":3143,"ĠWest":3144,"issions":3145,"verbot":3146,"hausg":3147,"gest":3148,"ĠMÃ¤r":3149,"ĠVide":3150,"ĠAnaly":3151,"Ġregul":3152,"unge":3153,"ĠverÃ¶ffent":3154,"ĠEinsatz":3155,"iste":3156,"ĠAuto":3157,"Ġverhindern":3158,"ĠTreibhausg":3159,"ĠItalien":3160,"nei":3161,"ĠUno":3162,"wachsen":3163,"Ġgemeinsam":3164,"ĠFortsch":3165,"osen":3166,"sehen":3167,"eils":3168,"inner":3169,"Ġzentr":3170,"ĠMiss":3171,"ehler":3172,"pflich":3173,"ĠBereits":3174,"schriften":3175,"ĠSe":3176,"ĠWahr":3177,"ĠStra":3178,"ĠIndustrie":3179,"ott":3180,"ĠZugang":3181,"Ġpolitisch":3182,"Ġirgend":3183,"Ġjemand":3184,"iffen":3185,"Ã¼nen":3186,"Ġvielleicht":3187,"bereich":3188,"wendung":3189,"beit":3190,"dung":3191,"Ã¼h":3192,"Ã¤cht":3193,"Ã¶ss":3194,"urt":3195,"Ã¤hrt":3196,"otenzial":3197,"gehend":3198,"ĠSeite":3199,"Ġinzwischen":3200,"Ġverein":3201,"Ġeigentlich":3202,"ĠKonsumenten":3203,"Ġkosten":3204,"ay":3205,"kÃ¼nd":3206,"Ġverf":3207,"ftware":3208,"Ġreag":3209,"Ġobwohl":3210,"ĠLuzern":3211,"unkte":3212,"teten":3213,"ĠEng":3214,"Staaten":3215,"Ġhohen":3216,"ĠerhÃ¶hen":3217,"Ã¶se":3218,"Ġ21":3219,"ĠKinderbet":3220,"ĠMÃ¤nnern":3221,"ĠgrÃ¶sste":3222,"hem":3223,"Ġmeist":3224,"ssp":3225,"agd":3226,"ĠReferendum":3227,"Ġganze":3228,"Ġargument":3229,"ventionen":3230,"nehm":3231,"ĠKita":3232,"ĠÃľberwachung":3233,"Ġel":3234,"ĠRat":3235,"Ġumf":3236,"Ġweiteren":3237,"rifft":3238,"Ġ65":3239,"ĠInformationen":3240,"ĠBlock":3241,"kennen":3242,"riff":3243,"ĠAmaz":3244,"Ġernst":3245,"ĠBehand":3246,"Ġinternationalen":3247,"ĠInvestitionen":3248,"ĠAmazon":3249,"Jahr":3250,"stritten":3251,"Ġwider":3252,"ĠKom":3253,"ĠPost":3254,"ĠVerfÃ¼gung":3255,"ĠKlimasch":3256,"system":3257,"Ġzahlen":3258,"arten":3259,"ement":3260,"reiber":3261,"Ġklein":3262,"fristig":3263,"ĠgrundsÃ¤tzlich":3264,"bel":3265,"ile":3266,"Ġmag":3267,"weile":3268,"Ã¤nden":3269,"euern":3270,"Ġ13":3271,"ĠGruppe":3272,"Ġdurchaus":3273,"Ã¼tz":3274,"sichtlich":3275,"ĠKrank":3276,"struktur":3277,"ĠLibra":3278,"dienst":3279,"enken":3280,"Ġwachsen":3281,"Ġeinst":3282,"ĠFleisch":3283,"ĠerfÃ¼":3284,"ĠZwar":3285,"ĠNacht":3286,"iken":3287,"egan":3288,"Ã¤tig":3289,"ierende":3290,"Ġentst":3291,"Ġ198":3292,"ĠGemÃ¤ss":3293,"ĠEmissionen":3294,"ĠDurchschnitt":3295,"yn":3296,"ĠKindern":3297,"ĠWasser":3298,"ĠRassismus":3299,"cke":3300,"immungen":3301,"bringen":3302,"Ġ80":3303,"ĠgefÃ¤hr":3304,"ĠauslÃ¤nd":3305,"iftung":3306,"greifen":3307,"polit":3308,"richten":3309,"Ġihres":3310,"Ã¶rder":3311,"ĠmÃ¶glichst":3312,"ĠMedikamenten":3313,"ĠGewinn":3314,"hei":3315,"ĠFÃ¼hr":3316,"ĠfÃ¤":3317,"ĠkÃ¼rz":3318,"ĠAngst":3319,"Ġ24":3320,"weizer":3321,"Ġ2030":3322,"lohn":3323,"ĠMitarbeiter":3324,"Ġbringt":3325,"Ã¼ndet":3326,"Ġglobalen":3327,"Ġverlangt":3328,"fir":3329,"ĠModell":3330,"Ġverpflich":3331,"Ã¶rper":3332,"ĠPlatz":3333,"ffizien":3334,"sphÃ¤re":3335,"gern":3336,"mien":3337,"setzt":3338,"ĠApothe":3339,"wÃ¤rt":3340,"ĠgehÃ¶ren":3341,"ĠBefragten":3342,"JÃ¤hr":3343,"Kon":3344,"bank":3345,"fil":3346,"ĠSil":3347,"ĠGeh":3348,"elfen":3349,"annien":3350,"ritannien":3351,"blick":3352,"andeln":3353,"quote":3354,"ĠEmissions":3355,"ĠSmartph":3356,"zember":3357,"ĠAfr":3358,"ĠOder":3359,"steller":3360,"ruktur":3361,"Ġganzen":3362,"ĠMonaten":3363,"ĠÃĦn":3364,"ĠBeitrag":3365,"schaftsurlaub":3366,"zÃ¼gigkeit":3367,"tra":3368,"ension":3369,"Ġselten":3370,"ĠSonntag":3371,"wÃ¼rd":3372,"wahl":3373,"ĠSex":3374,"Ġne":3375,"ĠWahlen":3376,"ĠAusser":3377,"ĠUmsetzung":3378,"ĠStrassen":3379,"pagne":3380,"Sp":3381,"ity":3382,"ĠDort":3383,"ĠgÃ¼nst":3384,"ĠLage":3385,"ĠTel":3386,"ologischen":3387,"ĠRisiken":3388,"ĠNutzer":3389,"ĠZusammenhang":3390,"chnen":3391,"anach":3392,"anger":3393,"Ġmedizin":3394,"ĠBanken":3395,"ĠMobil":3396,"Ġjunge":3397,"Ġdeutsche":3398,"Ġleicht":3399,"ĠWeise":3400,"tember":3401,"ĠGrossbritannien":3402,"atisch":3403,"Ġbin":3404,"ĠFuss":3405,"Ġfort":3406,"ĠKopf":3407,"ĠPraxis":3408,"ĠEinfluss":3409,"istor":3410,"erseits":3411,"Ġinsbesondere":3412,"Ġhervor":3413,"ĠbeschÃ¤ft":3414,"ĠVerbot":3415,"vision":3416,"Ġmusste":3417,"Ġautomat":3418,"ĠJuni":3419,"ĠÃĸffent":3420,"iew":3421,"ĠWeil":3422,"ĠErd":3423,"ĠOpfer":3424,"ĠGrÃ¼nen":3425,"ĠKonfl":3426,"Ã¤mpfen":3427,"ĠSicherheits":3428,"ĠBasis":3429,"mÃ¶gen":3430,"Fr":3431,"ĠMasch":3432,"ĠAnspruch":3433,"bew":3434,"wendet":3435,"troll":3436,"ifik":3437,"wegung":3438,"eptember":3439,"Ġdefin":3440,"ĠResult":3441,"ĠNew":3442,"ĠFreitag":3443,"frieden":3444,"ĠPass":3445,"ĠWeb":3446,"ĠRaum":3447,"ĠTw":3448,"bÃ¼rger":3449,"bruch":3450,"uren":3451,"Ġverurs":3452,"ĠTÃ¼r":3453,"ĠlÃ¤ngst":3454,"ielten":3455,"Ġspielen":3456,"ĠStellung":3457,"ĠRegierungs":3458,"renten":3459,"bieten":3460,"jÃ¤hrige":3461,"Ġbilater":3462,"bremse":3463,"Ges":3464,"IC":3465,"ĠSam":3466,"etter":3467,"rop":3468,"ĠTe":3469,"Ġbeein":3470,"gerechnet":3471,"Ġrasch":3472,"ologien":3473,"Ġeng":3474,"ĠInitianten":3475,"ĠHÃ¶he":3476,"ĠNieder":3477,"ĠRedu":3478,"ĠKinderbetreuung":3479,"ull":3480,"vo":3481,"isierte":3482,"ĠVerhÃ¤ltnis":3483,"Ġbesten":3484,"sport":3485,"Ġsonst":3486,"Ġjede":3487,"ĠAbstimmung":3488,"Ab":3489,"ĠÃ¤ndern":3490,"Ġaktiv":3491,"ĠKor":3492,"Ġangeb":3493,"Ġaufzu":3494,"ĠHeim":3495,"ĠJul":3496,"Ġvorge":3497,"Ġgenug":3498,"Ġjedes":3499,"Ġ70":3500,"Ġstellte":3501,"Ġeinzelnen":3502,"ĠSwiss":3503,"ĠSÃ¼d":3504,"ĠRu":3505,"Ġschwar":3506,"ĠAngebot":3507,"gesprochen":3508,"ĠMark":3509,"ĠExit":3510,"Ġgleichzeitig":3511,"ĠEbene":3512,"Ġweder":3513,"ĠMinder":3514,"ĠFakt":3515,"ĠLehr":3516,"ĠRep":3517,"lose":3518,"gesehen":3519,"Ġebenso":3520,"ĠRichter":3521,"vertrag":3522,"Kommission":3523,"ksam":3524,"Ġsprach":3525,"teilt":3526,"folgt":3527,"ĠVertrÃ¤ge":3528,"ĠGesichtser":3529,"ĠJugend":3530,"ĠKlimaschutz":3531,"ossen":3532,"part":3533,"ĠPap":3534,"ĠprÃ¤sent":3535,"Ġtragen":3536,"Ã¤uft":3537,"Ġwiederum":3538,"euerung":3539,"ĠjÃ¼ng":3540,"ĠkÃ¼nstliche":3541,"Ġzuletzt":3542,"Ġnotwend":3543,"hil":3544,"Ġro":3545,"ĠÃ¤lter":3546,"chain":3547,"Ġsinn":3548,"ork":3549,"Ġerhe":3550,"Ġoffiz":3551,"ĠschÃ¼tzen":3552,"sprach":3553,"arbeitet":3554,"ordne":3555,"stoff":3556,"Ġniemand":3557,"Ġprofitieren":3558,"keits":3559,"Ġsetz":3560,"Ġat":3561,"Ġfl":3562,"ĠWÃ¼r":3563,"Ġprakt":3564,"ĠAusgaben":3565,"formen":3566,"ĠGegenteil":3567,"hoben":3568,"ĠGemeinde":3569,"ĠForschung":3570,"Ġtiefer":3571,"ĠChancen":3572,"Ġinteress":3573,"aun":3574,"enc":3575,"unternehmen":3576,"ĠDel":3577,"ĠSchon":3578,"ĠInf":3579,"uld":3580,"ĠBedeut":3581,"ĠSprach":3582,"peratur":3583,"haltung":3584,"ĠDafÃ¼r":3585,"ĠFinanzierung":3586,"Ġkommenden":3587,"ĠMÃ¶glichkeiten":3588,"ĠnÃ¶tig":3589,"ev":3590,"haben":3591,"jen":3592,"Ġend":3593,"stadt":3594,"Ġill":3595,"Ġgestellt":3596,"Ã¤nderung":3597,"Ġkonnten":3598,"ĠZwischen":3599,"ĠETH":3600,"Em":3601,"afft":3602,"lass":3603,"masch":3604,"tragen":3605,"Ġacht":3606,"ĠSache":3607,"Ġnutzen":3608,"Ġgerne":3609,"ĠVerwahr":3610,"Ġpass":3611,"indung":3612,"ĠÃ¼berras":3613,"anzen":3614,"ograf":3615,"Ã¼cksicht":3616,"Ġwollten":3617,"ĠArbeitnehmer":3618,"leistungen":3619,"Ġorganis":3620,"Ġgleichen":3621,"aktion":3622,"wo":3623,"ied":3624,"ĠBÃ¼r":3625,"Ġindem":3626,"Ġerle":3627,"reb":3628,"ĠLeg":3629,"amer":3630,"Ġres":3631,"Ġbeschlossen":3632,"ĠIntegr":3633,"irektor":3634,"ĠBranche":3635,"ĠMeinung":3636,"hÃ¤":3637,"jekte":3638,"seit":3639,"ĠSeptember":3640,"ali":3641,"Ã¼rf":3642,"ause":3643,"ĠVier":3644,"ums":3645,"ĠNZZ":3646,"Ġbeant":3647,"Ġbekommen":3648,"halte":3649,"lieben":3650,"barkeit":3651,"Ġ2013":3652,"utzt":3653,"ripp":3654,"Ġbezei":3655,"Ġverschiedenen":3656,"ins":3657,"ana":3658,"ĠSeiten":3659,"ĠfÃ¼hl":3660,"Ġgeplan":3661,"ĠIst":3662,"ĠNamen":3663,"ĠInnov":3664,"ĠBeim":3665,"Ġgener":3666,"ĠBetrieb":3667,"ĠThom":3668,"Ã¤hler":3669,"ĠAntwort":3670,"ĠKrankenkasse":3671,"Ġrelativ":3672,"Gr":3673,"ĠKoll":3674,"Ġerh":3675,"Ġerlaubt":3676,"ĠNor":3677,"ĠVerantwortung":3678,"ivil":3679,"iziert":3680,"iveau":3681,"ĠPersonenfrei":3682,"ĠzunÃ¤chst":3683,"Ġinnerhalb":3684,"ĠAuftrag":3685,"ete":3686,"hle":3687,"ĠnatÃ¼rlich":3688,"ĠKandid":3689,"achtet":3690,"ĠRad":3691,"ĠLiber":3692,"ĠVersuch":3693,"ĠInflu":3694,"ĠProgramm":3695,"Ġbetrach":3696,"Ġgenommen":3697,"ziell":3698,"ournal":3699,"ĠFÃ¤lle":3700,"Ġentwickelt":3701,"Ġziehen":3702,"ĠBedeutung":3703,"finanz":3704,"gliche":3705,"wissen":3706,"ĠSan":3707,"arlament":3708,"Ã¶rung":3709,"ĠHerbst":3710,"ĠBranchen":3711,"ĠIhre":3712,"ĠAdoption":3713,"ĠThomas":3714,"iment":3715,"lassung":3716,"res":3717,"ĠbÃ¼rger":3718,"ĠJob":3719,"ĠGrenz":3720,"ĠEntscheidung":3721,"aussetz":3722,"ĠÃ¼berzeugt":3723,"asten":3724,"orn":3725,"orgt":3726,"ĠEle":3727,"Ġle":3728,"ernen":3729,"rÃ¤um":3730,"Ġnachhalt":3731,"ĠBerat":3732,"gangs":3733,"LIC":3734,"av":3735,"ĠX":3736,"unsch":3737,"esent":3738,"itel":3739,"ĠAd":3740,"ĠNovember":3741,"ĠAngaben":3742,"ĠAussen":3743,"rÃ¤gen":3744,"Ġwenige":3745,"ĠInteressen":3746,"ĠFirma":3747,"ĠzusÃ¤tzliche":3748,"ĠChance":3749,"Ġzunehmend":3750,"wohner":3751,"Ġakzept":3752,"LICK":3753,".)":3754,"uar":3755,"stein":3756,"ĠDi":3757,"ĠhÃ¤ufig":3758,"ĠWo":3759,"ktober":3760,"ĠStatt":3761,"sex":3762,"ĠJahrzehn":3763,"Ġkleine":3764,"Ġforder":3765,"Ġbeding":3766,"ĠGesichtserkennung":3767,"anst":3768,"Ã¤den":3769,"atten":3770,"ĠDep":3771,"ĠKauf":3772,"ausch":3773,"auern":3774,"ros":3775,"ĠVoll":3776,"isierten":3777,"Ġvern":3778,"ĠNord":3779,"ĠJan":3780,"Ġpaar":3781,"ĠErwÃ¤rmung":3782,"ĠAltern":3783,"Ġnahe":3784,"gorit":3785,"athol":3786,"Ġbem":3787,"Ġzug":3788,"ĠgefÃ¼hrt":3789,"Ġsowohl":3790,"ĠprÃ¼":3791,"ĠProfessor":3792,"Ã¶rt":3793,"Ġentgegen":3794,"samm":3795,"Ġerster":3796,"sterreich":3797,"ĠDezember":3798,"gorith":3799,".,":3800,"Ã¼l":3801,"Ã¤kul":3802,"ĠSÃ¤u":3803,"ĠunabhÃ¤ng":3804,"Ġpsych":3805,"alley":3806,"ĠOber":3807,"Ġdurchschnitt":3808,"ĠImpf":3809,"ĠAufgabe":3810,"ĠMehrwert":3811,"Ġtief":3812,"ĠMil":3813,"entwick":3814,"Ġunver":3815,"Ġschlecht":3816,"Ġumstritten":3817,"griffen":3818,"Ġzweite":3819,"Ġunserer":3820,"ĠStreit":3821,"ĠMai":3822,"ĠGrÃ¼nden":3823,"Ġbewusst":3824,"ĠKontrolle":3825,"ĠSchuldenbremse":3826,"ĠSubventionen":3827,"rÃ¤tin":3828,"ĠPersonenfreizÃ¼gigkeit":3829,"kran":3830,"schuss":3831,"ĠBudget":3832,"Ã¶hn":3833,"stellte":3834,"rÃ¤sidenten":3835,"aktionen":3836,"osex":3837,"ziehungen":3838,"Ġsogenannte":3839,"lÃ¤ndern":3840,"iellen":3841,"Ġsin":3842,"ĠBre":3843,"ĠPsych":3844,"ĠPension":3845,"bert":3846,"ĠerhÃ¤lt":3847,"Ġ23":3848,"ienen":3849,"ĠVorstoss":3850,"blig":3851,"Ġspielt":3852,"ĠImmer":3853,"ĠUnterschiede":3854,"Ġverboten":3855,"ĠĠĠ":3856,"ĠForschungs":3857,"Ġehem":3858,"ĠÃ¶ffentliche":3859,"ĠWissenschaft":3860,"Ġkompl":3861,"ĠKonkurrenz":3862,"fung":3863,"wegen":3864,"onen":3865,"Ġbl":3866,"ĠfÃ¶r":3867,"ĠVis":3868,"ungsinitiative":3869,"klar":3870,"Ġbetont":3871,"ĠStellen":3872,"ĠPrinzip":3873,"Initiative":3874,"ĠĠĠĠĠĠĠ":3875,"ĠÃĸffentlichkeit":3876,"Ġsomit":3877,"ierter":3878,"ution":3879,"weils":3880,"ĠStart":3881,"abis":3882,"vorsorge":3883,"Ġjeweils":3884,"ickt":3885,"ĠPhil":3886,"Ġsogenannten":3887,"ĠVerhandlungen":3888,"ĠkÃ¼rzlich":3889,"ĠReduktion":3890,"xit":3891,"Ġrad":3892,"Ġmein":3893,"ĠBen":3894,"omin":3895,"Ġof":3896,"ĠIndien":3897,"Ġbeide":3898,"istik":3899,"Ġsolle":3900,"gruppe":3901,"ĠArgument":3902,"ĠBefÃ¼rwor":3903,"Ġanderer":3904,"pflicht":3905,"ĠUmgang":3906,"Ġ197":3907,"hof":3908,"iffer":3909,"ĠProduktion":3910,"Ġabsol":3911,"krÃ¤fte":3912,"bil":3913,"hard":3914,"wesen":3915,"Ã¼m":3916,"itÃ¤r":3917,"ehin":3918,"ĠHe":3919,"ĠNeg":3920,"Ġsozial":3921,"spiele":3922,"ĠAugen":3923,"hnehin":3924,"Ġabgel":3925,"demokrat":3926,"ĠForderung":3927,"Ġform":3928,"Ġglobale":3929,"Ein":3930,"sein":3931,"uell":3932,"unk":3933,"Ġnationalen":3934,"arch":3935,"Ġislam":3936,"ĠMerk":3937,"ĠKommun":3938,"ĠEinsch":3939,"ĠGebur":3940,"Ġsprechen":3941,"ĠMonate":3942,"wanderer":3943,"ĠFlÃ¼chtl":3944,"ress":3945,"ĠAktiv":3946,"ign":3947,"ĠValley":3948,"ĠUhr":3949,"ĠAnbieter":3950,"Ġkleinen":3951,"Ġgrosser":3952,"ĠPrivatsphÃ¤re":3953,"herapie":3954,"Emissionen":3955,"Ġdu":3956,"ĠvÃ¶":3957,"elten":3958,"ĠRo":3959,"ĠLÃ¶":3960,"weiten":3961,"rain":3962,"ranche":3963,"Ġgewisse":3964,"Ã¼tzt":3965,"ĠTages":3966,"ĠGesprÃ¤ch":3967,"ĠBlockchain":3968,"nÃ¼":3969,"zig":3970,"zahlen":3971,"Ġur":3972,"Ġeingesetzt":3973,"isen":3974,"ehmer":3975,"ĠAnrei":3976,"opul":3977,"ĠBundesver":3978,"folge":3979,"ĠStrasse":3980,"ĠBeginn":3981,"ĠVaterschaftsurlaub":3982,"Ġdiskutiert":3983,"air":3984,"gte":3985,"gefÃ¼hrt":3986,"ĠDann":3987,"werken":3988,"ice":3989,"ĠjÃ¼ngst":3990,"ĠunterstÃ¼tzt":3991,"ĠfÃ¤llt":3992,"dacht":3993,"ko":3994,"machen":3995,"ĠSzen":3996,"Ġnational":3997,"ĠIdent":3998,"Ġant":3999,"Ġbeob":4000,"ĠAnliegen":4001,"ĠGrenzen":4002,"ĠeingefÃ¼hrt":4003,"Ġbrauche":4004,"error":4005,"ĠTwitter":4006,"eden":4007,"ocker":4008,"tur":4009,"ette":4010,"ĠZiele":4011,"annabis":4012,"ĠÃ¼berw":4013,"Ġdadurch":4014,"ĠVoraussetz":4015,"izit":4016,"Ġherr":4017,"Ġwichtige":4018,"ĠPrÃ¤mien":4019,"ĠBeitrÃ¤ge":4020,"ymp":4021,"Ġtrotzdem":4022,"redit":4023,"Ġheutigen":4024,"ĠMÃ¤rz":4025,"blich":4026,"ct":4027,"ĠGed":4028,"raktion":4029,"ĠEinnahmen":4030,"ĠRede":4031,"ĠWerbe":4032,"ĠPersonal":4033,"icon":4034,"behÃ¶rden":4035,"Ġbezahlen":4036,"ĠverstÃ¤r":4037,"ĠBasel":4038,"ĠLeistungen":4039,"Ġbieten":4040,"sprÃ¼n":4041,"Re":4042,"rich":4043,"stÃ¤t":4044,"schau":4045,"ĠWor":4046,"Ġvers":4047,"Ġausgeb":4048,"ĠOpt":4049,"forn":4050,"rug":4051,"Ġbeteil":4052,"ĠMedizin":4053,"mitteln":4054,"Ġindividu":4055,"ĠZweck":4056,"ĠMitglieder":4057,"Ġstaatlichen":4058,"ĠHoff":4059,"ĠÃ¼br":4060,"Ġschwierig":4061,"Ġdigitalen":4062,"ĠTemperatur":4063,"aliforn":4064,"Wenn":4065,"âĤ":4066,"ieten":4067,"Ġsub":4068,"Ġbloss":4069,"Ġmachte":4070,"Ġhuman":4071,"ĠTier":4072,"Ġlok":4073,"anzÃ¶s":4074,"omme":4075,"Ġberuf":4076,"ĠLinie":4077,"Ġsoziale":4078,"Ġbietet":4079,"daten":4080,"ox":4081,"prÃ¤sident":4082,"ĠDeta":4083,"arma":4084,"deck":4085,"ftige":4086,"agn":4087,"rastruktur":4088,"Ġ2050":4089,"Ã¶rsen":4090,"eister":4091,"Ġoffenbar":4092,"ĠhÃ¶heren":4093,"Ġentsprechende":4094,"Ġerwartet":4095,"ĠVermÃ¶gen":4096,"ĠJagd":4097,"ĠbefÃ¼r":4098,"ĠProzess":4099,"stellungen":4100,"Ġwenigen":4101,"ingend":4102,"fÃ¼hl":4103,"ĠArbeitsmarkt":4104,"ĠTrend":4105,"reuungs":4106,"fÃ¤hig":4107,"glei":4108,"iat":4109,"nissen":4110,"Ã¼ssen":4111,"aup":4112,"Ġanst":4113,"ĠVergangen":4114,"ĠCannabis":4115,"Ġentspricht":4116,"ĠBundesgericht":4117,"vorschlag":4118,"ĠGeschlecht":4119,"odelle":4120,"ĠWahlkampf":4121,"Ġinternational":4122,"Ġzeigte":4123,"handen":4124,"hren":4125,"ĠMassen":4126,"ĠPunkt":4127,"Ġgek":4128,"Ġgekommen":4129,"Ġverantwort":4130,"ĠZul":4131,"ĠHil":4132,"ĠInland":4133,"ruar":4134,"eutr":4135,"ĠUmfrage":4136,"ersonen":4137,"lingen":4138,"Ġreduzieren":4139,"Nationalrat":4140,"ĠAusserdem":4141,"ĠBrexit":4142,"nungs":4143,"Ġ#":4144,"ieden":4145,"ĠSk":4146,"Ġauss":4147,"ĠEind":4148,"ftigen":4149,"Ġohnehin":4150,"leitet":4151,"Ġwarum":4152,"ĠSpitzen":4153,"zif":4154,"Ġgesehen":4155,"ĠWirkung":4156,"ĠEmpf":4157,"ibil":4158,"ĠSchweden":4159,"ĠBegriff":4160,"ĠGrÃ¼nde":4161,"ĠBedÃ¼rf":4162,"mÃ¶glichen":4163,"Ġfunktioniert":4164,"ĠWiderstand":4165,"Ġmittlerweile":4166,"dessen":4167,"umen":4168,"Ġbrit":4169,"ĠTagen":4170,"ĠTerror":4171,"spekt":4172,"ĠChef":4173,"Ġproduz":4174,"ĠVerband":4175,"ĠQualitÃ¤t":4176,"ĠTechnologien":4177,"ĠerwÃ¤":4178,"Ġintegr":4179,"off":4180,"tliche":4181,"view":4182,"stimmen":4183,"Ġsorgen":4184,"Ġinform":4185,"Ġhelfen":4186,"ĠGanz":4187,"ĠGest":4188,"verteilung":4189,"ĠRechte":4190,"essern":4191,"ologische":4192,"drÃ¼ck":4193,"Ġindes":4194,"ĠVideo":4195,"ĠInfluenc":4196,"Ġehemal":4197,"anad":4198,"ĠwÃ¼n":4199,"Ã¤st":4200,"ĠWa":4201,"ison":4202,"Ġtradition":4203,"ĠOffen":4204,"Ġentschieden":4205,"ebruar":4206,"Ġverschw":4207,"rÃ¤nkt":4208,"ondon":4209,"Ġ1990":4210,"bligator":4211,"ĠNegativ":4212,"schung":4213,"arzt":4214,"ĠMart":4215,"ĠPublik":4216,"Ã¤ne":4217,"ahren":4218,"Ġjungen":4219,"schaff":4220,"ĠOst":4221,"astung":4222,"Ġgarant":4223,"ĠProdukt":4224,"Ġextrem":4225,"ĠAngestellten":4226,"griffe":4227,"scheinlich":4228,"Ġchinesischen":4229,"Ġgezeigt":4230,"Ġsinnvoll":4231,"ĠIntegration":4232,"ball":4233,"ew":4234,"eiger":4235,"iet":4236,"ones":4237,"gewalt":4238,"aritÃ¤t":4239,"Ġhiess":4240,"ĠFehler":4241,"Ġfoss":4242,"ĠKn":4243,"ĠKripp":4244,"Ġverwei":4245,"ĠHilfe":4246,"Ã¤tzt":4247,"ĠÃ¼bernehmen":4248,"Ġkontroll":4249,"konferenz":4250,"ohnt":4251,"eichnen":4252,"ĠDennoch":4253,"ĠWarum":4254,"ĠBotschaft":4255,"ĠBetroffenen":4256,"ĠDetail":4257,"Vor":4258,"bliche":4259,"unehmen":4260,"Ġfallen":4261,"igkeiten":4262,"Ġguten":4263,"Ġlanc":4264,"ĠVerfahren":4265,"ĠJournal":4266,"ĠAug":4267,"ĠgewÃ¤hr":4268,"ĠgenÃ¼":4269,"Ġ45":4270,"geschlagen":4271,"Ġverschiedene":4272,"Ġilleg":4273,"ĠElekt":4274,"gut":4275,"miss":4276,"ieht":4277,"Ġwest":4278,"Ġzeit":4279,"ĠBi":4280,"ĠMio":4281,"bericht":4282,"ĠRom":4283,"ehnen":4284,"ĠLondon":4285,"Ġunge":4286,"ĠAnsicht":4287,"ĠÃ¼bern":4288,"verfahren":4289,"ĠOhne":4290,"Ġregel":4291,"Ġgewalt":4292,"attform":4293,"richtung":4294,"Ġbessere":4295,"ĠEntwicklungs":4296,"ĠThemen":4297,"ĠYork":4298,"ĠTreibhausgas":4299,"Jahrhundert":4300,"âĤ¬":4301,"fort":4302,"ante":4303,"ichert":4304,"arg":4305,"organisation":4306,"ĠPolit":4307,"Ġkultur":4308,"ehm":4309,"ĠHal":4310,"Ġausgesprochen":4311,"ĠZug":4312,"Ġgesp":4313,"ĠGerade":4314,"ĠMassnahme":4315,"strafe":4316,"uft":4317,"Ã¤chen":4318,"ĠBLICK":4319,"Ġ(Â«":4320,"ternehmer":4321,"ĠVorsorge":4322,"gesellschaft":4323,"Ġreal":4324,"Ġdarunter":4325,"ĠStelle":4326,"laufen":4327,"ĠBetreuung":4328,"Ġwichtiger":4329,"ublin":4330,"ĠRichtung":4331,"volution":4332,"ĠVertrauen":4333,"ĠSitz":4334,"ĠFebruar":4335,"ĠAnp":4336,"eilen":4337,"Ġkeiner":4338,"ĠSoftware":4339,"Ġliess":4340,"ance":4341,"ĠPflicht":4342,"Ġwissenschaft":4343,"ĠVerfassung":4344,"atik":4345,"arn":4346,"igungen":4347,"ĠWol":4348,"ĠRh":4349,"ĠRund":4350,"reitet":4351,"Ġ28":4352,"schaffen":4353,"ĠberÃ¼cksicht":4354,"Ġkonk":4355,"Ã¤ub":4356,"kept":4357,"Ġniedr":4358,"Ġbehaup":4359,"ĠArtikel":4360,"leistung":4361,"Ġverzichten":4362,"ĠZentral":4363,"ĠAltersvorsorge":4364,"ĠRegulierung":4365,"Ġc":4366,"Ġsenken":4367,"ĠRuss":4368,"Ġverank":4369,"Ġstand":4370,"Ġsteigt":4371,"anne":4372,"indust":4373,"Ġumge":4374,"Ġrechnen":4375,"ĠgegenwÃ¤rt":4376,"Ã¼tter":4377,"ĠArbeitspl":4378,"Ġverbunden":4379,"Ġverloren":4380,"Ġbrauchen":4381,"Ġteilweise":4382,"Ġmuslim":4383,"ĠKitas":4384,"ĠAbtreib":4385,"ĠbestÃ¤tigt":4386,"ĠSÃ¤ule":4387,"fÃ¶rderung":4388,"macht":4389,"undes":4390,"Ã¤nn":4391,"Ġto":4392,"ĠGrenze":4393,"Ġ2011":4394,"innt":4395,"ĠWerte":4396,"Ġfestge":4397,"ĠzurÃ¼ckge":4398,"ĠParlaments":4399,"wegs":4400,"ziehungs":4401,"ĠVerkehrs":4402,"ĠStÃ¤dte":4403,"ĠSilicon":4404,"ĠWebs":4405,"industrie":4406,"uk":4407,"enkt":4408,"chmal":4409,"ina":4410,"genÃ¶ss":4411,"ĠGott":4412,"ĠKurz":4413,"ĠInstru":4414,"raten":4415,"Ġgesetzt":4416,"Ġkleiner":4417,"ĠHerr":4418,"ĠGenf":4419,"amilien":4420,"Ġfrem":4421,"ĠVerwahrung":4422,"heim":4423,"uh":4424,"uver":4425,"Ġdanach":4426,"ĠDan":4427,"ĠPosition":4428,"Ġkennt":4429,"ĠWÃ¤hler":4430,"Ġgl":4431,"ĠLang":4432,"ĠZivil":4433,"ĠHaltung":4434,"Ã¤ngen":4435,"ĠVernehm":4436,"ĠJetzt":4437,"oping":4438,"ĠUnterschied":4439,"ĠAlltag":4440,"ĠVertrag":4441,"ĠKonzerne":4442,"fÃ¤higkeit":4443,"Ġerwarten":4444,"ĠÃ¤hnlich":4445,"ĠAnders":4446,"ĠErfahrungen":4447,"ĠJanuar":4448,"ĠvÃ¶llig":4449,"buch":4450,"geordne":4451,"Ġvegan":4452,"ĠMÃ¼ll":4453,"ame":4454,"ĠStre":4455,"oper":4456,"ĠOktober":4457,"werte":4458,"forder":4459,"Ġgesagt":4460,"ĠGerichts":4461,"ĠUrs":4462,"bedarf":4463,"ĠunterstÃ¼tzen":4464,"ĠWillen":4465,"axim":4466,"kÃ¤m":4467,"pekt":4468,"sinn":4469,"uche":4470,"unst":4471,"ĠDublin":4472,"ĠMrd":4473,"ĠLei":4474,"ĠtÃ¶":4475,"Ġras":4476,"forderung":4477,"ĠKonsequ":4478,"Ġgewissen":4479,"icherheit":4480,"Ġhinzu":4481,"ĠUntersuch":4482,"Ġletzte":4483,"ĠOrganisation":4484,"Ġinternationale":4485,"ĠDonald":4486,"ĠVerwaltungs":4487,"Ġumfassen":4488,"ĠMehrwertsteuer":4489,"bauen":4490,"mÃ¤ss":4491,"geg":4492,"ĠAss":4493,"Ġbi":4494,"Ġmon":4495,"ĠGraf":4496,"ĠKurs":4497,"Ġkathol":4498,"ĠWen":4499,"ĠZeiten":4500,"reibung":4501,"ĠRegen":4502,"ĠBeziehungen":4503,"ĠBereichen":4504,"Ġstarke":4505,"Ġfordern":4506,"ĠÃ¶ffentlich":4507,"ĠStaatsan":4508,"ĠFahrzeu":4509,"Ġbetroffenen":4510,"verstÃ¤ndlich":4511,"Ġkantonalen":4512,"ĠAfrika":4513,"out":4514,"ufe":4515,"Ã¤gt":4516,"itt":4517,"ĠAbl":4518,"ĠPet":4519,"Ġvergleich":4520,"ĠTÃ¤ter":4521,"abr":4522,"Ġtr":4523,"ĠAuff":4524,"fahrt":4525,"Ġsolches":4526,"ĠGrundlage":4527,"press":4528,"Ġkritisiert":4529,"ĠGefÃ¤ng":4530,"ĠBefÃ¼rworter":4531,"Ã¤um":4532,"ĠSoll":4533,"ath":4534,"Ġhe":4535,"ĠPla":4536,"elte":4537,"ĠWel":4538,"deckt":4539,"Â»-":4540,"ĠVerkauf":4541,"ĠUnion":4542,"Ġseines":4543,"rÃ¤cht":4544,"barer":4545,"ĠZeitung":4546,"ĠEuropas":4547,"ĠZusatz":4548,"ĠBildungs":4549,"Ġerneuerbare":4550,"kÃ¼ndigt":4551,"To":4552,"messen":4553,"ene":4554,"ĠGol":4555,"Ġdenken":4556,"ĠermÃ¶glichen":4557,"ĠVersch":4558,"ĠEinwanderung":4559,"Ġabgesch":4560,"arbeits":4561,"ĠAlgorith":4562,"ĠNachbar":4563,"Ġverstehen":4564,"Ġamerikanische":4565,"ĠTrans":4566,"besch":4567,"rist":4568,"ĠDÃ¼r":4569,"Ġeinsch":4570,"Ġeingesch":4571,"Ġkaufen":4572,"Ġerkennen":4573,"euert":4574,"Ã¼hren":4575,"Ġ2010":4576,"kontro":4577,"atsache":4578,"freiheit":4579,"ĠMindestlohn":4580,"ĠStÃ¤dten":4581,"ĠAnalyse":4582,"Ġverpflichtet":4583,"ĠVergangenheit":4584,"kommission":4585,"zunehmen":4586,"ĠFÃ¶rderung":4587,"ĠWinter":4588,"ĠermÃ¶glich":4589,"Ġverwendet":4590,"Ġbeurteil":4591,"Ġstets":4592,"ĠprÃ¤":4593,"ĠâĢĵ,":4594,"Ġnachdem":4595,"liesst":4596,"ĠMenschenrechte":4597,"ĠOrt":4598,"platz":4599,"ichtete":4600,"ĠStandard":4601,"Ġversuchen":4602,"Ġbestimmten":4603,"ĠPaare":4604,"ĠAndre":4605,"ĠAktien":4606,"-,":4607,"fon":4608,"ias":4609,"kannt":4610,"oben":4611,"ĠWind":4612,"ĠWunsch":4613,"Ġgebracht":4614,"ĠStiftung":4615,"Ġstimm":4616,"Ġunbe":4617,"ĠAnzahl":4618,"ĠErwerb":4619,"rÃ¤ger":4620,"Ġsolcher":4621,"ĠWeltk":4622,"geschlecht":4623,"mitglie":4624,"Ġverbessern":4625,"Ġeinzige":4626,"ĠOrganisationen":4627,"ĠPolen":4628,"handelt":4629,"bedingungen":4630,"ĠGleichzeitig":4631,"ositionen":4632,"ĠAngehÃ¶r":4633,"Ġausserhalb":4634,"ĠFlÃ¼chtlinge":4635,"Ġfehlt":4636,"ĠMotion":4637,"Ġerfolgreich":4638,"ĠTeam":4639,"jenigen":4640,"Chef":4641,"sel":4642,"ven":4643,"Ġmoral":4644,"ĠBro":4645,"ĠFunktion":4646,"Ġangenommen":4647,"vertr":4648,"merksam":4649,"Ġanderes":4650,"obei":4651,"Ã¤ndig":4652,"Ã¤ndler":4653,"ĠLandwirtschaft":4654,"Ġstarken":4655,"ĠAutor":4656,"Ġreduziert":4657,"ĠErnÃ¤hrung":4658,"ĠIndividu":4659,"Ġletztlich":4660,"ĠBehandlung":4661,"ĠÃ¼berraschen":4662,"ezial":4663,"ock":4664,"Ġwesent":4665,"ĠSh":4666,"techn":4667,"Ġnationale":4668,"eth":4669,"ĠTat":4670,"ellschaften":4671,"Ġstren":4672,"Ġmehreren":4673,"Ġfreiwill":4674,"ĠKampagne":4675,"ministerium":4676,"Ġfinanzielle":4677,"Ġautonom":4678,"ĠKryptowÃ¤hrung":4679,"ĠschlÃ¤gt":4680,"ĠHintergrund":4681,"ĠRussland":4682,"af":4683,"punkte":4684,"rig":4685,"chtet":4686,"Ã¼ter":4687,"itzt":4688,"Ġhand":4689,"Ġsteuer":4690,"âĢĻ":4691,"ĠtrÃ¤gt":4692,"ĠBez":4693,"Ġ500":4694,"ĠNachfrage":4695,"Ġjedem":4696,"ĠGeschlechter":4697,"Ġerstmals":4698,"Ġerneut":4699,"ĠTechnik":4700,"ĠDiskrimin":4701,"schulen":4702,"ĠfranzÃ¶s":4703,"ĠEngagement":4704,"Ġbezeichnet":4705,"Ph":4706,"aw":4707,"blichen":4708,"alismus":4709,"ĠKÃ¶rper":4710,"Ã¶pf":4711,"Ġgefordert":4712,"Ġans":4713,"omosex":4714,"Â»:":4715,"Ġungew":4716,"spolit":4717,"Ġtut":4718,"gruppen":4719,"ĠFrauenanteil":4720,"Ġ35":4721,"scheide":4722,"ĠExtrem":4723,"ĠAutos":4724,"worfen":4725,"ĠerklÃ¤ren":4726,"Ġgestiegen":4727,"ĠLÃ¶sungen":4728,"Ġstaatliche":4729,"ausend":4730,"ĠFortschritt":4731,"Man":4732,"seh":4733,"Ã¼ssel":4734,"ĠSatz":4735,"ĠBers":4736,"ĠBahn":4737,"ĠGlauben":4738,"ĠgeprÃ¤":4739,"ĠTim":4740,"oche":4741,"ikation":4742,"Ġ27":4743,"ĠÃ¼berprÃ¼":4744,"gton":4745,"werber":4746,"ĠrÃ¼ck":4747,"Ġ31":4748,"frikan":4749,"Ġ2008":4750,"ĠBlut":4751,"losigkeit":4752,"ĠRegelung":4753,"ĠTodes":4754,"sparenz":4755,"zulande":4756,"Ġengag":4757,"ecken":4758,"passen":4759,"sweise":4760,"uel":4761,"eind":4762,"Ġweshalb":4763,"ĠKein":4764,"Ã¶ch":4765,"Ã¶sse":4766,"ĠkÃ¤":4767,"Ġlag":4768,"Ġsieben":4769,"Ġ2000":4770,"ĠKonsum":4771,"oku":4772,"hington":4773,"Ġangewiesen":4774,"Ġwelchen":4775,"ĠkÃ¼nd":4776,"holt":4777,"ĠKamer":4778,"Ġ90":4779,"ĠBedingungen":4780,"artement":4781,"zusetzen":4782,"ĠKrankenkassen":4783,"Ġversucht":4784,"Ġfalsch":4785,"ĠErgebnis":4786,"ĠMissbrauch":4787,"ĠSmartphone":4788,"traktiv":4789,"partei":4790,"Ġrei":4791,"Ã¤her":4792,"emen":4793,"lichten":4794,"ĠLes":4795,"leger":4796,"Ġ22":4797,"Ġabl":4798,"ĠGruppen":4799,"Ġneuer":4800,"Ġneues":4801,"ektor":4802,"programm":4803,"ĠMonat":4804,"ĠÃĸsterreich":4805,"ĠBrenn":4806,"ĠGeschÃ¤fts":4807,"ĠInsgesamt":4808,"Ġgesellschaftlichen":4809,"ĠZentrum":4810,"ĠWesten":4811,"Ausstoss":4812,"Ġsubvention":4813,"mid":4814,"po":4815,"vid":4816,"Ġmaxim":4817,"ĠLetz":4818,"ĠUN":4819,"ĠStruktur":4820,"ochter":4821,"Ġstabil":4822,"ehren":4823,"ĠAns":4824,"grenze":4825,"ĠImm":4826,"nahm":4827,"Ã¤nderungen":4828,"ĠRegion":4829,"Ã¼ndung":4830,"wachstum":4831,"Ġjener":4832,"ĠBrut":4833,"zeichen":4834,"Ġerscheint":4835,"ĠMoment":4836,"ĠInfrastruktur":4837,"Ġbedingungs":4838,"ifferenz":4839,"gten":4840,"Ġsuchen":4841,"Ã¼ch":4842,"Ġblie":4843,"ĠEid":4844,"ĠMor":4845,"ĠPeter":4846,"ktionen":4847,"ĠNutzen":4848,"Ġtreffen":4849,"werbst":4850,"ĠKonzept":4851,"ĠSelbstbest":4852,"ĠGeneration":4853,"Ġgesamten":4854,"ĠHeimat":4855,"ĠGeburt":4856,"eige":4857,"Ġderart":4858,"schule":4859,"Ġeinger":4860,"ĠAktion":4861,"Ġzuge":4862,"ĠFok":4863,"Ġoben":4864,"Ġauseinander":4865,"Ġuner":4866,"gebote":4867,"astrop":4868,"worten":4869,"schiedet":4870,"ĠgrÃ¶ssere":4871,"ĠSinne":4872,"ĠPariser":4873,"ĠSuchmasch":4874,"Mrd":4875,"ue":4876,"zer":4877,"zten":4878,"erben":4879,"anch":4880,"ĠRess":4881,"ĠInnen":4882,"ĠtÃ¤":4883,"ĠRealitÃ¤t":4884,"ĠAusnahme":4885,"problem":4886,"ĠGegenvorschlag":4887,"scheidet":4888,"Ġunseren":4889,"ostet":4890,"wertung":4891,"ĠKlein":4892,"ĠReligions":4893,"Ġangesichts":4894,"ĠViertel":4895,"ĠJahrzehnten":4896,"zum":4897,"tels":4898,"ĠDes":4899,"ĠDrei":4900,"ĠMe":4901,"ĠFre":4902,"auber":4903,"Ġaussch":4904,"Ġschlechter":4905,"ĠAust":4906,"uchs":4907,"ziehung":4908,"ergie":4909,"Ġdennoch":4910,"Ġverlieren":4911,"ĠBevÃ¶lkerungs":4912,"ministerin":4913,"Ġmussten":4914,"Ġbedeuten":4915,"Ġentsprechenden":4916,"ĠVertreter":4917,"Ġeinzelne":4918,"Ġchinesische":4919,"zinsen":4920,"Ġabgelehnt":4921,"ĠVernehmlassung":4922,"sion":4923,"zut":4924,"Ã¼ss":4925,"ĠSonder":4926,"itim":4927,"schweiz":4928,"ĠAlle":4929,"ĠBar":4930,"ĠKa":4931,"ĠKassen":4932,"ome":4933,"ĠStrategie":4934,"ikte":4935,"Ġrass":4936,"Ġzweit":4937,"ĠUmsatz":4938,"ĠAufgaben":4939,"obo":4940,"Ġkonserv":4941,"Ã¤ude":4942,"wirken":4943,"fÃ¤ll":4944,"fÃ¤llen":4945,"ekul":4946,"ĠAutoren":4947,"Ġdroht":4948,"Ġverabschiedet":4949,"passt":4950,"Ã¤ger":4951,"ĠAmer":4952,"ĠAkte":4953,"Ġbeit":4954,"Ġhistor":4955,"Ã¶m":4956,"reite":4957,"euten":4958,"Ġschrieb":4959,"sprÃ¼":4960,"Ġvorgesehen":4961,"otal":4962,"ranken":4963,"essin":4964,"laube":4965,"stoffe":4966,"sucht":4967,"ĠArbeitszeit":4968,"stands":4969,"ĠSchuld":4970,"ĠVersicherten":4971,"Ġdigitale":4972,"ĠDrogen":4973,"Ġinvestiert":4974,"ĠMaschinen":4975,"ĠprÃ¼fen":4976,"Ġformul":4977,"ĠursprÃ¼n":4978,"ĠEindruck":4979,"uverÃ¤n":4980,"%.":4981,"rang":4982,"Ġhil":4983,"ĠFest":4984,"Ġglauben":4985,"ĠTessin":4986,"ĠlÃ¶sen":4987,"ĠJur":4988,"Ġentfern":4989,"Ġrep":4990,"Ġgeschlossen":4991,"ĠWashington":4992,"aket":4993,"Ġbehandelt":4994,"ĠeuropÃ¤ische":4995,"ĠBesonders":4996,"ausende":4997,"ĠKrippen":4998,"40":4999,"Er":5000,"Me":5001,"So":5002,"ail":5003,"treten":5004,"Ġdomin":5005,"ong":5006,"arier":5007,"altet":5008,"ĠKil":5009,"ĠProstitution":5010,"ĠEnd":5011,"ĠVorstellung":5012,"heitlich":5013,"ĠKongress":5014,"ĠBundesrats":5015,"Ġgeschaffen":5016,"ĠUrne":5017,"plant":5018,"Ġalten":5019,"ĠreligiÃ¶sen":5020,"aurant":5021,"ĠInfluencer":5022,"ps":5023,"Ġmil":5024,"ssicherheit":5025,"Ġkommun":5026,"ĠWÃ¤hrung":5027,"ĠTatsÃ¤chlich":5028,"ĠTatsache":5029,"Ġstehe":5030,"ĠdurchgefÃ¼hrt":5031,"ĠBetreuungs":5032,"Ġpolitischer":5033,"ĠTeilzeit":5034,"Ġgefunden":5035,"Ġexist":5036,"pril":5037,"ĠInvestoren":5038,"ĠKonflikt":5039,"Ġnotwendig":5040,"Ġhumanit":5041,"Ġfossil":5042,"60":5043,"EO":5044,"pen":5045,"ve":5046,"erweise":5047,"Ġdest":5048,"ĠsÃ¤kul":5049,"Ã¤be":5050,"Ã¶sst":5051,"ole":5052,"ĠLaus":5053,"ĠTitel":5054,"ĠSchliesslich":5055,"verein":5056,"ĠSpar":5057,"Ġ2012":5058,"Ġbetrifft":5059,"Ã¶sung":5060,"Ġgeringer":5061,"ĠangekÃ¼ndigt":5062,"Ã¶ffnet":5063,"ĠOrd":5064,"ĠSchwanger":5065,"ĠRahmenabkommen":5066,"Ġchrist":5067,"ĠSolche":5068,"ĠNetzwerk":5069,"ĠverfÃ¼gen":5070,"heoret":5071,"firmen":5072,"sammlung":5073,"Ġradik":5074,"Ehe":5075,"cen":5076,"samen":5077,"insen":5078,"Ġwobei":5079,"teuer":5080,"ĠAk":5081,"ĠMich":5082,"Ġfrag":5083,"ĠverÃ¤ndert":5084,"ĠSchaden":5085,"ĠVerk":5086,"Ġschreiben":5087,"ĠAnsatz":5088,"Ġumgesetzt":5089,"ĠRechnung":5090,"laden":5091,"ĠZustimmung":5092,"Ġetabl":5093,"ĠWirk":5094,"ĠAmt":5095,"Ã¶lkerrecht":5096,"Ġhierzulande":5097,"Ġteuer":5098,"Ġschweren":5099,"ĠBestand":5100,"ĠÃ¼brigen":5101,"fonds":5102,"ipf":5103,"kat":5104,"sver":5105,"Ġreicht":5106,"eicher":5107,"Ã¤che":5108,"Ġmiss":5109,"ales":5110,"ĠFehl":5111,"ĠPort":5112,"roh":5113,"deten":5114,"Ġerg":5115,"abgabe":5116,"Ġtran":5117,"Ã¶ren":5118,"ĠZucker":5119,"gelassen":5120,"lima":5121,"ĠNachrichten":5122,"ĠFreiheits":5123,"ĠzurÃ¼ckzu":5124,"behÃ¶rde":5125,"ĠInterview":5126,"zugs":5127,"Ġrechts":5128,"ĠVolksinitiative":5129,"ĠKritiker":5130,"ĠMeinungs":5131,"onomie":5132,"ĠFlÃ¼chtlings":5133,"ĠRhein":5134,"met":5135,"massen":5136,"Ġdopp":5137,"ĠBu":5138,"Ġinfrage":5139,"Ġintens":5140,"ĠFot":5141,"Ġkor":5142,"Ġerinner":5143,"ĠListe":5144,"ĠZun":5145,"ĠVerz":5146,"ĠAnnahme":5147,"ĠAnfrage":5148,"abel":5149,"gesichts":5150,"stossen":5151,"ĠAlli":5152,"Ġweitgehend":5153,"krise":5154,"Ġorient":5155,"ĠNutzung":5156,"ĠzusÃ¤tzlich":5157,"ĠBisher":5158,"ĠLeistungs":5159,"Ġneun":5160,"Ġbilateralen":5161,"Be":5162,"lager":5163,"ĠwÃ¤hlen":5164,"eitungen":5165,"Ġfall":5166,"ĠPotenzial":5167,"ratis":5168,"immungs":5169,"ĠmÃ¶glichen":5170,"finanzierung":5171,"ĠerwÃ¤hn":5172,"..":5173,"branche":5174,"falt":5175,"kore":5176,"oge":5177,"ink":5178,"ĠSachen":5179,"iten":5180,"tex":5181,"arische":5182,"Ġident":5183,"eitschaft":5184,"ĠReich":5185,"ĠlÃ¤uft":5186,"ĠRevision":5187,"ĠBeob":5188,"ĠBewegung":5189,"leichter":5190,"ĠKriterien":5191,"Ġfinanziert":5192,"zeichnet":5193,"ĠDenk":5194,"ĠKindes":5195,"Ġentwickeln":5196,"Ġunterschiedlich":5197,"ĠEuropÃ¤ischen":5198,"ĠMitgliedstaaten":5199,"ĠjÃ¼ngsten":5200,"ram":5201,"sol":5202,"chst":5203,"igungs":5204,"dete":5205,"oler":5206,"Ġverh":5207,"ĠTonnen":5208,"Ġschliessen":5209,"ille":5210,"grenzen":5211,"ĠVorgehen":5212,"ĠspÃ¼r":5213,"ĠdÃ¼rfe":5214,"ĠAllein":5215,"akten":5216,"Ġarbeitet":5217,"Ġvertreten":5218,"Ġmoder":5219,"ĠVerwaltung":5220,"ĠTrotzdem":5221,"Gesetz":5222,"ĠIdentitÃ¤t":5223,"Phone":5224,"ĠBerset":5225,"SG":5226,"banken":5227,"finden":5228,"kord":5229,"pon":5230,"wende":5231,"ĠÃ¤r":5232,"Ġsorg":5233,"Ġag":5234,"Ġzufrieden":5235,"Ġgeh":5236,"ĠTex":5237,"ĠStunde":5238,"ĠVerschw":5239,"Ġwert":5240,"ĠProgn":5241,"Ã¤tigen":5242,"ĠEinen":5243,"versorgung":5244,"derne":5245,"Ġmanche":5246,"uropa":5247,"ĠWieder":5248,"troffen":5249,"ĠÃĸl":5250,"Ġ75":5251,"Ġvermehrt":5252,"ĠPharma":5253,"Ġwirtschaftlichen":5254,"Ġwirtschaftliche":5255,"Ġverlangen":5256,"massnahmen":5257,"ĠHerausforderung":5258,"ĠKompro":5259,"ĠDeleg":5260,"Ġforderte":5261,"Vert":5262,"by":5263,"mlich":5264,"unt":5265,"strategie":5266,"ĠAmerikan":5267,"ĠSchwar":5268,"Ġallgem":5269,"gessen":5270,"fÃ¼hrer":5271,"aktor":5272,"Ġleiden":5273,"Ġ2003":5274,"ĠZusammenarbeit":5275,"Ġwichtigsten":5276,"versicherungen":5277,"ĠGeneral":5278,"ĠTransparenz":5279,"ĠbenÃ¶t":5280,"Ġzahlreiche":5281,"gefÃ¤hr":5282,"ĠBurka":5283,"ĠGewerkschaften":5284,"ĠbÃ¼rgerlichen":5285,"Ã¼lt":5286,"ĠAugust":5287,"ĠFokus":5288,"AG":5289,"Pl":5290,"di":5291,"dach":5292,"enk":5293,"iegel":5294,"onach":5295,"ĠPil":5296,"Ã¶der":5297,"Ã¶tz":5298,"ĠTour":5299,"ĠSchaff":5300,"Ġpubl":5301,"ĠFranz":5302,"Ġjur":5303,"Ġvorhanden":5304,"ĠAusbau":5305,"ĠHerkunft":5306,"ĠGegensatz":5307,"Ġweltweiten":5308,"Ġbestehenden":5309,"ĠStatistik":5310,"Ġbestimmte":5311,"ĠJuli":5312,"Ġpraktisch":5313,"19":5314,"Ent":5315,"freund":5316,"lern":5317,"Ġsystem":5318,"Ġwann":5319,"ĠApril":5320,"arat":5321,"alifiz":5322,"ĠGu":5323,"Ġkomme":5324,"Ġverr":5325,"Ġvertr":5326,"ĠLeiter":5327,"ĠTer":5328,"ĠHause":5329,"Ġobligator":5330,"Ġstimmt":5331,"ĠAnst":5332,"sprÃ¤sident":5333,"Ġentstehen":5334,"eitert":5335,"ĠSpit":5336,"ĠUmverteilung":5337,"Ġbestimmt":5338,"minist":5339,"ĠMigros":5340,"ĠSchlag":5341,"Ġbelie":5342,"ĠkÃ¼nstlichen":5343,"ĠGenerationen":5344,"Ġabseh":5345,"Ġpositiv":5346,"ĠPflege":5347,"beitrÃ¤ge":5348,"JÃ¤hrige":5349,"ĠregelmÃ¤ssig":5350,"Ar":5351,"krit":5352,"preis":5353,"wahlen":5354,"weder":5355,"Ġdauer":5356,"ĠSc":5357,"ĠSens":5358,"ĠAben":5359,"Ġnennt":5360,"Ġmeint":5361,"oliz":5362,"reut":5363,"rav":5364,"ĠAnstieg":5365,"spart":5366,"ĠOl":5367,"ĠVorgaben":5368,"ĠMitteilung":5369,"Ġeth":5370,"Ġ300":5371,"suisse":5372,"Ġklare":5373,"ourcen":5374,"ĠUmweltschutz":5375,"ĠBeschwer":5376,"usstsein":5377,"Ġkomplex":5378,"Ġnahm":5379,"Ġheutige":5380,"Ġprivaten":5381,"gÃ¤nge":5382,"ĠKrankheit":5383,"Ġautomatisch":5384,"Ġattraktiv":5385,"ĠStaatsanwalt":5386,"Politik":5387,"iqu":5388,"Ġdiver":5389,"Ġhielt":5390,"tere":5391,"ĠLot":5392,"Ġaufs":5393,"ĠArz":5394,"ĠBew":5395,"Ã¼cke":5396,"icks":5397,"icken":5398,"ĠImp":5399,"teilen":5400,"ĠZeitpunkt":5401,"ĠFreiburg":5402,"Ġfreien":5403,"holen":5404,"Ġjenen":5405,"Ġbeginnt":5406,"ĠPatient":5407,"ĠGeschÃ¤ftsm":5408,"ĠMigrations":5409,"ĠStandort":5410,"Ġgleiche":5411,"Ġerneuerbaren":5412,"ĠRestaurant":5413,"ĠbeschÃ¤ftigt":5414,"ĠVoraussetzungen":5415,"ĠGefÃ¤ngnis":5416,"oboter":5417,"PU":5418,"Reg":5419,"bin":5420,"kultur":5421,"kurs":5422,"ziel":5423,"stre":5424,"iter":5425,"undament":5426,"ĠBrit":5427,"ĠMach":5428,"Ġfragen":5429,"ĠRand":5430,"ĠVerstÃ¤nd":5431,"Ġausreichen":5432,"Ã¼nder":5433,"Ġruss":5434,"rift":5435,"ĠRegionen":5436,"Ġverbesser":5437,"ĠBerufs":5438,"ĠHaft":5439,"Ġlautet":5440,"wartung":5441,"Ġdirekte":5442,"ĠAlternative":5443,"Ġverantwortlich":5444,"./":5445,"kir":5446,"erken":5447,"eier":5448,"ĠAs":5449,"Ġbzw":5450,"Ġinstitution":5451,"Ġzuerst":5452,"Ġfand":5453,"Ġfahren":5454,"olen":5455,"Â»)":5456,"Ġsterben":5457,"Ġwirken":5458,"Ġamb":5459,"ĠAbfall":5460,"Ġgerecht":5461,"echan":5462,"ĠMinuten":5463,"volk":5464,"Ġprivate":5465,"ĠWettbewerbs":5466,"ĠHerausforderungen":5467,"ĠApotheken":5468,"Ġgeplanten":5469,"ĠMartin":5470,"ius":5471,"les":5472,"tin":5473,"wechsel":5474,"Ġreichen":5475,"erkennung":5476,"institut":5477,"ĠSR":5478,"ĠSel":5479,"asen":5480,"Ġauft":5481,"ĠBÃ¶":5482,"igration":5483,"Ġverdien":5484,"ĠHÃ¼r":5485,"Ġsofort":5486,"sens":5487,"abstimmung":5488,"ĠUnfall":5489,"ĠEinwanderer":5490,"Ġvoraus":5491,"Ġvorgeschlagen":5492,"gert":5493,"ĠErde":5494,"ĠVorschlÃ¤ge":5495,"auso":5496,"Ġdaraus":5497,"ĠMenschenrechts":5498,"klÃ¤rt":5499,"ĠSuche":5500,"ĠSuper":5501,"Ġoffensichtlich":5502,"zÃ¼ge":5503,"ĠHaushalt":5504,"ĠSolid":5505,"omite":5506,"ĠLeistung":5507,"ĠChristian":5508,"ĠBoden":5509,"ĠResultat":5510,"Too":5511,"MeToo":5512,"Ġdesto":5513,"45":5514,"EC":5515,"fassung":5516,"komp":5517,"nungen":5518,"wÃ¤":5519,"zeigen":5520,"atri":5521,"ĠDank":5522,"Ġbas":5523,"ĠMex":5524,"ĠKap":5525,"ĠVielleicht":5526,"ĠStraft":5527,"ĠAngesichts":5528,"spartei":5529,"ĠProfil":5530,"ielte":5531,"Ġgewinnen":5532,"Ġgenannt":5533,"Ġliessen":5534,"Ġgeraten":5535,"etto":5536,"Ġ2009":5537,"Ġvermeiden":5538,"Ġlebens":5539,"ĠGlÃ¼ck":5540,"Ã¼ndete":5541,"ffizienz":5542,"ĠEmissionshandel":5543,"ĠFahrzeuge":5544,"ĠermÃ¶glicht":5545,"lÃ¶":5546,"ziger":5547,"zÃ¤hl":5548,"inal":5549,"Ġwonach":5550,"ĠDu":5551,"Ġnennen":5552,"ichtlich":5553,"acher":5554,"ĠLager":5555,"Ġopt":5556,"spre":5557,"egor":5558,"ĠjÃ¤hr":5559,"ungsmittel":5560,"Ġthe":5561,"assnahmen":5562,"ollen":5563,"Ġnachvoll":5564,"endet":5565,"ĠSprecher":5566,"ertifik":5567,"ĠUmst":5568,"osoph":5569,"ĠGrundsatz":5570,"ica":5571,"uga":5572,"suche":5573,"hafte":5574,"ĠStadtrat":5575,"gesetzes":5576,"echseln":5577,"Ġalte":5578,"ĠIdeen":5579,"abilitÃ¤t":5580,"ĠVielmehr":5581,"Ġmassiv":5582,"Ġgesamte":5583,"Ġirgendw":5584,"Ġbetrachtet":5585,"ĠDepress":5586,"ĠAnreize":5587,"Ġherrscht":5588,"ĠBrutto":5589,"New":5590,"Ġ000":5591,"stat":5592,"Ġsah":5593,"ĠPrÃ¤sidenten":5594,"ĠTro":5595,"Ġlehn":5596,"ĠSchule":5597,"Ġpoten":5598,"Ġries":5599,"ĠArmut":5600,"ĠAusdruck":5601,"Ġvielmehr":5602,"Ġlieber":5603,"zieht":5604,"fÃ¤llig":5605,"Ġerstaun":5606,"Ã¤tzung":5607,"ĠVerbesser":5608,"ĠKammer":5609,"ĠLinke":5610,"wandlung":5611,"ĠLÃ¶hne":5612,"ĠOrdnung":5613,"uls":5614,"ĠSeine":5615,"Ġmeine":5616,"ĠPek":5617,"aul":5618,"Ġgingen":5619,"Ġand":5620,"Ġland":5621,"ĠNatÃ¼rlich":5622,"ĠUnternehmer":5623,"ĠCar":5624,"ĠArgu":5625,"ried":5626,"Ġsolange":5627,"mitt":5628,"innenmarkt":5629,"Ã¤tzungen":5630,"ĠÃĦhn":5631,"ĠfÃ¼hrte":5632,"Ġarbeite":5633,"Ġalt":5634,"Ġgrosses":5635,"ĠKompeten":5636,"Ġbezahlt":5637,"ĠInstitutionen":5638,"sextrem":5639,"ĠHoffnung":5640,"KW":5641,"lauf":5642,"unsten":5643,"unkten":5644,"ĠSim":5645,"Ġide":5646,"ĠEtw":5647,"ĠBÃ¶rsen":5648,"ĠFeld":5649,"ĠKunst":5650,"igkeits":5651,"ĠWald":5652,"ĠverÃ¤ndern":5653,"ometer":5654,"Ġunbed":5655,"Ġschlicht":5656,"Ġ26":5657,"Ã¤tigkeit":5658,"verdien":5659,"istr":5660,"merz":5661,"Ġgenie":5662,"ĠWird":5663,"apan":5664,"uster":5665,"Stunden":5666,"Ġgleichgeschlecht":5667,"ĠKrisen":5668,"ĠObwohl":5669,"ĠReise":5670,"ĠBauern":5671,"Ġtechnischen":5672,"ĠHandels":5673,"ĠGebÃ¤ude":5674,"Ġunterschiedliche":5675,"ĠpersÃ¶nlichen":5676,"Ġsexuelle":5677,"entwicklung":5678,"Ġsinken":5679,"ĠSzenar":5680,"ĠWaadt":5681,"olizei":5682,"System":5683,"bÃ¼r":5684,"bald":5685,"com":5686,"mt":5687,"nicht":5688,"paar":5689,"wasser":5690,"ĠDinge":5691,"ĠDoping":5692,"ĠiPhone":5693,"Ġhandeln":5694,"ĠWechsel":5695,"ĠTon":5696,"Ġleich":5697,"ĠJung":5698,"Ġschle":5699,"ĠschÃ¶n":5700,"Ġschweizer":5701,"sper":5702,"Ã¼nftig":5703,"ĠErb":5704,"zustellen":5705,"ĠVorwurf":5706,"ĠBezug":5707,"Ġreden":5708,"rief":5709,"achtung":5710,"Ġberichtet":5711,"Ġwelcher":5712,"ancen":5713,"vÃ¶lkerung":5714,"Ġbisherigen":5715,"ĠWissenschafter":5716,"verstÃ¤ndnis":5717,"schliessend":5718,"ĠTele":5719,"Ġsetzte":5720,"ĠJobs":5721,"Ġlebt":5722,"Auf":5723,"Sie":5724,"eget":5725,"leitung":5726,"med":5727,"oc":5728,"zur":5729,"eiche":5730,"ĠSym":5731,"ĠEc":5732,"Ã¶ssen":5733,"urer":5734,"ignal":5735,"Ġged":5736,"reform":5737,"Ã¤nomen":5738,"ĠNiveau":5739,"iko":5740,"Ġunklar":5741,"spf":5742,"ĠProjekte":5743,"ĠJahrhundert":5744,"werbe":5745,"ĠVorjahr":5746,"ĠSpezial":5747,"Ġgewiss":5748,"bry":5749,"Ġklass":5750,"ĠRegierungen":5751,"langen":5752,"aktiv":5753,"suchen":5754,"istenz":5755,"stitu":5756,"Ġeinzig":5757,"skommission":5758,"ĠVerteid":5759,"ĠZwang":5760,"Ġfolgt":5761,"ipul":5762,"ĠVersicherte":5763,"ĠAussage":5764,"konzerne":5765,"ĠerfÃ¼llen":5766,"ĠPensionsk":5767,"ĠDiskriminierung":5768,"?Â»":5769,"Ex":5770,"ĠmÃ¤nn":5771,"ichtig":5772,"irn":5773,"reck":5774,"ĠStu":5775,"ĠHans":5776,"ĠFranch":5777,"chnungen":5778,"apolitik":5779,"Ġbestimmen":5780,"Ġ400":5781,"wirkung":5782,"Ġherum":5783,"wanderungs":5784,"ibel":5785,"ĠAntrag":5786,"burger":5787,"ĠKlar":5788,"ĠDienstleistungen":5789,"ĠBeschÃ¤ft":5790,"ĠjÃ¼nger":5791,"produktion":5792,"ĠAndro":5793,"ĠErgebnisse":5794,"Ġzentrale":5795,"ĠauslÃ¤ndische":5796,"ĠFaktoren":5797,"ĠWÃ¼rde":5798,"Ġpassiert":5799,"ĠSpitÃ¤l":5800,"fÃ¤lt":5801,"lick":5802,"mat":5803,"ueller":5804,"chem":5805,"steuern":5806,"Ã¤he":5807,"Ġeinsetzen":5808,"ĠBio":5809,"ĠMechan":5810,"ĠFast":5811,"ĠfÃ¼":5812,"ĠKur":5813,"ĠKarr":5814,"Ġkamen":5815,"ĠWandel":5816,"Ġerl":5817,"ags":5818,"legung":5819,"ĠJo":5820,"gerichts":5821,"ĠErkennt":5822,"hlt":5823,"riebe":5824,"rÃ¼ckt":5825,"Ã¶lf":5826,"ĠUnternehmens":5827,"Ġverlassen":5828,"Ã¤dchen":5829,"ĠBehÃ¶rde":5830,"arbeitung":5831,"ĠverschÃ¤r":5832,"pret":5833,"ĠnÃ¤chste":5834,"ĠBelÃ¤st":5835,"Ġausserdem":5836,"Ġverteid":5837,"ĠplÃ¶tz":5838,"ĠÃ¶konom":5839,"ĠErfahrung":5840,"ĠunabhÃ¤ngig":5841,"ĠWorten":5842,"ziehungsweise":5843,"ĠWelche":5844,"ĠAlgorithmen":5845,"ĠArznei":5846,"For":5847,"FÃ¼r":5848,"nÃ¶t":5849,"ĠsÃ¼d":5850,"onn":5851,"ĠSach":5852,"ĠDor":5853,"ĠzustÃ¤nd":5854,"ĠKohl":5855,"ĠVerwendung":5856,"ĠAnlass":5857,"ĠÃ¼berwie":5858,"leiten":5859,"gerecht":5860,"Ġabgeschlossen":5861,"gebung":5862,"wendungen":5863,"plizit":5864,"ĠSterbe":5865,"rÃ¤nken":5866,"ĠBerner":5867,"ĠDiskussionen":5868,"Ġzieht":5869,"Ġziemlich":5870,"durchschnitt":5871,"Ġ2021":5872,"ĠRegierungsrat":5873,"ĠPapier":5874,"Ġoptim":5875,"bol":5876,"gÃ¤nger":5877,"hÃ¼ll":5878,"lÃ¤ss":5879,"seits":5880,"Ã¤uss":5881,"ĠSa":5882,"ĠEp":5883,"ĠEt":5884,"ĠKar":5885,"ĠKaliforn":5886,"Ġkennen":5887,"entwurf":5888,"Ġbeste":5889,"ffer":5890,"immer":5891,"ĠProtest":5892,"eiligung":5893,"istischer":5894,"bevÃ¶lkerung":5895,"Ã¤hrungs":5896,"ĠVorwÃ¼r":5897,"Ġuntersch":5898,"ĠZusch":5899,"ehnung":5900,"fÃ¤llt":5901,"ĠGewicht":5902,"ĠverfÃ¼g":5903,"Ġgesetzliche":5904,"Ġreagiert":5905,"ĠgÃ¼nstiger":5906,"voort":5907,"ĠSprache":5908,"Ġendlich":5909,"ĠKandidaten":5910,"fachen":5911,"partement":5912,"yr":5913,"zesse":5914,"Ġadopt":5915,"Ġweist":5916,"schten":5917,"ĠFÃ¶rder":5918,"Ġglaubt":5919,"ĠSchnitt":5920,"ĠHei":5921,"ĠtÃ¤tig":5922,"usse":5923,"ĠbetrÃ¤gt":5924,"Ġkonsequ":5925,"ĠgefÃ¤hrlich":5926,"Ġbehandeln":5927,"ĠfrÃ¼h":5928,"ĠbegrÃ¼ndet":5929,"Ġlegal":5930,"ĠReihe":5931,"ĠAussagen":5932,"ĠreligiÃ¶se":5933,"Ġhalb":5934,"ĠEuropÃ¤ische":5935,"ĠVorteil":5936,"ynam":5937,"ĠFÃ¼hrung":5938,"hilfen":5939,"Ġdurchschnittlich":5940,"ĠfÃ¶rdern":5941,"ĠEidgenÃ¶ss":5942,"ĠBelÃ¤stigung":5943,"wen":5944,"Ã¼ckt":5945,"ĠDritt":5946,"orge":5947,"Ġmal":5948,"ĠBab":5949,"ĠKÃ¶n":5950,"ĠKanad":5951,"ĠkÃ¤mpfen":5952,"eli":5953,"reen":5954,"rete":5955,"ĠTech":5956,"ĠTherapie":5957,"weite":5958,"Ġbeziehungsweise":5959,"Ġausger":5960,"ime":5961,"ĠErwachsen":5962,"ĠOsten":5963,"ĠOpp":5964,"ĠGefÃ¼hl":5965,"Ġmanchmal":5966,"utzung":5967,"Ġgesund":5968,"Ġkonzentr":5969,"sprechend":5970,"hoden":5971,"ĠFÃ¤h":5972,"Ġlangsam":5973,"Ġlegt":5974,"ĠhÃ¶chsten":5975,"ĠKantonsrat":5976,"ĠMeth":5977,"ĠKontakt":5978,"ĠVorteile":5979,"Ġentsteht":5980,"ĠTÃ¼rk":5981,"ĠRessourcen":5982,"acken":5983,"uisse":5984,"ĠAarg":5985,"arif":5986,"emin":5987,"ĠMÃ¼tter":5988,"rep":5989,"ĠStÃ¤r":5990,"ĠVervoort":5991,"Ġbeweg":5992,"ĠReaktion":5993,"ĠZuge":5994,"Ġkeines":5995,"gelder":5996,"Ġspr":5997,"chnete":5998,"Ġ36":5999,"apier":6000,"lingt":6001,"Ġgering":6002,"zielle":6003,"ĠForderungen":6004,"front":6005,"ikaner":6006,"ĠEntwicklungen":6007,"ĠSterben":6008,"zwungen":6009,"ĠNetzwerke":6010,"Ġordent":6011,"Ġverkauft":6012,"ĠZweifel":6013,"regierung":6014,"ails":6015,"ĠverÃ¶ffentlicht":6016,"ĠerfÃ¼llt":6017,"Konzern":6018,"Ġangeblich":6019,"ĠImmerhin":6020,"ĠKonsequenzen":6021,"Ġfalls":6022,"ĠAmerikaner":6023,"we":6024,"ĠsÃ¤m":6025,"itten":6026,"Ġme":6027,"ĠFakten":6028,"ĠKu":6029,"ĠKÃ¼nst":6030,"Ġkostet":6031,"ĠWegen":6032,"Ġgegr":6033,"ĠIr":6034,"ĠLicht":6035,"ĠLam":6036,"ĠTor":6037,"ĠNahr":6038,"use":6039,"ĠFrÃ¼":6040,"ĠFrem":6041,"ĠFrieden":6042,"eilung":6043,"anzler":6044,"ĠDerzeit":6045,"Ġdavor":6046,"Ġsparen":6047,"sstaat":6048,"Ġproblem":6049,"ersonal":6050,"Ġeffizien":6051,"ĠStaates":6052,"richtungen":6053,"stitute":6054,"ĠEmbry":6055,"Ġverkaufen":6056,"Ġdringend":6057,"Ġgesellschaftliche":6058,"Ġjedenfalls":6059,"Ġverdient":6060,"neider":6061,"heirat":6062,"ĠFÃ¼hrungs":6063,"ĠFussball":6064,"ĠMassenein":6065,"ĠNegativzinsen":6066,"arning":6067,"ĠVerschwÃ¶rung":6068,"ECD":6069,"ĠAndroid":6070,"Am":6071,"Med":6072,"modell":6073,"enter":6074,"Ġdritte":6075,"Ġdauern":6076,"atoren":6077,"schte":6078,"ormal":6079,"ĠBem":6080,"ĠMÃ¤dchen":6081,"ĠFÃ¼nf":6082,"ĠFraktion":6083,"ĠGra":6084,"ĠGast":6085,"ĠKrÃ¤":6086,"ĠWild":6087,"Ġgaben":6088,"achter":6089,"ĠLob":6090,"ĠTochter":6091,"umm":6092,"reibst":6093,"ĠUngar":6094,"Ġvorzu":6095,"Ġ150":6096,"allel":6097,"ĠgewÃ¼n":6098,"ĠZeitalter":6099,"ĠMarc":6100,"Ġwelches":6101,"ĠExp":6102,"kehrt":6103,"Ġtechnische":6104,"Ġverhindert":6105,"Ġmedizinischen":6106,"Ġgenerell":6107,"ĠErwerbs":6108,"Ġentfernt":6109,"BS":6110,"Le":6111,"aats":6112,"ese":6113,"Ã¼st":6114,"ĠDirektor":6115,"ĠFerien":6116,"ĠWass":6117,"ĠWall":6118,"ĠRÃ¶st":6119,"ĠRoboter":6120,"ologe":6121,"ĠZinsen":6122,"Ã¤nge":6123,"leb":6124,"leun":6125,"ĠVerbr":6126,"imÃ¤r":6127,"anner":6128,"ĠCr":6129,"ĠEinige":6130,"werten":6131,"ĠGesichts":6132,"geld":6133,"Ġberu":6134,"ĠBerechn":6135,"Ġbetragen":6136,"Ġgenutzt":6137,"Ġangest":6138,"ĠHersteller":6139,"appen":6140,"Ġfinanzieren":6141,"ĠAbstimmungs":6142,"ĠBelastung":6143,"Ġkompens":6144,"ĠStimmvolk":6145,"Ġdirekten":6146,"ĠÃ¼berraschend":6147,"ĠTimes":6148,"ĠLausanne":6149,"ĠZuckerberg":6150,"das":6151,"sd":6152,"son":6153,"swert":6154,"ugt":6155,"Ã¼ge":6156,"gehren":6157,"Ġvia":6158,"ĠDauer":6159,"alk":6160,"Ġzust":6161,"ĠPan":6162,"departement":6163,"Ġerfolgen":6164,"ĠLetzt":6165,"Ġaufgenommen":6166,"ĠTenden":6167,"amme":6168,"Ġmittels":6169,"ĠHel":6170,"ĠVersorgung":6171,"Ġober":6172,"ĠAnwendung":6173,"Ġjahr":6174,"ĠErwerbst":6175,"ierend":6176,"wertet":6177,"ĠAusstoss":6178,"ĠKonferenz":6179,"Ġ38":6180,"Ġbeton":6181,"geschÃ¤ft":6182,"klÃ¤rungen":6183,"isiko":6184,"Ġbegonnen":6185,"ĠBestimmungen":6186,"ĠVersicherungs":6187,"ĠKlimawandels":6188,"Ġschneller":6189,"ĠTrumps":6190,"ĠVerlÃ¤nger":6191,"Ġdrohen":6192,"Ġmenschliche":6193,"ĠStrafen":6194,"Frauen":6195,"Ġidentifiz":6196,"Al":6197,"Ber":6198,"hÃ¤ndler":6199,"pe":6200,"pack":6201,"Ãĸ":6202,"ĠSein":6203,"ĠSum":6204,"ĠnatÃ¼r":6205,"Ġmut":6206,"ĠBus":6207,"Ġhundert":6208,"ĠKredit":6209,"ĠWetter":6210,"deb":6211,"Ġbeziehen":6212,"Ġunmittel":6213,"abet":6214,"verbrauch":6215,"illen":6216,"otion":6217,"Ġabsch":6218,"ĠAusbildung":6219,"ĠzwÃ¶lf":6220,"ĠgewÃ¤hlt":6221,"ĠAbschluss":6222,"ĠEntscheiden":6223,"ĠAufwand":6224,"qualitÃ¤t":6225,"ace":6226,"ĠGrosst":6227,"gemÃ¤ss":6228,"ĠSysteme":6229,"ĠMaxim":6230,"ĠNationalrats":6231,"willigung":6232,"ĠMinister":6233,"Ġglobal":6234,"ĠDenken":6235,"ĠzusÃ¤tzlichen":6236,"produkte":6237,"verkehrs":6238,"ĠPartnerschaft":6239,"ĠPerspekt":6240,"ĠGelder":6241,"Ġnegativen":6242,"firma":6243,"JÃ¤hrigen":6244,"Ġverursacht":6245,"ĠMÃ¼ller":6246,"ĠtÃ¶d":6247,"okument":6248,"ĠTÃ¼rkei":6249,"VG":6250,"bot":6251,"hte":6252,"trag":6253,"Ġreich":6254,"ĠSal":6255,"ĠDr":6256,"ĠMik":6257,"row":6258,"Ġglaub":6259,"Ġlernen":6260,"ĠJeder":6261,"ahme":6262,"egal":6263,"leiben":6264,"Ġalleine":6265,"ĠErklÃ¤rung":6266,"abend":6267,"istin":6268,"ĠOECD":6269,"hebung":6270,"pfl":6271,"Ġliefern":6272,"ĠZeitraum":6273,"Ġgere":6274,"ĠGemeinder":6275,"ĠQuart":6276,"ĠBitcoins":6277,"ĠstÃ¤rken":6278,"ĠUniversitÃ¤ten":6279,"handels":6280,"ĠvollstÃ¤ndig":6281,"ĠKohle":6282,"Ġgemeinsamen":6283,"Ġwahrscheinlich":6284,"ĠAussicht":6285,"flussen":6286,"Ġlinks":6287,"Ġaktuellen":6288,"ĠAtomkraft":6289,"ĠStrafe":6290,"ĠauslÃ¤ndischen":6291,"ĠBeratungs":6292,"schaffung":6293,"Ġblieb":6294,"ĠKompromiss":6295,"Beit":6296,"lag":6297,"mar":6298,"ton":6299,"strom":6300,"Ġeiniger":6301,"ĠhÃ¤uf":6302,"ĠhÃ¤ngt":6303,"Ġgeeig":6304,"isl":6305,"ĠTrain":6306,"andal":6307,"rafen":6308,"ĠAngebote":6309,"ĠÃ¼berall":6310,"verk":6311,"istanz":6312,"anzig":6313,"Ã¶rdert":6314,"Ġrest":6315,"ĠUmfeld":6316,"ĠgrÃ¼n":6317,"ildet":6318,"Ġ196":6319,"ĠselbstverstÃ¤ndlich":6320,"oster":6321,"braucht":6322,"ĠUniversity":6323,"Ġtiefen":6324,"schuld":6325,"ĠSuizidhilfe":6326,"ĠHandeln":6327,"kretÃ¤r":6328,"Ġintelligen":6329,"Ġdefiniert":6330,"Ġbeeinflussen":6331,"Ġzugunsten":6332,"ĠMerkel":6333,"Ġmaximal":6334,"ĠVerstÃ¤ndnis":6335,"ĠMexiko":6336,"ĠRÃ¶sti":6337,"SP":6338,"nimmt":6339,"personen":6340,"ergeb":6341,"ĠDien":6342,"Ġbill":6343,"Ġmobil":6344,"ssatz":6345,"ĠKÃ¼":6346,"ĠKol":6347,"auch":6348,"berger":6349,"Ġgelingt":6350,"Ġerforder":6351,"Ġverurteil":6352,"ĠLauf":6353,"ktor":6354,"ĠHam":6355,"Ġstieg":6356,"ĠstÃ¤ndig":6357,"etzung":6358,"Ġwirkt":6359,"Ġvorauss":6360,"Ġvorbei":6361,"âĢĵ":6362,"Ġtreten":6363,"fordern":6364,"alth":6365,"Ġgenauso":6366,"Ġbreit":6367,"udie":6368,"Ġ54":6369,"ics":6370,"ologisch":6371,"ordin":6372,"Ġwelchem":6373,"Ġgutes":6374,"spielen":6375,"Ã¤hlte":6376,"ĠGegenÃ¼ber":6377,"hÃ¶ren":6378,"ĠChinas":6379,"arbeitern":6380,"ĠPfister":6381,"Ġbefinden":6382,"Ġbegrenz":6383,"Ġkritisch":6384,"ĠSubvention":6385,"Ġelekt":6386,"ĠResultate":6387,"Ġrespekt":6388,"ibilitÃ¤t":6389,"ĠGold":6390,"ĠArgumente":6391,"ĠKalifornien":6392,"AF":6393,"mord":6394,"par":6395,"Ãľ":6396,"geht":6397,"ĠBinnenmarkt":6398,"Ġklim":6399,"ĠgÃ¤be":6400,"irt":6401,"entscheid":6402,"agte":6403,"ĠSchn":6404,"ĠSchneider":6405,"ĠVergewalt":6406,"Ġstammen":6407,"Ġdemnach":6408,"ĠAnleger":6409,"Ġenthalten":6410,"Ġweiterer":6411,"Ġbrachte":6412,"Ġangemessen":6413,"frem":6414,"ensation":6415,"Ġbekommt":6416,"ĠOrig":6417,"ĠPlÃ¤ne":6418,"Ġexplizit":6419,"handlungen":6420,"Ġfinanziell":6421,"itzer":6422,"Ġschwere":6423,"ĠNetzwerken":6424,"Ġlegitim":6425,"ĠKooper":6426,"ĠKontrollen":6427,"ĠFrankf":6428,"ĠHÃ¶chst":6429,"fertigt":6430,"ĠAndere":6431,"ĠGeheim":6432,"ĠStartup":6433,"ĠAnpassung":6434,"ĠDaniel":6435,"ĠSolidaritÃ¤t":6436,"ĠplÃ¶tzlich":6437,"erte":6438,"ĠSer":6439,"ĠDial":6440,"ĠBÃ¼":6441,"eitern":6442,"etern":6443,"aub":6444,"urteilung":6445,"ĠWÃ¤hrungen":6446,"ĠVene":6447,"ischt":6448,"Ġanbieten":6449,"Ġlegen":6450,"Ġmittel":6451,"leute":6452,"ikas":6453,"ĠÃ¼bersch":6454,"Ġvorher":6455,"Ġentweder":6456,"zentren":6457,"zenten":6458,"ĠKonkret":6459,"ĠFrauenquote":6460,"Ã¤lte":6461,"eldet":6462,"Ã¤ufer":6463,"ĠNachhalt":6464,"ĠBetrag":6465,"Ġbesseren":6466,"ĠInteress":6467,"ĠChinesen":6468,"ĠGemeinschaft":6469,"ĠGrÃ¼nder":6470,"ĠLink":6471,"Ġentsprechend":6472,"ĠprimÃ¤r":6473,"ĠgrÃ¶sseren":6474,"ĠBilder":6475,"Ġdemokratischen":6476,"berechtigung":6477,"Ġentstanden":6478,"demokraten":6479,"ĠGedanken":6480,"ĠbefÃ¼rchten":6481,"Ġwestlichen":6482,"kÃ¤mpfung":6483,"selben":6484,"ĠUNO":6485,"ĠMeer":6486,"ĠPilot":6487,"ĠBriten":6488,"ake":6489,"hu":6490,"leiter":6491,"liber":6492,"liste":6493,"preise":6494,"rÃ¼ndung":6495,"wagen":6496,"ĠSek":6497,"ĠSorgen":6498,"Ġeinseit":6499,"Ġzit":6500,"Ġmache":6501,"ĠEffekt":6502,"alition":6503,"Ġko":6504,"lichkeiten":6505,"ela":6506,"rochen":6507,"ochen":6508,"user":6509,"ĠJungen":6510,"Ġsofern":6511,"Ġstamm":6512,"ĠAnerkennung":6513,"Ġ29":6514,"Ã¤rm":6515,"ĠAuseinander":6516,"ĠSpann":6517,"ektion":6518,"ĠAufsicht":6519,"Ġvieler":6520,"ĠSchweizerischen":6521,"ĠWerk":6522,"Ġ47":6523,"sicherheit":6524,"ĠHerz":6525,"ĠDeutsch":6526,"ĠFalle":6527,"ĠPlattform":6528,"ĠQuoten":6529,"ĠEntscheidungen":6530,"Ġlebensl":6531,"Ġbewegen":6532,"ĠPolizisten":6533,"ĠExperiment":6534,"ĠHochschulen":6535,"gemeinschaft":6536,"fession":6537,"Ġbilden":6538,"Ġpositive":6539,"ĠSenkung":6540,"Ġspezial":6541,"Ġliberale":6542,"Ġerlebt":6543,"ĠfÃ¼hlen":6544,"ĠStattdessen":6545,"Ġnationaler":6546,"text":6547,"ĠLotter":6548,"Ġunbedingt":6549,"ĠGrossteil":6550,"Recht":6551,"cial":6552,"sitzen":6553,"Ġdritten":6554,"angebot":6555,"ĠDamals":6556,"Ġgetroffen":6557,"isco":6558,"ĠTheor":6559,"ĠNationen":6560,"ĠVerÃ¤nderungen":6561,"Ġdeswegen":6562,"ikten":6563,"chtung":6564,"abbau":6565,"ĠUnabhÃ¤ng":6566,"ĠRechen":6567,"ĠabhÃ¤ng":6568,"bewerber":6569,"ĠAusstieg":6570,"Ġsagten":6571,"ĠSozi":6572,"Ġeffekt":6573,"ĠAlt":6574,"perten":6575,"attformen":6576,"konomen":6577,"Ġverbreitet":6578,"aktisch":6579,"ĠChar":6580,"ĠBrun":6581,"Ġbedro":6582,"Ġteilte":6583,"Ġregistr":6584,"ĠFlÃ¼chtlingen":6585,"produkt":6586,"ĠKonkurrenten":6587,"Ġinvestieren":6588,"Ġnegative":6589,"ĠMinderheit":6590,"rebs":6591,"anstalt":6592,"gleichen":6593,"Ġlanciert":6594,"ĠAblehnung":6595,"ĠAbend":6596,"ĠSelf":6597,"ĠPeking":6598,":.":6599,"Sc":6600,"ax":6601,"niveau":6602,"Ġafrikan":6603,"Ġeindeut":6604,"arian":6605,"ĠEth":6606,"ssig":6607,"ĠWaren":6608,"ĠRang":6609,"ĠIhnen":6610,"Ġanerk":6611,"ĠThe":6612,"ĠZeichen":6613,"ĠSchmid":6614,"ĠHitze":6615,"ĠVerm":6616,"ĠVerhÃ¤lt":6617,"vers":6618,"assungen":6619,"ausgaben":6620,"Ġwarten":6621,"ĠStad":6622,"Ġzwanzig":6623,"ĠAbsicht":6624,"Ġgesenkt":6625,"rient":6626,"mittag":6627,"Ġverbieten":6628,"Ġwichtigen":6629,"ĠKrankenversicher":6630,"Ġdahin":6631,"ĠDarÃ¼ber":6632,"ĠBesuch":6633,"geheim":6634,"Unternehmen":6635,"Ġerfasst":6636,"Mitglie":6637,"ĠKrankheiten":6638,"ĠInnovation":6639,"Ġbeobachten":6640,"stÃ¤tten":6641,"Ġverbessert":6642,"ĠTelefon":6643,"Mio":6644,"Welt":6645,"sitz":6646,"ĠDo":6647,"ĠDah":6648,"ĠMic":6649,"ĠzustÃ¤ndig":6650,"Ġfliessen":6651,"ĠVÃ¤ter":6652,"dex":6653,"ĠRein":6654,"ĠergÃ¤n":6655,"omÃ¶glich":6656,"ĠLocker":6657,"Ġlos":6658,"Ġlehnt":6659,"weich":6660,"ages":6661,"ĠCEO":6662,"Ġvorerst":6663,"Ġvorgestellt":6664,"Ġallzu":6665,"otiv":6666,"ĠGripp":6667,"Ġentscheidet":6668,"Ġuntersucht":6669,"Ġmanchen":6670,"icket":6671,"Ġberaten":6672,"ĠBeispiele":6673,"vorlage":6674,"Ġimmerhin":6675,"ĠDeutschen":6676,"Ġbekannte":6677,"ĠHandlungs":6678,"ĠmÃ¶gliche":6679,"ĠLebensmittel":6680,"Ġwichtigste":6681,"ĠEhepaar":6682,"schuldung":6683,"ĠpersÃ¶nliche":6684,"ĠhÃ¶chstens":6685,"Ġgetan":6686,"ĠNormal":6687,"ĠKommunikation":6688,"ĠtÃ¤glich":6689,"Ġausschliesslich":6690,"ĠUngarn":6691,"!Â»":6692,"Im":6693,"junkt":6694,"jekten":6695,"ling":6696,"wenden":6697,"Ġsitzen":6698,"onstr":6699,"ĠAesch":6700,"Ġmel":6701,"Ġmachten":6702,"ĠBrief":6703,"Ġflex":6704,"ĠKas":6705,"ĠKeine":6706,"elbe":6707,"ĠHor":6708,"Ġstraf":6709,"ĠunnÃ¶t":6710,"ĠAnlage":6711,"ĠEinwohner":6712,"izieren":6713,"gelÃ¶st":6714,"ĠSouverÃ¤n":6715,"klus":6716,"ziellen":6717,"stoffen":6718,"ĠKlimaabkommen":6719,"Ġnieder":6720,"nitas":6721,"ĠUrt":6722,"Ġweisen":6723,"Ġstellten":6724,"ĠHinzu":6725,"ĠmÃ¶chten":6726,"ĠHausarzt":6727,"dopp":6728,"Ġbegrenzen":6729,"Produ":6730,"Ġgesetzlichen":6731,"ĠÃ¶k":6732,"Ġmenschlichen":6733,"ĠLiberalisierung":6734,"Ġkomplett":6735,"ĠElektro":6736,"Ġkonkreten":6737,"ĠBezir":6738,"Ġbeitragen":6739,"ĠreprÃ¤sent":6740,"Ġintensiv":6741,"ĠVerschwÃ¶rungst":6742,"NB":6743,"lang":6744,"tok":6745,"unken":6746,"Ġsucht":6747,"einnahmen":6748,"Ã¤dt":6749,"asi":6750,"schweizer":6751,"ĠDach":6752,"ĠzÃ¤hlt":6753,"ors":6754,"Ġaussen":6755,"Ġzugleich":6756,"etscher":6757,"ĠGas":6758,"ĠKÃ¼nd":6759,"ĠkÃ¼m":6760,"ĠRend":6761,"ĠIll":6762,"ĠSchwer":6763,"ĠStÃ¼ck":6764,"Ġparlament":6765,"Ġ1000":6766,"Ġ120":6767,"Ġrein":6768,"ĠAusmass":6769,"forschung":6770,"ĠProzentpunkte":6771,"Ġberichtete":6772,"ĠLebenser":6773,"Ġseither":6774,"agentur":6775,"drÃ¤ngt":6776,"ĠMedikament":6777,"Ġeinfacher":6778,"Ġallenfalls":6779,"ĠDarin":6780,"ĠkÃ¼nstlicher":6781,"Ġinnert":6782,"herapeut":6783,"Ġprofitiert":6784,"ĠGebÃ¼hren":6785,"schrift":6786,"Ġfunktionieren":6787,"Ġoffiziellen":6788,"ĠberÃ¼cksichtigt":6789,"omosexuelle":6790,"ĠSelbstbestimmung":6791,"Fir":6792,"bo":6793,"eckt":6794,"luss":6795,"ou":6796,"ube":6797,"ĠÂŃ":6798,"onst":6799,"ĠSomm":6800,"Ġnormal":6801,"organisationen":6802,"Ġmeinen":6803,"ĠMac":6804,"ĠPri":6805,"ĠPersÃ¶n":6806,"ĠRuf":6807,"amp":6808,"ĠHÃ¤":6809,"usen":6810,"ahnen":6811,"ĠausdrÃ¼ck":6812,"Ġschm":6813,"Ġpol":6814,"abt":6815,"Ġvorber":6816,"ĠOrient":6817,"ĠUmwandlung":6818,"ĠAbsch":6819,"ĠBeide":6820,"Ġjeweil":6821,"wirt":6822,"waltung":6823,"Ã¤mpft":6824,"Stadt":6825,"reude":6826,"iums":6827,"ĠKrankenversicherung":6828,"dienste":6829,"ĠNeuen":6830,"ĠfrÃ¼heren":6831,"Ġspezif":6832,"gestimmt":6833,"ĠTreibhausgase":6834,"ĠGewinne":6835,"ĠÃĦnderung":6836,"ĠAndreas":6837,"Ġhandle":6838,"ipfel":6839,"spartner":6840,"Ġlehnte":6841,"spflicht":6842,"ĠOpposition":6843,"ĠVerlÃ¤ngerung":6844,"osteron":6845,"ariante":6846,"Bundes":6847,"Gen":6848,"erinnen":6849,"ĠMÃ¼":6850,"ĠMas":6851,"ĠMut":6852,"ĠWunder":6853,"Ġersetzen":6854,"uth":6855,"Ġlo":6856,"Ã¤nzen":6857,"ĠNetto":6858,"ĠNÃ¤he":6859,"ĠstÃ¶sst":6860,"Ġausgeschlossen":6861,"Ġpf":6862,"Ġpar":6863,"ĠFrÃ¼h":6864,"ĠProstitu":6865,"verhalten":6866,"Ġtrifft":6867,"ulierung":6868,"aller":6869,"ĠAusgleich":6870,"Ġweiteres":6871,"Ġ34":6872,"same":6873,"ĠAlph":6874,"ĠKlimapolitik":6875,"ĠGesetze":6876,"ĠGesetzgeber":6877,"Ġgelte":6878,"ehlungen":6879,"ĠReligionen":6880,"handeln":6881,"Ġwahrgenommen":6882,"ĠFortschritte":6883,"ĠSmartphones":6884,"Ġoffiziell":6885,"Ġgeplante":6886,"ĠAktivitÃ¤ten":6887,"Vertr":6888,"ĠUmstÃ¤nden":6889,"Ġbetonte":6890,"Ġgeregelt":6891,"ĠOriginal":6892,"Ch":6893,"Mar":6894,"Zu":6895,"feind":6896,"sÃ¤tze":6897,"Ġegal":6898,"ane":6899,"anischen":6900,"Ġskept":6901,"gegeben":6902,"Ġderweil":6903,"Ġzerst":6904,"Ġfern":6905,"ĠPrakt":6906,"Ġerhoben":6907,"ĠlÃ¶":6908,"weist":6909,"ĠSchau":6910,"ĠSchÃ¤tzungen":6911,"ĠHaut":6912,"elli":6913,"ĠAnforderungen":6914,"ience":6915,"ĠFranc":6916,"Ġumso":6917,"ĠVorschriften":6918,"Ġrechnet":6919,"ĠBereitschaft":6920,"ĠAbgeordne":6921,"Ġ33":6922,"Ġkonfront":6923,"ritts":6924,"ĠAmts":6925,"Ġgelungen":6926,"ĠParlamentarier":6927,"Ġeingetragen":6928,"stÃ¼tzt":6929,"ĠPlÃ¤tze":6930,"ĠLux":6931,"Ġrichtigen":6932,"Ġgeboren":6933,"Ġwirtschaftlich":6934,"auftrag":6935,"Ġsteigenden":6936,"ĠÃ¤usserst":6937,"Ġerhielten":6938,"ĠDiagn":6939,"ĠPhilosoph":6940,"ĠTemperaturen":6941,"Ġbritische":6942,"abrik":6943,"Ġdoppelt":6944,"Ġirgendwann":6945,"ĠZuschauer":6946,"ĠsÃ¤mtliche":6947,"ĠSommar":6948,"!Â».":6949,"DA":6950,"DR":6951,"bem":6952,"mo":6953,"Ġdam":6954,"steh":6955,"Ġsorgt":6956,"Ġad":6957,"onomen":6958,"schauen":6959,"Ġzugelassen":6960,"Ġhies":6961,"ĠPrÃ¼":6962,"ĠViz":6963,"Ġgeplant":6964,"ologen":6965,"regel":6966,"Ġanaly":6967,"utlich":6968,"enthalt":6969,"ĠInstitute":6970,"rast":6971,"ĠungefÃ¤hr":6972,"egt":6973,"Ġzurzeit":6974,"Ġunterscheiden":6975,"ĠBundest":6976,"lied":6977,"rank":6978,"sstand":6979,"ĠAbgaben":6980,"ĠEntsprechend":6981,"Ġbetreiben":6982,"Ġ42":6983,"Ġangepasst":6984,"zeugung":6985,"iversitÃ¤t":6986,"Ġvermutlich":6987,"ĠGleichstellung":6988,"stagram":6989,"ĠInformation":6990,"ĠDignitas":6991,"Ġverwenden":6992,"Ġlaufenden":6993,"ĠTestosteron":6994,"Ġvereinbar":6995,"Sprecher":6996,"ĠEinschrÃ¤n":6997,"ĠHilfs":6998,"Ġkontrollieren":6999,"Ġwesentlich":7000,"Ġhilft":7001,"ĠProfiling":7002,"debatte":7003,"ĠMicro":7004,"10":7005,"18":7006,"LP":7007,"anen":7008,"schÃ¤d":7009,"ĠEv":7010,"ĠGar":7011,"ĠGlob":7012,"Ġkur":7013,"Ġersetzt":7014,"Ġvergessen":7015,"ĠTisch":7016,"Ġmiteinander":7017,"ĠSchicks":7018,"ĠHy":7019,"ĠVerantwort":7020,"rah":7021,"Ġpasst":7022,"Ġvorliegen":7023,"verantwortung":7024,"ennung":7025,"alle":7026,"ĠOper":7027,"Ġabges":7028,"bezogen":7029,"Ġzumal":7030,"ĠEntscheide":7031,"ĠAufklÃ¤rung":7032,"Ġhinweg":7033,"linien":7034,"ĠfÃ¼hre":7035,"tages":7036,"Ġgelang":7037,"Ġverlang":7038,"ckenf":7039,"ĠKrise":7040,"ĠPhase":7041,"ips":7042,"ituationen":7043,"Ġkurzem":7044,"ĠAsyls":7045,"ĠInitiativen":7046,"ĠMenschheit":7047,"Ġrelev":7048,"zentrum":7049,"Ġdemokratische":7050,"ĠMaschine":7051,"Ġakzeptiert":7052,"Ġzugute":7053,"nÃ¼pft":7054,"ĠgenÃ¼gend":7055,"Ġverankert":7056,"ĠArbeitsplÃ¤tze":7057,"ĠAbtreibungen":7058,"ĠSollte":7059,"kontrolle":7060,"Ġfossilen":7061,"ĠhÃ¤ufiger":7062,"ĠLebenserwartung":7063,"ĠSommaruga":7064,"Ġdamal":7065,"EF":7066,"Techn":7067,"ja":7068,"sie":7069,"Ġon":7070,"Ġsu":7071,"esb":7072,"ash":7073,"schÃ¼tz":7074,"ĠzÃ¤hlen":7075,"arischen":7076,"Ã¼re":7077,"aust":7078,"Ã¶ger":7079,"lichung":7080,"ĠWaffen":7081,"decken":7082,"ĠRente":7083,"Ġerlauben":7084,"Ġverfolgt":7085,"revision":7086,"ĠLeit":7087,"ĠLeiden":7088,"ĠHung":7089,"ĠVers":7090,"Ġstr":7091,"Ġschafft":7092,"Ġvorstellen":7093,"Ġeinerseits":7094,"hnung":7095,"lack":7096,"ĠOft":7097,"ĠVorder":7098,"ĠGrie":7099,"ĠBeweg":7100,"ausel":7101,"heitliche":7102,"Ġ43":7103,"geschichte":7104,"nete":7105,"Ġgemessen":7106,"Ġ67":7107,"ĠTeilnehmer":7108,"Ġverletzt":7109,"Ġ2004":7110,"Ġ2007":7111,"Ġfreie":7112,"ĠKrimin":7113,"wortet":7114,"Ġbisherige":7115,"erkraft":7116,"Ġregion":7117,"ĠChristoph":7118,"ĠplÃ¤d":7119,"wartungen":7120,"berechtigten":7121,"Ġzeigten":7122,"Ġargumentieren":7123,"ĠStellungnahme":7124,"ĠSamstag":7125,"ĠÃ¤lteren":7126,"Ġakzeptieren":7127,"ĠverstÃ¤rkt":7128,"ĠBedÃ¼rfnisse":7129,"Ġbritischen":7130,"Ġehemalige":7131,"Ġverschwinden":7132,"ĠInstrument":7133,"Ġfreiwillig":7134,"ĠSchwarz":7135,"ĠAsien":7136,"ĠTendenz":7137,"ĠFrankfurt":7138,"Che":7139,"rt":7140,"uhr":7141,"Ġten":7142,"stanz":7143,"anschau":7144,"ĠSind":7145,"ata":7146,"ĠnÃ¤her":7147,"ĠBill":7148,"ĠMat":7149,"ĠFal":7150,"Ġfamilien":7151,"ĠPunkte":7152,"ĠPositionen":7153,"auert":7154,"ierbar":7155,"ĠgeÃ¤ndert":7156,"Ġerfolgt":7157,"iser":7158,"ismen":7159,"ĠJohn":7160,"ĠJapan":7161,"rab":7162,"annen":7163,"ĠFrÃ¼hl":7164,"Ġtau":7165,"sere":7166,"lain":7167,"ĠVorfeld":7168,"ĠSocial":7169,"achteil":7170,"Ġgesprochen":7171,"ĠAufmerksam":7172,"Ġbetreffen":7173,"geblich":7174,"schieben":7175,"ĠMillion":7176,"Ġ55":7177,"ĠKindertages":7178,"Ġverbind":7179,"iox":7180,"Ġausgew":7181,"ĠSchulen":7182,"ĠSchwellen":7183,"gewicht":7184,"ĠGleichberechtigung":7185,"ĠBedarf":7186,"ĠSolar":7187,"leistet":7188,"ĠfrÃ¼here":7189,"mÃ¶glichkeiten":7190,"gestaltung":7191,"ĠErdÃ¶l":7192,"pressiv":7193,"omitee":7194,"ĠFranchise":7195,"Ġbewegt":7196,"Wie":7197,"kommt":7198,"lÃ¶sung":7199,"medizin":7200,"oy":7201,"por":7202,"wehr":7203,"anlagen":7204,"Ġass":7205,"ĠwÃ¤chst":7206,"ĠSÃ¼":7207,"asien":7208,"ĠDifferenz":7209,"Ġnull":7210,"Ġgezogen":7211,"Ġgezwungen":7212,"ischem":7213,"Ġlasse":7214,"lege":7215,"Ġschritt":7216,"verantwort":7217,"versammlung":7218,"Ġallgemein":7219,"ĠAustr":7220,"rÃ¤te":7221,"Ġmehrheitlich":7222,"werfen":7223,"Ġwarn":7224,"ĠSpekul":7225,"ĠSchweizerinnen":7226,"ohlen":7227,"flÃ¤che":7228,"geschrieben":7229,"ĠAlles":7230,"ĠBloch":7231,"ĠSozialhilfe":7232,"Ġfinanziellen":7233,"ĠSPD":7234,"zÃ¼glich":7235,"ĠAngestellte":7236,"ffekte":7237,"ĠStimme":7238,"ĠKontroll":7239,"Ġ2500":7240,"kadem":7241,"Ġpositiven":7242,"Ġzahlreichen":7243,"ĠStatus":7244,"ĠÃĦnderungen":7245,"ĠfÃ¶rdert":7246,"Ġwissenschaftliche":7247,"ĠStreet":7248,"arbeitszeit":7249,"ĠExtremismus":7250,"ĠkÃ¤me":7251,"fÃ¤llige":7252,"ĠOlymp":7253,"ĠBÃ¶ckenf":7254,"Ġkeineswegs":7255,"Ġvoraussichtlich":7256,"ĠabhÃ¤ngig":7257,"junktur":7258,"Um":7259,"iehlt":7260,"Ã¤fte":7261,"Ġeinig":7262,"ĠAg":7263,"ĠAKW":7264,"Ġkom":7265,"tert":7266,"ĠIs":7267,"Ġanhand":7268,"ĠLog":7269,"ĠStabilitÃ¤t":7270,"ĠInstagram":7271,"ĠJÃ¤ger":7272,"Ġstet":7273,"Ġwerfen":7274,"Ġph":7275,"ĠProv":7276,"ĠClo":7277,"ĠReal":7278,"rate":7279,"ssteuer":7280,"ĠAbgabe":7281,"ragung":7282,"Ġklingt":7283,"fÃ¼hrte":7284,"ĠFormen":7285,"Ã¤ngern":7286,"Ã¶ffnen":7287,"aterial":7288,"wanderungsinitiative":7289,"Ġeinzigen":7290,"Ġteurer":7291,"ĠQual":7292,"ĠBegrenz":7293,"Ġlangfrist":7294,"ĠGeschÃ¤ftsl":7295,"ĠGletscher":7296,"ĠMotto":7297,"Ġmenschen":7298,"ĠBurk":7299,"Ġletztes":7300,"Ġargumentiert":7301,"ĠSonntags":7302,"wÃ¼rdig":7303,"ĠprÃ¤sentiert":7304,"Ġerled":7305,"ĠEinschÃ¤tzung":7306,"ĠÃ¼bernommen":7307,"ĠAbtreibungs":7308,"ĠGrafik":7309,"vertreter":7310,"ĠfranzÃ¶sischen":7311,"ĠkÃ¼ndigte":7312,"ĠursprÃ¼nglich":7313,"Ġerinnert":7314,"korea":7315,"ĠLockerung":7316,"ĠAlphabet":7317,"ĠGriechen":7318,"Daten":7319,"cy":7320,"fan":7321,"meister":7322,"ness":7323,"steigen":7324,"Ã¼sst":7325,"schungs":7326,"ĠDDR":7327,"Ġeingeb":7328,"emissionen":7329,"Ġzuzu":7330,"Ġfragt":7331,"ĠWien":7332,"Ġgehalten":7333,"ĠTiere":7334,"ĠTradition":7335,"ĠHol":7336,"ĠHaar":7337,"ĠHÃ¤nde":7338,"Ã¤nen":7339,"ĠVerst":7340,"Ġoper":7341,"Ġausmachen":7342,"ĠProfit":7343,"Ã¤tige":7344,"ulen":7345,"ĠAuge":7346,"rÃ¤umen":7347,"ĠRekord":7348,"gramme":7349,"ĠGewerbe":7350,"hlet":7351,"ĠKonsens":7352,"ruf":7353,"ĠAufbau":7354,"Ġkonkret":7355,"ĠFreizeit":7356,"ĠTeilen":7357,"verbÃ¤nde":7358,"Ġbeginnen":7359,"zahlt":7360,"Ġenorm":7361,"Ġerschienen":7362,"Ġentscheidend":7363,"ĠVerlust":7364,"pagnen":7365,"ĠEinkommens":7366,"ĠKathol":7367,"Ġlinken":7368,"ĠWohlstand":7369,"Ġreguliert":7370,"Ġmedizinische":7371,"ĠÃ¤ltere":7372,"ĠKollegen":7373,"ĠWebsite":7374,"ĠAngehÃ¶rigen":7375,"ĠKarriere":7376,"ĠSouverÃ¤nitÃ¤t":7377,"ĠFrÃ¼hling":7378,"gungen":7379,"kunden":7380,"oul":7381,"stunden":7382,"ĠServ":7383,"ĠSorge":7384,"ĠAf":7385,"ĠGLP":7386,"Ġgegangen":7387,"Ġerleichter":7388,"Ġverteilt":7389,"Ġmitteil":7390,"ĠHas":7391,"ĠInhalt":7392,"Ġstat":7393,"sparen":7394,"ĠChe":7395,"Ġumwelt":7396,"versuch":7397,"Ġtritt":7398,"ĠRevolution":7399,"Ġmehrfach":7400,"Ġmehrheits":7401,"terne":7402,"ĠAusnahmen":7403,"ĠVorbild":7404,"ĠGrÃ¶sse":7405,"Ġentf":7406,"ĠSpr":7407,"ĠFrauenrenten":7408,"ĠAbhÃ¤ng":7409,"teln":7410,"Ġ64":7411,"Ġfestgestellt":7412,"haften":7413,"Ġbezogen":7414,"ĠÃĸkonom":7415,"ĠEnergiestrategie":7416,"ehlen":7417,"iarde":7418,"freien":7419,"ĠRÃ¼ckgang":7420,"ĠMusik":7421,"Ġautonomen":7422,"schulden":7423,"ĠPrÃ¤vention":7424,"ĠDarauf":7425,"portion":7426,"ĠStÃ¤nderats":7427,"ĠÃ¤hnliche":7428,"ĠKategor":7429,"prÃ¼ft":7430,"erven":7431,"ĠVerfassungsÃ¤nderung":7432,"ĠbeschÃ¤ftigen":7433,"sprache":7434,"ĠSuchmaschine":7435,"ĠAkteure":7436,"kirchen":7437,"ĠKanada":7438,"ĠFrauenrentenalter":7439,"Bet":7440,"Eine":7441,"Finanz":7442,"Mail":7443,"funk":7444,"mÃ¤r":7445,"offe":7446,"yl":7447,"Ġsep":7448,"Ġsehe":7449,"aschen":7450,"ĠDopp":7451,"ĠAlain":7452,"ĠFin":7453,"ĠKennt":7454,"Ġgefallen":7455,"omer":7456,"ĠTop":7457,"ĠTreffen":7458,"ama":7459,"Ġlohnt":7460,"reift":7461,"ĠInzwischen":7462,"ĠJed":7463,"ĠEinkauf":7464,"heben":7465,"gesellschaften":7466,"Ġreform":7467,"Ġbesonder":7468,"ĠParallel":7469,"konsum":7470,"ĠBetreiber":7471,"ĠSuisse":7472,"ĠExport":7473,"ĠVerbindung":7474,"ichteten":7475,"Ġhoffen":7476,"soft":7477,"ĠQuote":7478,"smassnahmen":7479,"beding":7480,"ĠDeep":7481,"ĠBesteuerung":7482,"ĠYout":7483,"limen":7484,"Ġempfiehlt":7485,"weilen":7486,"Ġdiskutieren":7487,"aurer":7488,"Ġgemeinsame":7489,"Ġreagieren":7490,"ĠPostul":7491,"Ġbilaterale":7492,"Ġschwarze":7493,"Ġproduziert":7494,"ĠPublikum":7495,"ĠJournalisten":7496,"Ġbehaupten":7497,"Ġkatholische":7498,"Ġbeurteilen":7499,"ĠKilometer":7500,"ĠFotos":7501,"ĠSchaffung":7502,"Ġobligatorischen":7503,"ĠHÃ¼rden":7504,"ĠArzneimittel":7505,"ĠVenezu":7506,"Ġbedroht":7507,"Ġanalys":7508,"ĠVordergrund":7509,"Go":7510,"bas":7511,"ibl":7512,"mund":7513,"tion":7514,"zeigt":7515,"Ġ/":7516,"Ġsitzt":7517,"teu":7518,"ĠDad":7519,"ĠFÃ¶der":7520,"ĠKop":7521,"urm":7522,"ĠgestÃ¼tzt":7523,"Ġergreifen":7524,"ĠLange":7525,"agert":7526,"ĠHar":7527,"ĠHeil":7528,"ĠNad":7529,"ĠbefÃ¼rwor":7530,"ĠstÃ¤dt":7531,"ĠschÃ¤d":7532,"ĠAnk":7533,"abu":7534,"Ġ250":7535,"Ġvoran":7536,"âĢº":7537,"rÃ¤glich":7538,"ĠAuskunft":7539,"ĠVorhaben":7540,"endiox":7541,"ĠBedenken":7542,"Ġbisschen":7543,"ĠSohn":7544,"ĠEntwurf":7545,"ĠSchweizerische":7546,"Ġ52":7547,"ĠNachdem":7548,"Ġeigenes":7549,"waltungs":7550,"ĠManche":7551,"Ġ800":7552,"Ġoffene":7553,"ĠgefÃ¤l":7554,"ĠHandy":7555,"ĠObdach":7556,"Ġbefindet":7557,"gewinn":7558,"sprozess":7559,"ĠInvestition":7560,"Prozent":7561,"legten":7562,"Ġgesetzlich":7563,"Ġlinke":7564,"Ġfalschen":7565,"Ġverfassungs":7566,"ĠRadik":7567,"Ġbeteiligen":7568,"Ġvergleichsweise":7569,"ĠBewusstsein":7570,"Ġambul":7571,"ĠKohlendiox":7572,"ĠMethode":7573,"Ammann":7574,"DU":7575,"Fl":7576,"Gallen":7577,"Steuer":7578,"fizit":7579,"kind":7580,"log":7581,"lÃ¤nd":7582,"tes":7583,"tlichen":7584,"ĠrÃ¤um":7585,"ender":7586,"iesen":7587,"inz":7588,"Ġmeiner":7589,"ĠBand":7590,"Ġzugenommen":7591,"Ġzugestimmt":7592,"ĠFinn":7593,"ĠFinger":7594,"Ġfair":7595,"Ã¶ser":7596,"ĠVariante":7597,"ĠgeÃ¤uss":7598,"ĠRel":7599,"olf":7600,"ĠTarif":7601,"ĠTreibst":7602,"ĠSchla":7603,"Ġstelle":7604,"Ġschie":7605,"Ġscheiter":7606,"ĠAnlagen":7607,"ĠÃ¼bert":7608,"ĠÃ¼berdurchschnitt":7609,"ĠUngleich":7610,"ĠEiner":7611,"ĠEingriff":7612,"lasten":7613,"Ġretten":7614,"heitlichen":7615,"blatt":7616,"ppe":7617,"frau":7618,"ĠHinweise":7619,"ĠLinken":7620,"ĠBeschuld":7621,"ĠKoalition":7622,"schlÃ¤gen":7623,"ĠEinzelfall":7624,"ĠAdoptions":7625,"ĠpersÃ¶nlich":7626,"ĠWeitere":7627,"Ġsexueller":7628,"ĠPassag":7629,"Ġnachhaltige":7630,"Ġsinkt":7631,"ĠZwecke":7632,"ĠKamera":7633,"Ġverdienen":7634,"Ġnachvollzieh":7635,"Ġzustande":7636,"ĠKooperation":7637,"Ġkonfrontiert":7638,"Modell":7639,"Wer":7640,"ael":7641,"bte":7642,"ileg":7643,"seite":7644,"ya":7645,"Ã¼s":7646,"ons":7647,"ĠSamm":7648,"Ġveget":7649,"alog":7650,"Ġhart":7651,"ĠFehr":7652,"ĠKeller":7653,"rolle":7654,"ĠRot":7655,"irch":7656,"reff":7657,"regeln":7658,"ĠTie":7659,"ĠTotal":7660,"Ġessen":7661,"Ġumsetzen":7662,"chef":7663,"ĠBeweis":7664,"ĠMittag":7665,"ĠMitarbeiten":7666,"liegt":7667,"Ġgewonnen":7668,"Ġgenauer":7669,"folger":7670,"ĠPrivileg":7671,"ĠPhÃ¤nomen":7672,"zeichnung":7673,"ĠVereinigten":7674,"ĠAbstimmungen":7675,"ĠlÃ¤ngere":7676,"ĠMeinungen":7677,"ĠInsbesondere":7678,"ĠEinzelnen":7679,"Ġunterschiedlichen":7680,"ĠhÃ¶chste":7681,"Ġgetragen":7682,"ĠRentenalters":7683,"PrÃ¤sidentin":7684,"ĠSexu":7685,"ĠgÃ¼nstig":7686,"ĠMobilitÃ¤t":7687,"Ġschwarzen":7688,"rÃ¤ume":7689,"bilden":7690,"nungszeiten":7691,"Ġverweist":7692,"Ġfestgehalten":7693,"ĠPetro":7694,"Ġeingereicht":7695,"ĠmilitÃ¤r":7696,"ĠZunahme":7697,"ĠjÃ¤hrlichen":7698,"ĠSimon":7699,"ĠPensionskassen":7700,"ĠVorwÃ¼rfe":7701,"ĠKrÃ¤fte":7702,"Ġjahrel":7703,"ĠAufmerksamkeit":7704,"Ger":7705,"ca":7706,"iode":7707,"kal":7708,"kel":7709,"tÃ¤u":7710,"wald":7711,"ĠdrÃ¤n":7712,"Ġsauber":7713,"Ã¼gen":7714,"orient":7715,"ĠBru":7716,"ĠBÃ¼nd":7717,"ĠMess":7718,"Ã¶pfung":7719,"Ġverfolgen":7720,"Ġverdopp":7721,"ĠLast":7722,"ĠLaden":7723,"Ġlangen":7724,"ĠSchied":7725,"ĠVerbrauch":7726,"ĠVerÃ¤nderung":7727,"ĠJac":7728,"ĠEinigung":7729,"Ġtyp":7730,"iertes":7731,"ĠAusgang":7732,"ĠAuslÃ¤ndern":7733,"izierte":7734,"izenz":7735,"ĠAbschaffung":7736,"Ġgesunken":7737,"Ġhinein":7738,"Ã¤chte":7739,"Ġ58":7740,"Ġgeschehen":7741,"Ã¤hlten":7742,"ĠDavid":7743,"reuen":7744,"ĠÃĸkonomen":7745,"Ġgefragt":7746,"mittelt":7747,"ĠAntide":7748,"ĠMarktzu":7749,"ĠZahlungs":7750,"ĠBegrÃ¼ndung":7751,"ĠstÃ¤rk":7752,"ĠDemokraten":7753,"sproblem":7754,"Ġdahinter":7755,"ĠStrafver":7756,"ossier":7757,"ĠverfÃ¼gt":7758,"ĠGutachten":7759,"ĠKriegs":7760,"Ã¤testens":7761,"urteile":7762,"ĠgefÃ¤hrdet":7763,"partner":7764,"ĠVerwaltungsrat":7765,"Ġmonat":7766,"ĠWeniger":7767,"ĠÃ¼berprÃ¼fen":7768,"ĠhumanitÃ¤re":7769,"ĠAllianz":7770,"ĠBurkaverbot":7771,"Ġdiverse":7772,"ĠRestaurants":7773,"Ġstammt":7774,"25":7775,"Nein":7776,"oder":7777,"ussen":7778,"wuchs":7779,"ĠvÃ¶lkerrecht":7780,"Ġeins":7781,"Ġmin":7782,"Ġmotiv":7783,"ĠMag":7784,"ĠMaurer":7785,"ĠFreund":7786,"eting":7787,"Ġfaktisch":7788,"ĠKrie":7789,"Ã¶nen":7790,"isp":7791,"ĠverÃ¤nder":7792,"ĠLeut":7793,"ĠTes":7794,"entner":7795,"Ã¤nglich":7796,"ĠVerpflicht":7797,"ĠschÃ¤tzt":7798,"Ġpopul":7799,"ĠEint":7800,"verordnung":7801,"ĠErsatz":7802,"Ġwarnen":7803,"dustr":7804,"utzer":7805,"ankungen":7806,"keps":7807,"Ġ44":7808,"ĠGenau":7809,"Ġletzter":7810,"Ġ85":7811,"ĠStrich":7812,"Ġbeherr":7813,"ĠSchlÃ¼ssel":7814,"ĠMinim":7815,"Ġteilen":7816,"ĠSpielraum":7817,"ĠInformations":7818,"Ġgeblieben":7819,"ĠHauptstadt":7820,"Ġschlimm":7821,"ariat":7822,"Ġschwieriger":7823,"ĠAsylbewerber":7824,"wohnern":7825,"ĠMetall":7826,"Ġliberalen":7827,"ĠverÃ¶ffentlichten":7828,"Ġorganisiert":7829,"ĠglÃ¼ck":7830,"ĠDÃ¼rren":7831,"ĠAmerika":7832,"Ã¶mm":7833,"ĠzurÃ¼ckzufÃ¼hren":7834,"onomiesuisse":7835,"Ġausreichend":7836,"sprech":7837,"ĠMacron":7838,"ĠLeuthard":7839,"kepsis":7840,"):":7841,"Rep":7842,"dÃ¤m":7843,"dies":7844,"hten":7845,"hÃ¤nger":7846,"iden":7847,"kÃ¼n":7848,"inos":7849,"Ã¼glich":7850,"Ã¼ler":7851,"ĠwomÃ¶glich":7852,"schreiben":7853,"Ġeinges":7854,"Ġbreite":7855,"ĠBay":7856,"Ġfanden":7857,"ĠKasse":7858,"ĠWichtig":7859,"Ġgreifen":7860,"iszip":7861,"olig":7862,"Ġverste":7863,"Ġanhin":7864,"ĠHoll":7865,"ĠVersprechen":7866,"schaf":7867,"Ġumgehen":7868,"ĠErstens":7869,"ĠâĢ¹":7870,"ĠReformen":7871,"ĠReaktionen":7872,"bstanz":7873,"liefert":7874,"ĠAufenthalt":7875,"projekt":7876,"Ġ48":7877,"ĠGrundlagen":7878,"ĠMarke":7879,"ergÃ¤nzen":7880,"ĠExistenz":7881,"ĠkÃ¼nftige":7882,"Ġgeschrieben":7883,"ĠManagement":7884,"ĠDemnach":7885,"Ġeingestellt":7886,"ĠbezÃ¼glich":7887,"akter":7888,"ĠHinsicht":7889,"ĠRahmenvertrag":7890,"ĠGrÃ¼ne":7891,"Ġenor":7892,"ĠInternational":7893,"ĠSolange":7894,"ĠWochenende":7895,"ĠStimmbÃ¼rger":7896,"Ġdiskrimin":7897,"ĠEbenfalls":7898,"Ġmoderne":7899,"NationalrÃ¤tin":7900,"ĠFernseh":7901,"sspiel":7902,"Ġnahezu":7903,"Ġislamischen":7904,"ĠBundesverfassung":7905,"Ġgarantieren":7906,"Ġmuslimischen":7907,"ĠUntersuchung":7908,"mitglieder":7909,"Ġautonome":7910,"ĠgeprÃ¤gt":7911,"ĠBeschwerde":7912,"ĠWasserkraft":7913,"ĠunnÃ¶tig":7914,"Ġjeweiligen":7915,"ĠSchieds":7916,"isziplin":7917,"De":7918,"EU":7919,"Gem":7920,"IP":7921,"gÃ¼nst":7922,"het":7923,"hur":7924,"netz":7925,"potenzial":7926,"tausend":7927,"vort":7928,"aner":7929,"Ã¤sst":7930,"schr":7931,"scheine":7932,"Ġgehandelt":7933,"Ġerkannt":7934,"ĠDiesen":7935,"Ġmithilfe":7936,"reicher":7937,"Ġunten":7938,"Ġschuld":7939,"ĠAnn":7940,"verhÃ¤ltnis":7941,"Ã¶nt":7942,"artikel":7943,"Ġnochmals":7944,"barung":7945,"ĠAbs":7946,"ĠklÃ¤ren":7947,"uchten":7948,"ĠStaatsse":7949,"richter":7950,"ĠGerichte":7951,"hÃ¶rt":7952,"ĠFinanzminister":7953,"haber":7954,"ĠProdukten":7955,"ĠAntworten":7956,"zahlung":7957,"ĠAlso":7958,"willigen":7959,"ĠVolksabstimmung":7960,"ĠÃĦrzten":7961,"ĠgrundsÃ¤tz":7962,"ĠEigentlich":7963,"ĠCoop":7964,"ĠÃľberwachungs":7965,"ĠVielfalt":7966,"ĠSportler":7967,"Ġhalte":7968,"Ġerzielen":7969,"ĠAbtreibung":7970,"iefonds":7971,"underte":7972,"Ġwachsende":7973,"ĠTelek":7974,"ympath":7975,"ĠOptim":7976,"Ġbeteiligt":7977,"Ġinformiert":7978,"ĠPlay":7979,"kontrollen":7980,"Ġformuliert":7981,"vereinigung":7982,"Ġmodernen":7983,"Ġallgemeinen":7984,"ĠTourismus":7985,"ĠGeschÃ¤ftsmodell":7986,"Ġgerechtfertigt":7987,"ĠDialog":7988,"ĠLotteriefonds":7989,"ĠMÃ¼he":7990,"Vertreter":7991,"ĠAustralien":7992,"ĠDadurch":7993,"70":7994,"Blick":7995,"facht":7996,"gro":7997,"hoch":7998,"hungen":7999,"heil":8000,"lÃ¤ufig":8001,"wid":8002,"yth":8003,"ziele":8004,"anter":8005,"Ġwor":8006,"ĠSyr":8007,"ĠSkepsis":8008,"schÃ¼sse":8009,"ĠFas":8010,"ĠFlex":8011,"Ġfliegen":8012,"ĠPopul":8013,"ĠWÃ¼n":8014,"ĠVir":8015,"Ġgelegen":8016,"ĠRab":8017,"Ġleist":8018,"Ġlesb":8019,"ĠSchritte":8020,"ĠStimmung":8021,"ĠNah":8022,"ĠVerd":8023,"ĠVerdacht":8024,"ĠInner":8025,"ikon":8026,"ĠErinner":8027,"ĠErwartungen":8028,"ĠGrem":8029,"ĠenthÃ¤lt":8030,"ĠSpitze":8031,"bares":8032,"ĠBundessteuer":8033,"ession":8034,"ĠMenschenrecht":8035,"Ġbestraft":8036,"Ġbestehe":8037,"fÃ¼hrten":8038,"ĠAlbert":8039,"fahrer":8040,"linie":8041,"flation":8042,"ĠGrundversicherung":8043,"lange":8044,"behand":8045,"ĠEmp":8046,"ĠGrosse":8047,"ĠgefÃ¶rdert":8048,"ĠSteuerer":8049,"ĠPlus":8050,"loses":8051,"volle":8052,"ĠRÃ¼ckzug":8053,"betreiber":8054,"Ġlangfristig":8055,"ĠSpieler":8056,"Ġstaatlich":8057,"gemeinschaften":8058,"ĠErnst":8059,"amentlich":8060,"Ġaktuelle":8061,"beitrag":8062,"ĠBeratung":8063,"ĠVisier":8064,"Ġbeobachtet":8065,"eutral":8066,"ĠwÃ¼nschen":8067,"ĠÃ¼bernimmt":8068,"ĠTreibhausgasemissionen":8069,"Ġkonkrete":8070,"ĠeingeschrÃ¤nkt":8071,"Ġstreng":8072,"astrophe":8073,"Ġergibt":8074,"ĠPrognosen":8075,"ĠEtwa":8076,"ĠFrancisco":8077,"ĠMicrosoft":8078,"ĠAsylsuchen":8079,"ĠBÃ¶ckenfÃ¶rde":8080,"ĠYoutube":8081,"All":8082,"Ja":8083,"WF":8084,"flex":8085,"gas":8086,"gÃ¼lt":8087,"ower":8088,"weiter":8089,"Ġdur":8090,"ansp":8091,"Ġsamm":8092,"Ġdiejenigen":8093,"Ġnorm":8094,"arisch":8095,"Ġmed":8096,"ĠEffizienz":8097,"ĠBor":8098,"ĠMad":8099,"ĠhÃ¤r":8100,"ĠFur":8101,"ĠKre":8102,"ĠgeprÃ¼ft":8103,"ĠIA":8104,"Ġverhalten":8105,"redu":8106,"ĠLeicht":8107,"Ġaufnehmen":8108,"ĠUber":8109,"ĠVersuche":8110,"ilem":8111,"Ġstra":8112,"Ġstruktur":8113,"Ġscheinen":8114,"ĠFrist":8115,"ĠZufall":8116,"ĠZugleich":8117,"ĠBundesk":8118,"Ġzwingend":8119,"ĠAbbau":8120,"ĠAbfÃ¤lle":8121,"anke":8122,"ĠMedic":8123,"Ġ53":8124,"Ġgeschieht":8125,"ĠTeilnahme":8126,"gebend":8127,"ĠAutob":8128,"Ġeinzus":8129,"ĠStadtp":8130,"ibes":8131,"ĠSozialdemokraten":8132,"Ã¶tung":8133,"Ġvermeint":8134,"ĠHinblick":8135,"ĠMuslimen":8136,"braucher":8137,"Ġindessen":8138,"ĠÃĦrzt":8139,"ĠgrÃ¶sst":8140,"arife":8141,"Ġquasi":8142,"ĠÃ¤ussern":8143,"prÃ¼fung":8144,"strafen":8145,"ĠZurÃ¼ck":8146,"ĠVerhaltens":8147,"ĠGewerkschafts":8148,"ĠWahrschein":8149,"Ã¤tigkeiten":8150,"politischen":8151,"Ġorganisieren":8152,"Ġindividuelle":8153,"Ġlokalen":8154,"ĠHilf":8155,"Ġintegriert":8156,"ĠHalb":8157,"gegnen":8158,"ĠWirklichkeit":8159,"ĠÃ¤rzt":8160,"ĠVerbesserung":8161,"Ġgeniessen":8162,"ĠBezirks":8163,"ĠKindertagesstÃ¤tten":8164,"ĠAntidepressiv":8165,"Aber":8166,"App":8167,"Klima":8168,"brechen":8169,"sung":8170,"vern":8171,"wind":8172,"Ġdienen":8173,"inland":8174,"Ġsech":8175,"oni":8176,"Ġwechseln":8177,"Ġnahmen":8178,"ĠBusse":8179,"ĠMÃ¼n":8180,"Ġkoll":8181,"ĠWett":8182,"Ġergriffen":8183,"real":8184,"ĠListen":8185,"ames":8186,"sekretÃ¤r":8187,"Ġstation":8188,"ivalen":8189,"ĠÃ¼berlassen":8190,"orts":8191,"Ġabstimmen":8192,"bef":8193,"ogar":8194,"herr":8195,"rufen":8196,"bleiter":8197,"Ġgegenseit":8198,"ĠgewÃ¤hrt":8199,"schlÃ¼ssel":8200,"brÃ¼":8201,"langt":8202,"ĠBetr":8203,"acial":8204,"Ġfestlegen":8205,"ĠFalls":8206,"ĠbekÃ¤mpfen":8207,"wÃ¤rts":8208,"getragen":8209,"suchte":8210,"ĠVersicherung":8211,"ĠStimmberechtigten":8212,"Ġrichtige":8213,"ĠGlar":8214,"Ġdigital":8215,"ĠFlugzeug":8216,"ĠreligiÃ¶s":8217,"beginn":8218,"Ġfalsche":8219,"ĠBetroffene":8220,"Ġangeboten":8221,"ĠRuhe":8222,"Ġerhielt":8223,"hleten":8224,"ĠMilitÃ¤r":8225,"ĠHalbleiter":8226,"ĠgegenwÃ¤rtig":8227,"ĠInstrumente":8228,"Ġengagieren":8229,"ĠLetzter":8230,"sprÃ¼che":8231,"verdiener":8232,"ĠAargau":8233,"tokoll":8234,"ĠUmwandlungssatz":8235,"ĠGriechenland":8236,"ibesuisse":8237,"Gesch":8238,"Her":8239,"VO":8240,"bund":8241,"dass":8242,"far":8243,"familien":8244,"engen":8245,"Ġsicht":8246,"ĠEis":8247,"ĠModelle":8248,"ĠGlied":8249,"ĠKÃ¶":8250,"Ġkr":8251,"ĠWil":8252,"Ġgedacht":8253,"Ġerho":8254,"ĠLat":8255,"ĠZertifik":8256,"ams":8257,"Ġlesen":8258,"ĠSchÃ¤den":8259,"usste":8260,"Ġbeweisen":8261,"Ġschwach":8262,"annter":8263,"ernt":8264,"ĠClau":8265,"ĠEinspar":8266,"versch":8267,"mert":8268,"weren":8269,"ingern":8270,"grÃ¶s":8271,"ford":8272,"Ġzwingen":8273,"ĠMenge":8274,"Ġ37":8275,"Ġpromin":8276,"aps":8277,"ada":8278,"ĠbeschrÃ¤nkt":8279,"ikanische":8280,"zeugen":8281,"ĠgelÃ¶st":8282,"ĠAutomat":8283,"ifest":8284,"ĠmÃ¶glicherweise":8285,"vollzug":8286,"lastung":8287,"Ġmassiven":8288,"ĠLuftfahrt":8289,"ĠFreitod":8290,"ĠKapitalismus":8291,"Ġkantonale":8292,"Ġumfasst":8293,"Ġkleinere":8294,"ĠJulia":8295,"Ġinteressiert":8296,"wissenschafter":8297,"Ġberuflichen":8298,"Ġinformieren":8299,"ĠStrukturen":8300,"ĠText":8301,"ĠAnstren":8302,"ministrat":8303,"ĠImpuls":8304,"ĠEconomiesuisse":8305,"rowd":8306,"Ġelektron":8307,"Ġafrikanischen":8308,"ĠPrior":8309,"schÃ¼tzer":8310,"ĠBlocher":8311,"Ġstetig":8312,"ĠmehrheitsfÃ¤hig":8313,"ĠFinnland":8314,"Ġnachvollziehbar":8315,"Mill":8316,"disk":8317,"gungs":8318,"hop":8319,"yber":8320,"erung":8321,"ino":8322,"anien":8323,"angel":8324,"anstieg":8325,"Ġwomit":8326,"Ġwehren":8327,"ĠSkept":8328,"schub":8329,"ĠDanach":8330,"Ġmarkt":8331,"ĠEssen":8332,"derwÃ¤rmung":8333,"Ġzustimmen":8334,"ĠhÃ¶rt":8335,"ĠGratis":8336,"ĠGreen":8337,"ĠkÃ¶rper":8338,"ight":8339,"Ġverp":8340,"ĠverstÃ¤nd":8341,"Ġaner":8342,"omaten":8343,"ĠLa":8344,"ĠLern":8345,"ĠLiter":8346,"entum":8347,"anda":8348,"ĠHat":8349,"ĠIndustr":8350,"Ġstimmen":8351,"Ã¼berwach":8352,"ĠAngriff":8353,"indungen":8354,"abor":8355,"able":8356,"ĠErderwÃ¤rmung":8357,"Ã¤rkt":8358,"Ġ(..":8359,"ots":8360,"Ġnachzu":8361,"omment":8362,"ĠGebie":8363,"ĠGefahren":8364,"ĠBevor":8365,"ĠBeziehung":8366,"forschungs":8367,"Ġbetreibt":8368,"Ġbetrieben":8369,"gebiet":8370,"zieher":8371,"astet":8372,"Ġ195":8373,"ordnet":8374,"ĠFlugt":8375,"eichert":8376,"Ġgescheitert":8377,"atsÃ¤ch":8378,"etta":8379,"ĠFreier":8380,"Ġbeschleun":8381,"ĠGerhard":8382,"behalten":8383,"ĠDeutsche":8384,"Ġ2006":8385,"Ġfreilich":8386,"ĠQuellen":8387,"Ġjenes":8388,"Ġrechtlich":8389,"ĠMitteln":8390,"Ġindir":8391,"Ġerscheinen":8392,"ĠVereinten":8393,"ĠFahrer":8394,"ĠSeither":8395,"ĠSonst":8396,"ĠSterbehilfeorganisation":8397,"aiw":8398,"ĠBilanz":8399,"ĠBilater":8400,"melde":8401,"Ġregulieren":8402,"Ġzentral":8403,"Ġbeeinfl":8404,"ĠfÃ¼hlt":8405,"ĠInnovationen":8406,"ĠGeschlechts":8407,"Ġbeurteilt":8408,"ĠGlaubens":8409,"ĠkÃ¤men":8410,"ĠMichael":8411,"ĠerwÃ¤hnt":8412,"ĠspÃ¼ren":8413,"Regierung":8414,"ĠSzenario":8415,"pflanz":8416,"Ãľber":8417,"ĠAuseinandersetzung":8418,"ĠDiagnose":8419,"Gemein":8420,"**":8421,"35":8422,"Tages":8423,"krieg":8424,"kapital":8425,"pass":8426,"wÃ¶ch":8427,"zeichnen":8428,"schlossen":8429,"ĠDilem":8430,"Ġbreiten":8431,"Ġblieben":8432,"Ġfried":8433,"ĠKann":8434,"ĠKlage":8435,"ĠKibesuisse":8436,"Ġkirch":8437,"rohung":8438,"irm":8439,"rechten":8440,"Ġandern":8441,"weif":8442,"ĠNull":8443,"elles":8444,"Ġstrateg":8445,"ĠProte":8446,"ĠCam":8447,"ogo":8448,"ĠMitarbeitern":8449,"Ġkeinem":8450,"ĠBereiche":8451,"ĠArbeiten":8452,"ĠStefan":8453,"uchte":8454,"Ġ66":8455,"Ġdeutliche":8456,"licherweise":8457,"ĠArbeitszeiten":8458,"Ġeingehen":8459,"Ġ700":8460,"Ġjenem":8461,"ĠGewissen":8462,"ĠKulturfÃ¶rderung":8463,"willige":8464,"Ġaltern":8465,"ĠMinelli":8466,"gehei":8467,"ĠHoolig":8468,"legungen":8469,"glÃ¤ub":8470,"verbands":8471,"servativen":8472,"ĠETF":8473,"ĠGesprÃ¤che":8474,"Ġbezahlte":8475,"ĠAnalyt":8476,"ĠgefÃ¤hrden":8477,"bewusst":8478,"Ġgewaltt":8479,"Ġumgekehrt":8480,"ĠGottes":8481,"Ġvegane":8482,"Ġabgeschafft":8483,"Ġstimmten":8484,"ĠWeltkrieg":8485,"astrophen":8486,"enkungs":8487,"ĠKompetenz":8488,"ĠSpitÃ¤ler":8489,"Ġkonsequent":8490,"ĠBerechnungen":8491,"ĠSumme":8492,"ĠMikro":8493,"ĠUrteils":8494,"ĠDoppel":8495,"ĠgeÃ¤ussert":8496,"ĠWahrscheinlichkeit":8497,"!Â»,":8498,"48":8499,"AS":8500,"GB":8501,"fangen":8502,"gien":8503,"kinder":8504,"neiden":8505,"tran":8506,"vet":8507,"zy":8508,"Ã¨":8509,"ermassen":8510,"inken":8511,"Ġsach":8512,"itiv":8513,"ĠAir":8514,"ars":8515,"ĠBig":8516,"alte":8517,"emier":8518,"ĠMeg":8519,"ĠMorgen":8520,"Ġfiel":8521,"ĠPich":8522,"ierer":8523,"Ġverwahr":8524,"amten":8525,"ĠfÃ¼rs":8526,"ummer":8527,"ĠHass":8528,"Ġsobald":8529,"Ġstecken":8530,"Ġwirft":8531,"ĠCrowd":8532,"Ġvors":8533,"ĠOm":8534,"ĠArten":8535,"Ġentdeckt":8536,"ĠZuwanderer":8537,"ĠSpeicher":8538,"stete":8539,"steten":8540,"Ġberecht":8541,"klausel":8542,"Ġbreiter":8543,"Ġliefert":8544,"ĠÃľbergangs":8545,"wirkt":8546,"sicherung":8547,"ĠSucht":8548,"haltungen":8549,"Ġstarten":8550,"wanderern":8551,"ĠAllgemein":8552,"ĠVerbÃ¤nde":8553,"Ġbelegt":8554,"Ġverstanden":8555,"Ġgeltenden":8556,"Ġgebunden":8557,"ĠJunge":8558,"ĠÃĸffnung":8559,"ĠGefÃ¤hr":8560,"ĠerzÃ¤hlt":8561,"ĠÃ¼berzeugen":8562,"ĠWiderspruch":8563,"Ġgezielt":8564,"Ġbezahlten":8565,"Ġliberal":8566,"belastung":8567,"Ġ1980":8568,"Ġsetzten":8569,"ĠbefÃ¼rchtet":8570,"Ġniedriger":8571,"ĠAngehÃ¶rige":8572,"ĠSchwangerschafts":8573,"ĠÃĦhnlich":8574,"ĠTonne":8575,"ĠCris":8576,"ĠNachhaltigkeit":8577,"ĠNeuenburg":8578,"Ġskeptisch":8579,"Ġschrittweise":8580,"ĠTesla":8581,"anspru":8582,"BB":8583,"CC":8584,"KI":8585,"Markt":8586,"November":8587,"offen":8588,"ta":8589,"iegelt":8590,"ĠSÃ¤":8591,"ĠSand":8592,"ĠSignal":8593,"atische":8594,"itte":8595,"schlagen":8596,"Ġvol":8597,"hre":8598,"ĠBAG":8599,"alent":8600,"Ġinnov":8601,"ĠFundament":8602,"ĠKommt":8603,"lichte":8604,"urg":8605,"Ġgalt":8606,"Ġgratis":8607,"olz":8608,"Ġaufmerksam":8609,"ĠTeile":8610,"utt":8611,"ĠStocker":8612,"ochten":8613,"Ġstossen":8614,"Ġausgerechnet":8615,"ĠunzÃ¤hl":8616,"Ġschr":8617,"Ġpassen":8618,"spir":8619,"ĠCor":8620,"ĠEingriffe":8621,"verteil":8622,"verwaltung":8623,"leihen":8624,"ĠAusgangs":8625,"ĠBewohner":8626,"Ġunterwegs":8627,"ĠGesellschaften":8628,"ebene":8629,"ĠBundesgesetz":8630,"ragmat":8631,"Ġ56":8632,"Ġ59":8633,"flanzen":8634,"Ġgeschickt":8635,"Ġleider":8636,"ĠInterpret":8637,"ĠEnergiet":8638,"ĠAnti":8639,"Ġschwed":8640,"ĠmÃ¶gen":8641,"ĠSystems":8642,"ĠfÃ¼nfzig":8643,"lastet":8644,"Ġemotion":8645,"ĠVereinbarkeit":8646,"Ġaufgehoben":8647,"Ġkritisieren":8648,"ĠlÃ¤ngerem":8649,"ĠStandorte":8650,"ĠNeur":8651,"ĠTransport":8652,"ĠÃ¤hnlichen":8653,"ĠAndererseits":8654,"Ġqualifiz":8655,"ĠWohnung":8656,"Ġlautete":8657,"ĠRepubl":8658,"ĠReprÃ¤sent":8659,"ĠJugendlichen":8660,"ĠAussenminister":8661,"bilder":8662,"ĠVoraussetzung":8663,"Ġlokale":8664,"iatr":8665,"ĠZulassung":8666,"sinnigen":8667,"ĠDÃ¼rre":8668,"Ġstimmte":8669,"ĠKameras":8670,"ĠSuchmaschinen":8671,"ĠhumanitÃ¤ren":8672,"ĠBeobachter":8673,"ĠBruttoinland":8674,"Ġschlechte":8675,"ĠEmbryonen":8676,"ĠLetztlich":8677,"ĠPerspektive":8678,"ĠGemeinderat":8679,"ĠDienste":8680,"Ġeindeutig":8681,"ĠSchauspiel":8682,"rahmen":8683,"Ġ(...)":8684,"CO":8685,"Woche":8686,"azi":8687,"bach":8688,"fest":8689,"lant":8690,"Ġehr":8691,"chan":8692,"stufe":8693,"iness":8694,"gebracht":8695,"assten":8696,"schÃ¼re":8697,"ĠAlex":8698,"Ġzog":8699,"ĠErei":8700,"emente":8701,"ĠMuster":8702,"ĠGang":8703,"ĠKreis":8704,"ĠWein":8705,"ĠVom":8706,"ĠVÃ¶lker":8707,"ĠVari":8708,"ĠVÃ¶lkerrecht":8709,"Ġerkennt":8710,"Ġverun":8711,"reben":8712,"ftiger":8713,"ĠZent":8714,"ĠUBS":8715,"agten":8716,"ĠHeb":8717,"ĠHard":8718,"see":8719,"ikations":8720,"ĠAnwalt":8721,"ĠCass":8722,"ĠCels":8723,"bezÃ¼glich":8724,"ĠAuswahl":8725,"ausstieg":8726,"ĠZustand":8727,"brid":8728,"Ġbetrug":8729,"Ġbesorgt":8730,"konvention":8731,"ĠMari":8732,"agegen":8733,"ĠThese":8734,"ĠRechtsstaat":8735,"ĠGender":8736,"ĠGeldspiel":8737,"wendig":8738,"ards":8739,"gemacht":8740,"Ġoffenen":8741,"aupts":8742,"schef":8743,"Ġgestalten":8744,"beteiligung":8745,"Ġbefragten":8746,"bestritten":8747,"besteuerung":8748,"azitÃ¤ten":8749,"sprogramm":8750,"ĠNutzern":8751,"ĠStrafrecht":8752,"Ġvertie":8753,"rategien":8754,"gnor":8755,"zusp":8756,"Ġbestehende":8757,"ĠLiebe":8758,"ĠnÃ¶tigen":8759,"krÃ¤ften":8760,"ĠGefangen":8761,"ĠÃ¤ussert":8762,"Ġlaufende":8763,"Ġanzubieten":8764,"Ġwachsenden":8765,"ĠSwisscom":8766,"ĠSÃ¼dkorea":8767,"ĠJugendliche":8768,"ĠjÃ¼ngste":8769,"Ġerheblich":8770,"ografie":8771,"ĠLegisl":8772,"amerika":8773,"ĠRoh":8774,"Ġtraditionelle":8775,"ĠberÃ¼cksichtigen":8776,"ĠAuffassung":8777,"ĠVerknÃ¼":8778,"ĠRheinau":8779,"Ġgehabt":8780,"ĠSRF":8781,"Ġleichter":8782,"Ġadoptieren":8783,"ĠErwachsene":8784,"ĠTheorie":8785,"ĠEthik":8786,"ĠDaher":8787,"siehe":8788,"ĠKohlendioxid":8789,"ĠPichai":8790,"ĠCassis":8791,"ĠCelsius":8792,"?Â»,":8793,"Auch":8794,"FDP":8795,"ding":8796,"niss":8797,"risiko":8798,"sbe":8799,"vp":8800,"woche":8801,"initi":8802,"Ã¼ten":8803,"ĠSant":8804,"ites":8805,"Ġmark":8806,"ĠBDP":8807,"ĠMord":8808,"ĠMode":8809,"Ġheter":8810,"ĠFel":8811,"ĠFonds":8812,"Ã¼rt":8813,"ĠKund":8814,"ĠPen":8815,"bern":8816,"igant":8817,"ĠWesen":8818,"ĠWÃ¤hrungs":8819,"Ġverheirat":8820,"ĠLeu":8821,"ĠLok":8822,"ĠLeuten":8823,"ĠTV":8824,"ĠTur":8825,"ĠZer":8826,"ĠVerteil":8827,"Ġstud":8828,"Ġschlagen":8829,"Ġwies":8830,"ĠÃ¼bertragen":8831,"ĠUnfÃ¤lle":8832,"ĠCon":8833,"verst":8834,"werben":8835,"Ġunterb":8836,"ĠMittler":8837,"utzend":8838,"ĠAufstieg":8839,"zep":8840,"ĠÃľbernahme":8841,"enzin":8842,"ĠBetriebe":8843,"Ġselbstbest":8844,"Ġdeutlicher":8845,"italien":8846,"ĠPresse":8847,"ĠPremier":8848,"Ġleitet":8849,"Ġwenigsten":8850,"gesetzbuch":8851,"Institut":8852,"betrag":8853,"Ġbegann":8854,"Ġbelasten":8855,"Ġteilnehmen":8856,"azit":8857,"ĠRichtlinien":8858,"ĠInformatik":8859,"ĠZweitens":8860,"ĠFilme":8861,"Ġzunehmende":8862,"ĠPlanung":8863,"ĠGewerkschaft":8864,"Ġirgendwo":8865,"ĠLuzerner":8866,"ĠKombin":8867,"politische":8868,"ĠApotheke":8869,"ĠBÃ¼ro":8870,"Ġbeantragen":8871,"kohol":8872,"ĠEmpfehlungen":8873,"Ġkontrolliert":8874,"ĠAnpassungen":8875,"Ġbehauptet":8876,"ĠVerschÃ¤r":8877,"spolitischen":8878,"SGVO":8879,"Ġverringern":8880,"Ġlandes":8881,"Ġschweizerischen":8882,"ĠJoh":8883,"ĠMasseneinwanderungsinitiative":8884,"ĠVerbreitung":8885,"ĠAufsichts":8886,"ĠVerhÃ¤ltnisse":8887,"Mitglied":8888,"ĠHandlungsbedarf":8889,"ĠausdrÃ¼cklich":8890,"ĠCrispr":8891,"-)":8892,"17":8893,"Aut":8894,"Fraktion":8895,"GE":8896,"Ge":8897,"Or":8898,"Parlament":8899,"cess":8900,"idem":8901,"nur":8902,"nÃ¼tz":8903,"asste":8904,"orben":8905,"ĠmÃ¤cht":8906,"ĠEu":8907,"ĠBaum":8908,"ĠMand":8909,"Ġzut":8910,"Ġholen":8911,"ĠFo":8912,"ĠFazit":8913,"Ġfinde":8914,"Ã¼rk":8915,"ĠPaket":8916,"Ã¶te":8917,"lichem":8918,"Ġgearbeitet":8919,"ĠRen":8920,"ĠRacial":8921,"Ġanpassen":8922,"ĠTsch":8923,"ĠTore":8924,"ĠfÃ¼rchten":8925,"ĠSchne":8926,"ĠSchengen":8927,"sektor":8928,"ilien":8929,"Ġausgesetzt":8930,"ĠCyber":8931,"ĠallfÃ¤llige":8932,"Ġtro":8933,"Ġtot":8934,"ĠtatsÃ¤ch":8935,"ĠRezept":8936,"werden":8937,"werks":8938,"ĠSieg":8939,"ĠUmfang":8940,"ĠAuflagen":8941,"mee":8942,"mechan":8943,"Ġev":8944,"ĠParad":8945,"konfl":8946,"ĠNachwuchs":8947,"mitten":8948,"Ġselbstfahr":8949,"ĠSteuers":8950,"ettung":8951,"fache":8952,"hafen":8953,"zeugt":8954,"ĠverlÃ¤nger":8955,"eintrÃ¤cht":8956,"ĠSozialversicherungen":8957,"ĠWahlrecht":8958,"Ġderzeitigen":8959,"Ġbedingt":8960,"ĠDefin":8961,"ĠLebensqualitÃ¤t":8962,"ĠBedrohung":8963,"Ġkritisierte":8964,"ĠZweiten":8965,"ĠWertsch":8966,"ĠJuncker":8967,"ĠzulÃ¤ssig":8968,"ssysteme":8969,"ype":8970,"Ġernsthaft":8971,"ĠNiederlan":8972,"ĠBÃ¼rgern":8973,"ĠLegalisierung":8974,"Ġresult":8975,"wissenschaft":8976,"ĠbÃ¼rgerliche":8977,"ĠOption":8978,"ĠBedÃ¼rfnis":8979,"ĠTerrorismus":8980,"Ġehemaligen":8981,"ĠgewÃ¤hren":8982,"Jahrhunderts":8983,"technik":8984,"ĠÃ¼berprÃ¼ft":8985,"Ã¶chent":8986,"Ġablehnen":8987,"oleranz":8988,"ĠMachine":8989,"Ġrussischen":8990,"ĠErkenntnisse":8991,"ĠVerschwÃ¶rungstheor":8992,"ĠSchicksal":8993,"Technologie":8994,"Ġwarnte":8995,"Ġmitteilte":8996,"ĠSyrien":8997,"Ġbeeinflusst":8998,"kaufen":8999,"uste":9000,"wal":9001,"iefer":9002,"stÃ¤nde":9003,"einhalb":9004,"ĠSar":9005,"ĠSeg":9006,"atter":9007,"atischen":9008,"Ġveh":9009,"ĠDagegen":9010,"Ġzeige":9011,"Ġnamentlich":9012,"Ġbein":9013,"gentur":9014,"ĠMc":9015,"Ġinst":9016,"Ġharm":9017,"ĠhÃ¶ren":9018,"ĠfÃ¤hrt":9019,"ĠKlin":9020,"Ã¶konom":9021,"urst":9022,"ĠWid":9023,"irgend":9024,"Ġerlassen":9025,"rechnen":9026,"ĠTun":9027,"ĠTaten":9028,"utung":9029,"Ġlehnen":9030,"ĠNoten":9031,"ĠInst":9032,"ĠInhalte":9033,"Ġbegegnen":9034,"ĠvorÃ¼ber":9035,"Ġtausend":9036,"Ġruft":9037,"ĠVorurteile":9038,"Ġunters":9039,"Ġregeln":9040,"ommiss":9041,"Ġberichten":9042,"limmer":9043,"Ġvieles":9044,"ĠÃľberlegungen":9045,"rechtlichen":9046,"Ġerstes":9047,"Ã¤ngig":9048,"ĠgeschÃ¼tzt":9049,"ustr":9050,"okratie":9051,"Ġfesthalten":9052,"ĠGerÃ¤te":9053,"ĠGegenzug":9054,"Ġleidet":9055,"Ġeingehalten":9056,"how":9057,"Ġwenigstens":9058,"chtenstein":9059,"ĠDiskurs":9060,"ĠRahmenbedingungen":9061,"ĠfrÃ¼hen":9062,"eidung":9063,"Ġentscheidende":9064,"ĠFachkrÃ¤fte":9065,"Ġgrundlegen":9066,"Ġfehlen":9067,"Ġempfehlen":9068,"ĠEuropÃ¤er":9069,"ĠPaaren":9070,"ĠGelegen":9071,"Ġerhebliche":9072,"ĠAlternativen":9073,"Ġabsolut":9074,"unkel":9075,"ĠFlÃ¼chtling":9076,"Ġtraditionellen":9077,"Ġillegale":9078,"ĠgegenwÃ¤rtigen":9079,"Ã¤ume":9080,"ĠNachbarn":9081,"mitglied":9082,"Ġpubliziert":9083,"ĠSRG":9084,"ĠKusch":9085,"ĠOperation":9086,"ĠAnklage":9087,"behandlung":9088,"kette":9089,"mie":9090,"of":9091,"Ġ$":9092,"ĠâĤ¬":9093,"erten":9094,"Ġdi":9095,"inent":9096,"inform":9097,"Ġsk":9098,"ĠwÃ¶chent":9099,"Ã¤tern":9100,"ĠDutzend":9101,"Ġeinher":9102,"ĠEi":9103,"ĠBall":9104,"ĠBenzin":9105,"emm":9106,"etails":9107,"ĠPal":9108,"Ġkanad":9109,"igur":9110,"ĠWorte":9111,"ĠgrÃ¼":9112,"Ġguter":9113,"Ġglaube":9114,"ĠRollen":9115,"ehle":9116,"Ġsichern":9117,"agern":9118,"ĠSchrift":9119,"ĠSchmerz":9120,"ĠNation":9121,"ĠVerteilung":9122,"ĠJÃ¼r":9123,"ikationen":9124,"ahls":9125,"Ġschauen":9126,"Ġdemonstr":9127,"vergleich":9128,"Ġtrat":9129,"zufrieden":9130,"ĠEngl":9131,"Ġmehrmals":9132,"ĠDeren":9133,"Ġnachge":9134,"endung":9135,"Ġdurchsetzen":9136,"ĠBundeshaus":9137,"ektr":9138,"klagt":9139,"Ġzweimal":9140,"obel":9141,"uds":9142,"inderung":9143,"ĠAlp":9144,"ĠAlkohol":9145,"ĠKlimas":9146,"aster":9147,"Ġ41":9148,"ĠMarken":9149,"warten":9150,"ĠBundesrates":9151,"neten":9152,"hÃ¶hungen":9153,"reuz":9154,"Ġbezeichnen":9155,"Ġunserem":9156,"ĠVerbrechen":9157,"ĠÃĸk":9158,"Ġvergangene":9159,"zweck":9160,"ĠBÃ¼rgerlichen":9161,"ĠBÃ¼rgerinnen":9162,"ĠRÃ¼ckfall":9163,"Ġrechtfert":9164,"Ġbeglei":9165,"jÃ¤hriger":9166,"Ġdecken":9167,"Ġschwerer":9168,"ĠbegrÃ¼ssen":9169,"ĠVersicherungen":9170,"ĠFahren":9171,"alyse":9172,"Ġgebaut":9173,"ĠHochschule":9174,"gnost":9175,"stehenden":9176,"ĠGesundheitskosten":9177,"Ġhalbe":9178,"Ġprivat":9179,"Ġbenachteil":9180,"Ġsexuellen":9181,"ĠAtomausstieg":9182,"ĠKompensation":9183,"Ã¼ndeten":9184,"ĠNebenwirkungen":9185,"systems":9186,"hÃ¤user":9187,"ĠMilch":9188,"ĠPrinzipien":9189,"Ġradio":9190,"ĠBundesverwaltungs":9191,"Ġproduzieren":9192,"ĠRoman":9193,"ĠVertrags":9194,"Ġkatholischen":9195,"ĠStandards":9196,"ĠFreiheitsstrafe":9197,"Ġkorrig":9198,"ĠStaatsanwaltschaft":9199,"ĠMechanismus":9200,"ĠzustÃ¤ndige":9201,"ĠEidgenÃ¶ssischen":9202,"Firmen":9203,"Ġtenden":9204,"Ġassist":9205,"ĠBegrenzung":9206,"ĠPostulat":9207,"ĠstÃ¤dtischen":9208,"ĠBruttoinlandprodukt":9209,"nisses":9210,"ĠJohann":9211,"15":9212,"KR":9213,"bis":9214,"bahn":9215,"dp":9216,"ect":9217,"mon":9218,"mern":9219,"pel":9220,"instanz":9221,"Ġsan":9222,"ĠSamen":9223,"ller":9224,"Ġeinfachen":9225,"ĠbrÃ¤":9226,"Ġbildet":9227,"orten":9228,"ĠFix":9229,"Ã¼rcher":9230,"Ġkn":9231,"eline":9232,"mensch":9233,"rek":9234,"recken":9235,"Ġaufger":9236,"ĠTÃ¤tigkeiten":9237,"weigen":9238,"ĠUeli":9239,"ĠStamm":9240,"ĠNat":9241,"lebt":9242,"Ġuntern":9243,"ĠAnwendungen":9244,"abdruck":9245,"ĠCommun":9246,"ĠCenter":9247,"ĠJahrtausend":9248,"ester":9249,"artige":9250,"bewegung":9251,"izierten":9252,"endaten":9253,"ĠBefÃ¼r":9254,"Ġrevid":9255,"chneten":9256,"ĠImpfung":9257,"Ġgewachsen":9258,"ĠAufgrund":9259,"obs":9260,"ĠRegime":9261,"wies":9262,"ĠPark":9263,"Ġ51":9264,"ĠGoogles":9265,"ĠUnterschriften":9266,"Ġgemeint":9267,"frika":9268,"ĠMehrere":9269,"ĠWirtschaftsk":9270,"Ġeingest":9271,"ĠGroup":9272,"ĠBlog":9273,"garten":9274,"ĠBrand":9275,"ĠAtomen":9276,"Ġrechtliche":9277,"ĠPfarr":9278,"zahler":9279,"Ġversteht":9280,"ĠVolksbe":9281,"ĠAbstand":9282,"ĠWeisse":9283,"ĠlÃ¤ngeren":9284,"Projekt":9285,"Ġentwickelten":9286,"Ġ180":9287,"ĠInitiativ":9288,"ĠEbenso":9289,"Ġfehlende":9290,"Verein":9291,"ĠPlaneten":9292,"Ġzahlt":9293,"Ġgetreten":9294,"Ġ2025":9295,"Ġspeziell":9296,"ĠVerhandlungs":9297,"ĠKontingen":9298,"Ġnegativ":9299,"ĠverÃ¶ffentlichte":9300,"Ġelf":9301,"ĠNachteile":9302,"GrÃ¼nder":9303,"Ġforderten":9304,"ĠUntersuchungen":9305,"gegner":9306,"heoretisch":9307,"ĠÃ¼brigens":9308,"Ġabsehbar":9309,"Ġgleichgeschlechtliche":9310,"sperren":9311,"lÃ¤sslich":9312,"Ġsprachen":9313,"ĠFrÃ¼her":9314,"Ġproblematisch":9315,"Ġeffizienter":9316,"Ġberuht":9317,"Ġverurteilt":9318,"ĠUnabhÃ¤ngigkeit":9319,"Ġhiesigen":9320,"ĠfamilienergÃ¤nzen":9321,"ĠLogik":9322,"ĠKatholiken":9323,"ĠHarv":9324,"ĠAntidepressiva":9325,"ĠEinsparungen":9326,"ĠMittlerweile":9327,"IV":9328,"LÃ¤nder":9329,"Was":9330,"afrikan":9331,"earch":9332,"wa":9333,"wÃ¼n":9334,"Ġ&":9335,"Ġdrast":9336,"eiert":9337,"union":9338,"ĠSitze":9339,"ĠSympath":9340,"ĠSogar":9341,"schicht":9342,"Ġzei":9343,"Ġziel":9344,"Ġnutz":9345,"alisiert":9346,"Ġhaupts":9347,"ĠPier":9348,"ĠVegan":9349,"Ġgreift":9350,"ĠgeÃ¶ffnet":9351,"ĠRich":9352,"isst":9353,"ision":9354,"Ġverg":9355,"Ġverhandeln":9356,"ĠLi":9357,"ĠTarife":9358,"ĠZeu":9359,"Ġmitten":9360,"weichen":9361,"ĠHels":9362,"Ġbefrist":9363,"Ġschliesst":9364,"ĠAnzeigen":9365,"ĠCS":9366,"ĠEinheit":9367,"Ġvorder":9368,"Ġvorindustrie":9369,"Ġumzu":9370,"Ġtotal":9371,"Ã¤rmer":9372,"opol":9373,"lad":9374,"usser":9375,"Ġrisk":9376,"ogle":9377,"ĠVorstellungen":9378,"ĠSpiele":9379,"Ġgesamt":9380,"Ġzweif":9381,"Ġ39":9382,"samkeit":9383,"Ġkonstru":9384,"Ġkonsum":9385,"Ġliege":9386,"Ã¤ssige":9387,"ĠWerten":9388,"mittler":9389,"ĠArbeitslosigkeit":9390,"Ġbleibe":9391,"genda":9392,"Ġ2002":9393,"Ã¤dag":9394,"ĠBehaupt":9395,"Ġbegleitet":9396,"ĠVolkswirtschaft":9397,"ĠMitgliedern":9398,"ĠDatenschutzgesetz":9399,"Ġjederzeit":9400,"Ġlegte":9401,"opping":9402,"produkten":9403,"ĠEinzelne":9404,"legte":9405,"Ġerneuerbarer":9406,"ĠLeverk":9407,"Ġverabschieden":9408,"verlust":9409,"ĠbestÃ¤tigte":9410,"ĠTests":9411,"politisch":9412,"ĠStrassenverkehr":9413,"Ġschwarz":9414,"Ġ1970":9415,"ĠRoger":9416,"ĠverstÃ¤rken":9417,"Ġkulturelle":9418,"ĠWolff":9419,"Ġverankern":9420,"Ġfestgelegt":9421,"Ġaggress":9422,"ĠDelegierten":9423,"Entwick":9424,"Ġsystematisch":9425,"Ġverringer":9426,"Ġvertrauen":9427,"sextremismus":9428,"ĠverschÃ¤rft":9429,"ĠLambert":9430,"Media":9431,"Ġzitiert":9432,"ĠergÃ¤nzt":9433,"ĠOrientierung":9434,"ĠQualifik":9435,"ĠService":9436,"ĠÃ¼berdurchschnittlich":9437,"ĠSkeptiker":9438,"ĠSchwangerschaftsab":9439,"ĠhauptsÃ¤chlich":9440,"ĠLeverkusen":9441,"Bei":9442,"Partei":9443,"The":9444,"ios":9445,"lÃ©":9446,"papier":9447,"stÃ¼ck":9448,"Ġsign":9449,"tele":9450,"ĠDetails":9451,"Ġnannte":9452,"ĠFar":9453,"ĠKlei":9454,"ĠKrebs":9455,"ĠKomment":9456,"ĠPakt":9457,"achbar":9458,"irgt":9459,"Ġerfahren":9460,"rechnung":9461,"Ġmitge":9462,"umÃ¤n":9463,"ĠHistor":9464,"ĠNeuer":9465,"Ġbezieht":9466,"ĠstÃ¼nden":9467,"Ġscharf":9468,"Ġschmerz":9469,"ĠAnne":9470,"Ġplan":9471,"ĠProzesse":9472,"ĠProjekten":9473,"ĠEinsicht":9474,"Ġjetz":9475,"ulden":9476,"halter":9477,"ĠArm":9478,"ĠArch":9479,"zenar":9480,"ĠKond":9481,"ĠKontext":9482,"ĠBundesgerichts":9483,"ĠUmfragen":9484,"ĠBeihilfe":9485,"geboten":9486,"ĠÃľbergriffe":9487,"Ã¤ssigen":9488,"wiegend":9489,"Ġgeringen":9490,"Ġ46":9491,"kontroll":9492,"quivalen":9493,"ĠFreihandels":9494,"rennen":9495,"ĠDavon":9496,"ĠProblemen":9497,"Ġheim":9498,"ĠDemonst":9499,"Ġdreissig":9500,"eprÃ¤sident":9501,"work":9502,"Ġexterne":9503,"Ġrechtlichen":9504,"bietern":9505,"ĠMail":9506,"sprochen":9507,"ĠFahrzeug":9508,"ĠZumindest":9509,"hÃ¤ltnismÃ¤ssig":9510,"ĠreligiÃ¶ser":9511,"Ġplant":9512,"ssystems":9513,"Ġmodern":9514,"Ġ2022":9515,"ĠBotschafter":9516,"ĠBrÃ¼sseler":9517,"Ġbevorzu":9518,"ĠErdgas":9519,"ĠNiederlage":9520,"ĠMarkus":9521,"ĠMinderheiten":9522,"jenige":9523,"ĠÃ¼berrascht":9524,"Ġpsychisch":9525,"ĠÃ¼berwachen":9526,"ĠPublikation":9527,"Ġgarantiert":9528,"ĠArbeitsplatz":9529,"ĠAndrea":9530,"ĠImmobil":9531,"Ã¼chtern":9532,"ĠPortug":9533,"Ġdauerhaft":9534,"ĠverfÃ¼gbar":9535,"ĠKÃ¶nig":9536,"ĠFÃ¤higkeiten":9537,"ĠLobby":9538,"Ġbegrenzt":9539,"ĠKÃ¼ndigung":9540,"ĠVenezuela":9541,"reffend":9542,"ĠSimonetta":9543,"Ġsichtbar":9544,"ĠOmb":9545,"Men":9546,"Raum":9547,"Son":9548,"Vers":9549,"gÃ¼t":9550,"hel":9551,"karte":9552,"neu":9553,"zungs":9554,"Ġdauert":9555,"stimm":9556,"Ġsug":9557,"Ã¤sse":9558,"ĠSektor":9559,"asie":9560,"schirm":9561,"ĠDek":9562,"ĠDirekt":9563,"Ġeiniges":9564,"ĠAgenda":9565,"ĠBert":9566,"ala":9567,"ĠMult":9568,"Ġinhalt":9569,"Ġzufolge":9570,"Ġhandel":9571,"ĠFC":9572,"ĠFliegen":9573,"Ã¼rzen":9574,"denk":9575,"ĠKunde":9576,"ĠPaul":9577,"Ġkaliforn":9578,"Ġdenk":9579,"Ġdenkt":9580,"Ġgrav":9581,"Ġergeben":9582,"isstr":9583,"Ġverbr":9584,"ĠLust":9585,"ĠTausende":9586,"Ġmitunter":9587,"reichte":9588,"ĠNest":9589,"ĠInstitution":9590,"Ġbeauft":9591,"ĠAnhÃ¤nger":9592,"spaltung":9593,"iene":9594,"ĠProf":9595,"ĠCDU":9596,"ungslos":9597,"ungsbehÃ¶rden":9598,"Ġtreiben":9599,"gerÃ¤te":9600,"ĠErkran":9601,"ĠSchweizern":9602,"Ã¤rer":9603,"opfer":9604,"lafen":9605,"Ġenth":9606,"Ġentschied":9607,"chnungs":9608,"ĠAbklÃ¤rungen":9609,"ĠEnthaltungen":9610,"klen":9611,"itÃ¤ts":9612,"Ġgesucht":9613,"aufsicht":9614,"rium":9615,"Ġechte":9616,"Ġliesse":9617,"Ã¤ufe":9618,"ĠKantonal":9619,"perte":9620,"attung":9621,"ĠkÃ¼nftigen":9622,"ĠManager":9623,"Stimmen":9624,"Ġverliert":9625,"ĠChem":9626,"Ġexport":9627,"ĠRÃ¼ckkehr":9628,"ĠPrivate":9629,"ĠGrÃ¼nliber":9630,"bestand":9631,"ĠApps":9632,"ĠgrosszÃ¼g":9633,"zeptanz":9634,"ĠVereins":9635,"ipation":9636,"Ġbedeute":9637,"ĠDaran":9638,"ĠChristen":9639,"ĠBefund":9640,"ĠLearning":9641,"Ġerzielt":9642,"ĠÃ¶fter":9643,"Ġlaufend":9644,"ĠFernsehen":9645,"ĠkostengÃ¼nst":9646,"Grund":9647,"ĠWissenschaftler":9648,"Ġversichert":9649,"deckung":9650,"Ġaussehen":9651,"ĠgewÃ¤hrleistet":9652,"Ġfremden":9653,"ĠfranzÃ¶sische":9654,"ĠZunÃ¤chst":9655,"Ġrussische":9656,"Ġerstaunt":9657,"ĠStudenten":9658,"fÃ¤ltig":9659,"hÃ¼llungs":9660,"ynamik":9661,"ĠgegrÃ¼ndet":9662,"ĠFremd":9663,"ĠlebenslÃ¤ng":9664,"Ġparlamentarische":9665,"Ġpoln":9666,"ĠLuxem":9667,"ĠHasht":9668,"Ġscheiterte":9669,"ĠMitarbeitenden":9670,"ĠstÃ¤rksten":9671,"ĠAnstrengungen":9672,"ĠHooligans":9673,"ommissar":9674,"ĠGelegenheit":9675,"44":9676,"46":9677,"?Â».":9678,"Dem":9679,"HO":9680,"Kl":9681,"PF":9682,"bten":9683,"kund":9684,"viel":9685,"wil":9686,"Ġ\"":9687,"ĠÃ¶ffnen":9688,"Ġitalien":9689,"eien":9690,"ichen":9691,"einrichtungen":9692,"Ġeint":9693,"Ġmult":9694,"Ġignor":9695,"ĠEg":9696,"empf":9697,"ĠMatt":9698,"ĠFreude":9699,"Ġfix":9700,"ĠGlaube":9701,"ĠKÃ¼rz":9702,"ĠKreise":9703,"ĠPas":9704,"auchen":9705,"aussen":9706,"Ã¶ten":9707,"Ã¶gen":9708,"Ġkrank":9709,"Ġgeist":9710,"Ġanschliessend":9711,"ĠTab":9712,"ĠTÃ¤tigkeit":9713,"ĠSchle":9714,"ĠHot":9715,"ĠHuman":9716,"usion":9717,"Ġbeenden":9718,"Ġbeanspru":9719,"Ġsteig":9720,"ĠUnit":9721,"Ġjung":9722,"ĠErl":9723,"Ġabschliessen":9724,"beauftrag":9725,"Ġgesunde":9726,"aufe":9727,"ĠbetrÃ¤cht":9728,"Ġprotest":9729,"Ġgenet":9730,"Ġgenannte":9731,"innern":9732,"ĠÃľbergang":9733,"Ġwiederholt":9734,"folgung":9735,"ĠGeschÃ¤fte":9736,"ĠGenfer":9737,"ĠPolitikern":9738,"ĠzurÃ¼ckhalten":9739,"ammelt":9740,"Ġweibliche":9741,"sozial":9742,"Ġexp":9743,"Ġbehalten":9744,"Ġgestern":9745,"gehenden":9746,"ĠZahlung":9747,"uropÃ¤ischen":9748,"Ġteilt":9749,"ĠBeschluss":9750,"Ġstaatlicher":9751,"fÃ¤hige":9752,"ĠKohÃ¤":9753,"Ġbetroffene":9754,"Anzei":9755,"ĠMotiv":9756,"ifiziert":9757,"Ġverzichtet":9758,"ĠNiemand":9759,"glomer":9760,"ĠÃĸffnungszeiten":9761,"ĠpersÃ¶nlicher":9762,"ĠMethoden":9763,"Ġverabschiede":9764,"ĠBundesamts":9765,"ĠTempo":9766,"Ġverpflichten":9767,"ĠMobilfunk":9768,"Abgabe":9769,"Ġroten":9770,"Ġbeantworten":9771,"Ġbetrachten":9772,"Ġnachhaltig":9773,"krank":9774,"Ġmoralische":9775,"ĠBroschÃ¼re":9776,"ministeriums":9777,"Ġengagiert":9778,"ĠBevÃ¶lkerungswachstum":9779,"Ġkonservativen":9780,"ĠTessiner":9781,"heoretiker":9782,"instituts":9783,"Ġauftreten":9784,"Ġklassischen":9785,"ĠDorf":9786,"ĠzustÃ¤ndigen":9787,"ĠSaison":9788,"ĠDrittstaaten":9789,"ĠFÃ¤higkeit":9790,"sitzende":9791,"Ġanerkannt":9792,"ĠRendite":9793,"ĠProstituierte":9794,"Ġlangfristigen":9795,"cyc":9796,"ĠAbhÃ¤ngigkeit":9797,"ĠIAAF":9798,"ĠLeichtat":9799,"ĠBezirksgericht":9800,"ĠFlugticket":9801,"wÃ¶chigen":9802,"ĠVerknÃ¼pfung":9803,"ĠgrÃ¼nen":9804,"27":9805,"36":9806,"42":9807,"Franken":9808,"GH":9809,"Kr":9810,"MU":9811,"NZZ":9812,"Zeit":9813,"fehler":9814,"iater":9815,"kÃ¶mm":9816,"ret":9817,"steht":9818,"ĠSNB":9819,"gegn":9820,"schmid":9821,"Ġvolle":9822,"ĠDos":9823,"ĠAR":9824,"ĠAx":9825,"Ġzer":9826,"ordent":9827,"Ġmasch":9828,"gentin":9829,"ĠMoral":9830,"Ġhomosexuelle":9831,"ĠFoll":9832,"Ġfinn":9833,"ĠKreisen":9834,"ĠPubl":9835,"lichkeits":9836,"ĠWh":9837,"ĠWende":9838,"Ġgelangen":9839,"ischung":9840,"Ġerfordert":9841,"Ġerinnern":9842,"Ġversprochen":9843,"ehlung":9844,"Ġanhalten":9845,"ĠLÃ¤den":9846,"ĠLenkungs":9847,"ĠSchÃ¼ler":9848,"ĠStan":9849,"etzten":9850,"etzungen":9851,"Ġunl":9852,"Ġunsicher":9853,"Ġpartei":9854,"Ġvorange":9855,"Ġtreibt":9856,"ĠErf":9857,"werbung":9858,"ĠAuswertung":9859,"ausschuss":9860,"Ġandererseits":9861,"ĠKons":9862,"liebe":9863,"immel":9864,"ĠBerg":9865,"Ġ3000":9866,"Ġprogress":9867,"Ġbesetzt":9868,"Ġbrem":9869,"vorschriften":9870,"ferenzen":9871,"Ġsolid":9872,"Ġ57":9873,"ĠGrundsÃ¤tzlich":9874,"ĠUnterhalt":9875,"aktive":9876,"kehren":9877,"Ġbescheiden":9878,"ĠArbeitslosen":9879,"ĠArbeitskrÃ¤fte":9880,"behagen":9881,"ĠGegenwart":9882,"nitten":9883,"aldo":9884,"ĠUrlaub":9885,"plÃ¤tze":9886,"erecht":9887,"Ġtesten":9888,"ĠgestÃ¤rkt":9889,"ĠNeue":9890,"Ġbewahren":9891,"Ġautorit":9892,"Ġkritischen":9893,"ĠKrypto":9894,"ĠResearch":9895,"ĠSonnen":9896,"ĠverknÃ¼pft":9897,"ivileg":9898,"regulierung":9899,"stehende":9900,"ĠInsel":9901,"ĠWachstums":9902,"ĠFernmelde":9903,"Ġverdanken":9904,"hema":9905,"Ġtiefere":9906,"ĠPhilipp":9907,"ĠAktivisten":9908,"ĠRomand":9909,"Ġmuslimische":9910,"ĠUrsachen":9911,"ĠungewÃ¶hn":9912,"Ġbedingungslosen":9913,"ĠAustritt":9914,"Ġchristlichen":9915,"ĠBestandteil":9916,"ĠBussen":9917,"Ġorientiert":9918,"ĠFranzosen":9919,"Ġvorgeschlagene":9920,"ĠKompetenzen":9921,"republik":9922,"ĠStÃ¤rke":9923,"ĠFÃ¼nftel":9924,"ĠMeeres":9925,"Ġadministrat":9926,"ĠEinschrÃ¤nkungen":9927,"ĠSÃ¼den":9928,"ĠJedes":9929,"ĠSchiedsgericht":9930,"ĠErinnerung":9931,"ĠKÃ¶pp":9932,"ĠBilateralen":9933,"ĠAusgangslage":9934,"ĠKombination":9935,"Ã¤dagog":9936,"ĠOmbuds":9937,"16":9938,"Mehr":9939,"diert":9940,"hart":9941,"hausen":9942,"iot":9943,"kÃ¶pf":9944,"meld":9945,"moral":9946,"religi":9947,"sh":9948,"sive":9949,"uck":9950,"Ġreisen":9951,"erd":9952,"ieb":9953,"unz":9954,"anbieter":9955,"analyse":9956,"schart":9957,"llekt":9958,"ĠDÃ¤n":9959,"Ġnord":9960,"genie":9961,"ĠEd":9962,"ĠMos":9963,"ĠMauer":9964,"ĠGÃ¶ss":9965,"ĠKÃ¶l":9966,"Ã¶pft":9967,"iganten":9968,"ĠVo":9969,"ĠgeklÃ¤rt":9970,"ĠII":9971,"Ġverglichen":9972,"ĠZut":9973,"ĠStein":9974,"Ġbedenken":9975,"Ġstanden":9976,"Ġstopp":9977,"Ġsteckt":9978,"senz":9979,"ahe":9980,"ĠUnbehagen":9981,"ĠErgÃ¤n":9982,"rÃ¤ftig":9983,"merzen":9984,"stellungs":9985,"Ġneusten":9986,"ĠUmstand":9987,"ssteuern":9988,"Ġprofession":9989,"Ġprognost":9990,"rian":9991,"Ġbesondere":9992,"Ġbesuchen":9993,"ĠBetschart":9994,"ackt":9995,"Ġpolitisches":9996,"echte":9997,"Ã¤mpf":9998,"ĠManipul":9999,"StÃ¤nder":10000,"ĠTrennung":10001,"Ġweisse":10002,"Ġhoher":10003,"ĠPlattformen":10004,"unktionen":10005,"ĠHinweis":10006,"ĠAtomm":10007,"phase":10008,"zahlungen":10009,"Ġweltweite":10010,"lastik":10011,"Ġlangem":10012,"azin":10013,"ĠBesser":10014,"ĠRespekt":10015,"gemeinde":10016,"ĠPrÃ¤sidentin":10017,"ĠEigent":10018,"ĠChristentum":10019,"zusagen":10020,"sparent":10021,"ĠLiechtenstein":10022,"Ġschwierigen":10023,"begleitung":10024,"obert":10025,"ĠLev":10026,"Ġgutem":10027,"Ġjemanden":10028,"ĠSeni":10029,"lebens":10030,"ĠWeber":10031,"ĠJede":10032,"Ġdemokratisch":10033,"testet":10034,"Ã¼hungen":10035,"ĠKonflikte":10036,"Ġerheben":10037,"ĠvernÃ¼n":10038,"Ġmeinte":10039,"Ġabsolute":10040,"ĠAnreiz":10041,"Reform":10042,"Ġausgebil":10043,"ĠLeip":10044,"ĠKonsequenz":10045,"Ġumfassende":10046,"Ġheftig":10047,"ĠgeprÃ¤gten":10048,"ĠKader":10049,"Ġhistorischen":10050,"Software":10051,"ĠsÃ¤kular":10052,"ĠDepressionen":10053,"ĠErbgut":10054,"ĠDoris":10055,"ĠEntscheidend":10056,"Ġgeeignet":10057,"Ġeinseitig":10058,"ĠkÃ¼mmern":10059,"Ġkombin":10060,"ĠFÃ¶deralismus":10061,"ĠSchlaf":10062,"ĠRepublikaner":10063,"Ġtendenziell":10064,"Ġsteigern":10065,"Cas":10066,"EM":10067,"aft":10068,"afrika":10069,"fiz":10070,"gab":10071,"geist":10072,"ozi":10073,"pern":10074,"rel":10075,"zeilen":10076,"Ġdeb":10077,"Ġdep":10078,"Ġdeta":10079,"Ġdokument":10080,"Ġsim":10081,"einst":10082,"ĠwÃ¤rmer":10083,"Ã¤ck":10084,"ĠSir":10085,"schritt":10086,"Ġvari":10087,"Ġeingesetz":10088,"ĠAG":10089,"Ġnutzt":10090,"Ġhalt":10091,"etung":10092,"ĠGet":10093,"ĠPunkten":10094,"ĠPflanzen":10095,"Ġgeforder":10096,"Ġerreich":10097,"ehme":10098,"ĠZehnt":10099,"ĠlÃ¤nd":10100,"Ġimport":10101,"ĠVern":10102,"ĠVerbraucher":10103,"rak":10104,"sende":10105,"Ġausgesch":10106,"Ġscheiden":10107,"sprÃ¤":10108,"spotenzial":10109,"ĠUni":10110,"istent":10111,"Ã¶rse":10112,"ĠBeurteilung":10113,"Ġunterscheidet":10114,"gesprÃ¤":10115,"klasse":10116,"Ġzweitens":10117,"gebieten":10118,"ric":10119,"Ġgenannten":10120,"Ġgenehm":10121,"Ġkontin":10122,"Ġew":10123,"fahrens":10124,"ĠWerden":10125,"flug":10126,"ĠgeschÃ¤tzt":10127,"stÃ¤ndige":10128,"Studie":10129,"sorganisationen":10130,"plomat":10131,"ĠSchwier":10132,"vollen":10133,"ĠMusk":10134,"Ġbefragt":10135,"suchten":10136,"ĠLinks":10137,"ĠAngelegen":10138,"ĠSpielen":10139,"kampagne":10140,"ĠSonne":10141,"wahrscheinlich":10142,"ĠFachleute":10143,"Ã¼hlen":10144,"Ġwirksam":10145,"ĠGewaltt":10146,"ĠKoordin":10147,"ĠLandeskirchen":10148,"Ã©suisse":10149,"Ġmassive":10150,"gÃ¤nglich":10151,"ĠnÃ¶tige":10152,"ĠBildern":10153,"Ġmittleren":10154,"nehmern":10155,"ĠApotheker":10156,"ĠKoran":10157,"ĠKorre":10158,"ĠBetriebs":10159,"ĠVollzeit":10160,"Ġdurchschnittliche":10161,"ĠVideospiele":10162,"ĠWebsites":10163,"ĠLangzeit":10164,"ĠWinterth":10165,"Ġmoralischen":10166,"spolitische":10167,"ĠTodesfÃ¤lle":10168,"ĠInnenminister":10169,"Ġkorre":10170,"ĠTermin":10171,"mittlung":10172,"ĠSzenarien":10173,"ĠVerteidigung":10174,"anzlerin":10175,"Ġkompensiert":10176,"ĠErwerbstÃ¤tigkeit":10177,"Ġmelden":10178,"steher":10179,"ĠPrÃ¼fung":10180,"Ġphys":10181,"ĠSonntagsBlick":10182,"ĠKenntnis":10183,"Ġbesonderen":10184,"Ġeinzusetzen":10185,"ĠDilemma":10186,"ĠCambrid":10187,"Ġrechtfertigen":10188,"ĠPierre":10189,"ĠImmobilien":10190,"ĠNestlÃ©":10191,"Anzeiger":10192,"ĠGÃ¶ssi":10193,"Ġdetaill":10194,"ĠCambridge":10195,"Co":10196,"Doch":10197,"Grad":10198,"Handel":10199,"JP":10200,"MÃ¤r":10201,"funktion":10202,"gibt":10203,"jet":10204,"nDie":10205,"rungen":10206,"wÃ¶r":10207,"Ġungen":10208,"Ġeig":10209,"ĠÃ¤ndert":10210,"Ġreiche":10211,"eral":10212,"erkt":10213,"stung":10214,"onym":10215,"ĠSau":10216,"ĠSekt":10217,"ĠSÃ¤kul":10218,"atell":10219,"aters":10220,"Ġvirt":10221,"ĠDSGVO":10222,"Ġbinden":10223,"Ġinnen":10224,"Ã¼rzung":10225,"ĠGallen":10226,"Ġerarbeitet":10227,"Ġverhandelt":10228,"Ġverpasst":10229,"regen":10230,"regung":10231,"ĠLos":10232,"ĠTam":10233,"ĠTÃ¶tung":10234,"Ġla":10235,"ĠSchatten":10236,"ĠStich":10237,"ĠNet":10238,"ĠVerordnung":10239,"ĠVerpack":10240,"ussten":10241,"ĠIndex":10242,"ĠJÃ¼n":10243,"euch":10244,"Ġschrift":10245,"Ġdemograf":10246,"ĠEinerseits":10247,"versprechen":10248,"leiden":10249,"igend":10250,"ĠtÃ¼rk":10251,"rats":10252,"Ġrief":10253,"Ã¶rd":10254,"ĠBekÃ¤mpfung":10255,"ausgleich":10256,"zentration":10257,"ĠZuvor":10258,"ĠZugriff":10259,"forscher":10260,"ĠKonjunktur":10261,"pflege":10262,"schende":10263,"ĠdiesbezÃ¼glich":10264,"Ġzweck":10265,"ĠImport":10266,"Ġgesorgt":10267,"gebaut":10268,"Ġbesitzt":10269,"Ġbesteuert":10270,"Ġliefer":10271,"ĠÃľberzeugung":10272,"Ġsolch":10273,"qualifiz":10274,"Ġangezeigt":10275,"Ġ62":10276,"ĠherkÃ¶mm":10277,"ĠHerstellung":10278,"rente":10279,"ĠÃĦl":10280,"ĠStudium":10281,"Ġbekannten":10282,"worben":10283,"ĠForschern":10284,"Ġgestrich":10285,"ĠBrem":10286,"nehmung":10287,"Ġstattdessen":10288,"krut":10289,"ĠPharm":10290,"gewÃ¶hn":10291,"eidgenÃ¶ss":10292,"Ġenger":10293,"Ġengl":10294,"sprofessor":10295,"ĠDarum":10296,"ĠStromproduktion":10297,"ĠDebatten":10298,"zession":10299,"ĠGlÃ¤ub":10300,"ĠEigenverantwortung":10301,"ĠAdoptiv":10302,"Ġaktive":10303,"ntags":10304,"Ġunglaub":10305,"ĠBehandlungen":10306,"ĠNorwegen":10307,"ĠbemÃ¤n":10308,"Ġberufliche":10309,"ĠSpitzensport":10310,"ĠwÃ¼nscht":10311,"ĠWolf":10312,"ĠDaneben":10313,"ĠBahnhof":10314,"ĠAustausch":10315,"Ġkonservative":10316,"ĠVerzicht":10317,"ĠPrognose":10318,"Ġbasiert":10319,"Ġriesigen":10320,"ĠJahrhunderts":10321,"ĠEidgenÃ¶ssische":10322,"Ġkonzentrieren":10323,"ĠAbstimmungskampf":10324,"Ġkompensieren":10325,"Ġunmittelbar":10326,"ĠHamburg":10327,"ĠVergewaltigung":10328,"anstaltungen":10329,"ĠAbgeordneten":10330,"ĠBundestag":10331,"Ġanalysiert":10332,"teuern":10333,"ĠStrafverfolg":10334,"ĠStaatssekret":10335,"ĠTelekom":10336,"grÃ¶sste":10337,"ĠAllgemeinheit":10338,"ĠverlÃ¤ngert":10339,"ĠRichard":10340,"Ġvorindustriellen":10341,"Dass":10342,"Islam":10343,"Mai":10344,"Zeitung":10345,"beln":10346,"bindung":10347,"drÃ¼ckt":10348,"fabrik":10349,"fdp":10350,"hm":10351,"hÃ¤ngen":10352,"ialen":10353,"koll":10354,"lig":10355,"lÃ¤uf":10356,"phe":10357,"uier":10358,"Ġrat":10359,"ietet":10360,"andern":10361,"einigt":10362,"Ã¼ste":10363,"ĠSomit":10364,"ĠSituationen":10365,"itekt":10366,"schn":10367,"Ġeinnehmen":10368,"ĠAL":10369,"artet":10370,"Ġaussp":10371,"ĠMasse":10372,"ĠFischer":10373,"ĠFemin":10374,"Ã¶pfen":10375,"Ġkrimin":10376,"elung":10377,"ters":10378,"Ġgern":10379,"ĠgefÃ¤llt":10380,"Ġgetestet":10381,"ĠLÃ¼cke":10382,"ĠTa":10383,"umne":10384,"ĠSchein":10385,"ĠStief":10386,"ĠVersor":10387,"rael":10388,"ĠausgelÃ¶st":10389,"Ġschickt":10390,"Ġschlimmer":10391,"ĠAnlauf":10392,"spende":10393,"ĠEinbÃ¼rger":10394,"Ġums":10395,"Ġumgehend":10396,"ĠErzieher":10397,"ingung":10398,"ĠVorbeh":10399,"ĠVorgabe":10400,"ĠGreta":10401,"ĠSpanien":10402,"Ġrechten":10403,"Ġdarstellt":10404,"ranke":10405,"ĠBundesebene":10406,"Ġpropag":10407,"Ã¤cher":10408,"linton":10409,"konform":10410,"Ġeigentliche":10411,"rechtliche":10412,"Staat":10413,"wachs":10414,"Ġleibliche":10415,"Ġ72":10416,"ĠStadtz":10417,"ĠProduzenten":10418,"ĠElternzeit":10419,"schefs":10420,"Ġ95":10421,"brauchen":10422,"ĠMax":10423,"Ġbelegen":10424,"ĠVereinbarung":10425,"Ġdram":10426,"Ġabgegeben":10427,"Ġverwende":10428,"ĠFlughafen":10429,"ĠLiefer":10430,"Ġschlug":10431,"ĠÃ¼blich":10432,"ĠeinzufÃ¼hren":10433,"mutung":10434,"ĠÃ¶sterreich":10435,"Ġmoment":10436,"ĠGrundeinkommens":10437,"ĠWege":10438,"ĠWahrheit":10439,"Ã¼hm":10440,"kÃ¼ndigung":10441,"ĠSamsung":10442,"Ġtieferen":10443,"ĠJahrzehnte":10444,"archie":10445,"Ġansteigen":10446,"Ġillegal":10447,"missbrauch":10448,"Ġniedrig":10449,"ĠGerichtshof":10450,"mÃ¤ssige":10451,"ĠWenig":10452,"Ã¶pfe":10453,"parteien":10454,"ĠAkzeptanz":10455,"Ġethische":10456,"Politiker":10457,"ĠStraftÃ¤ter":10458,"Ġlebenslange":10459,"Ġgleichgeschlechtlichen":10460,"ĠSpitÃ¤lern":10461,"peace":10462,"ĠSpannungs":10463,"Produkte":10464,"ĠVizeprÃ¤sident":10465,"ĠKategorie":10466,"dÃ¤mmen":10467,"ĠFlexibilitÃ¤t":10468,"ĠGreenpeace":10469,"ĠVarianten":10470,"ĠLegislatur":10471,"initiativen":10472,"Ġdenkbar":10473,"Ġmaschin":10474,"ĠAtommÃ¼ll":10475,"ĠLeipzig":10476,"Ġdebatt":10477,"33":10478,"Als":10479,"BÃ¼rger":10480,"Comp":10481,"LÃ¤ndern":10482,"Min":10483,"Nach":10484,"Par":10485,"aison":10486,"fleisch":10487,"fuhr":10488,"jagd":10489,"kle":10490,"lers":10491,"rent":10492,"swerte":10493,"wÃ¤l":10494,"zungen":10495,"zone":10496,"chtern":10497,"strÃ¤ger":10498,"ĠAsp":10499,"ĠbÃ¼r":10500,"Ġblock":10501,"alisieren":10502,"ĠMÃ¤":10503,"ĠMel":10504,"Ġindustrie":10505,"ĠFake":10506,"Ã¼ren":10507,"ĠGÃ¤":10508,"ĠKal":10509,"auten":10510,"elben":10511,"dehnung":10512,"ĠRappen":10513,"ĠIP":10514,"ĠIT":10515,"ĠLizenz":10516,"ĠTo":10517,"ĠTra":10518,"ĠSchm":10519,"ĠSchill":10520,"ĠStil":10521,"ĠStrategien":10522,"ĠHann":10523,"ĠstÃ¶rt":10524,"ĠunÃ¼ber":10525,"Ġunab":10526,"Ġunbestritten":10527,"imit":10528,"Ġschaut":10529,"Ġscheitern":10530,"kenn":10531,"Ã¤rt":10532,"alli":10533,"ersatz":10534,"bezug":10535,"Ġmanipul":10536,"Ġwarnt":10537,"Ġbislang":10538,"Ġregelt":10539,"schenden":10540,"hinter":10541,"ĠAufnahme":10542,"aufgaben":10543,"Ġprogramm":10544,"Ġkonkur":10545,"indert":10546,"periment":10547,"quellen":10548,"ĠUnterscheid":10549,"Ġ61":10550,"Ġ600":10551,"Ġneuesten":10552,"slÃ¤ndern":10553,"ĠbeschrÃ¤nken":10554,"odium":10555,"ĠTrink":10556,"Ġunseres":10557,"Ġweiblich":10558,"Industrie":10559,"Ġarbeits":10560,"ĠBras":10561,"gehende":10562,"ĠAtt":10563,"betrieb":10564,"ollege":10565,"jÃ¤hrig":10566,"ĠerhÃ¶hte":10567,"ĠMedienber":10568,"ĠbegrÃ¼nden":10569,"ĠbegrÃ¼sst":10570,"Ġfolgte":10571,"ĠWeiss":10572,"ĠWeissen":10573,"ĠStrafgesetzbuch":10574,"ymn":10575,"Ġausserordent":10576,"ĠBefragung":10577,"ĠKraftwerke":10578,"ĠSchuldenabbau":10579,"Und":10580,"Ġperf":10581,"konzerns":10582,"ĠNotwend":10583,"ĠNaturkat":10584,"Ġfolgenden":10585,"ĠBotschaften":10586,"ĠÃĦng":10587,"Ġvorgelegt":10588,"ĠPapst":10589,"Ġinteressant":10590,"maschine":10591,"Ġbezeichnete":10592,"ĠunabhÃ¤ngige":10593,"Ġintegrieren":10594,"Ġstrenger":10595,"Ġungewoll":10596,"Ġsubventionierten":10597,"ĠFreunde":10598,"ĠSchwangerschaft":10599,"Ġetabliert":10600,"ĠDepression":10601,"ĠWaadtlÃ¤nder":10602,"ĠKÃ¼nstliche":10603,"Ġdamaligen":10604,"ĠHunger":10605,"mÃ¤rkte":10606,"bedingten":10607,"ĠMedicare":10608,"farbe":10609,"ĠHebel":10610,"zepte":10611,"ĠVolksbegehren":10612,"ĠKÃ¶ln":10613,"Ġkontinuier":10614,"ĠStrafverfolgungsbehÃ¶rden":10615,"41":10616,"49":10617,"90":10618,"banden":10619,"breite":10620,"bleiben":10621,"cco":10622,"grad":10623,"leitungen":10624,"pa":10625,"ti":10626,"ziert":10627,"ĠeidgenÃ¶ss":10628,"iete":10629,"ieder":10630,"stiftung":10631,"Ġse":10632,"Ġachten":10633,"Ġwem":10634,"ĠSur":10635,"gegangen":10636,"ita":10637,"schÃ¼t":10638,"ĠDokument":10639,"ĠAff":10640,"ĠAkadem":10641,"ĠnÃ¤h":10642,"arisierung":10643,"Ġmassen":10644,"ĠBÃ¶rse":10645,"Ġhar":10646,"ĠFab":10647,"ssektor":10648,"Ġfliesst":10649,"Ġfundament":10650,"ĠKy":10651,"ĠKer":10652,"ĠKVG":10653,"ĠPe":10654,"urd":10655,"ĠWellen":10656,"Ġvermitteln":10657,"umpf":10658,"ĠHundert":10659,"Ġbegangen":10660,"ellos":10661,"chtzeit":10662,"splan":10663,"spiegel":10664,"ĠÃ¼berlegen":10665,"ĠCol":10666,"ĠEinstellung":10667,"ĠEinrichtung":10668,"Ã¤rzte":10669,"ĠRecher":10670,"werf":10671,"grenz":10672,"grÃ¼nden":10673,"ĠVorgÃ¤nger":10674,"ĠÃł":10675,"ĠZuschlag":10676,"barungen":10677,"ĠUmso":10678,"Ġwenden":10679,"gebÃ¼hren":10680,"ĠgerÃ¤t":10681,"Ġ5000":10682,"flÃ¼sse":10683,"quis":10684,"Ġeigentlichen":10685,"eistungen":10686,"ĠFlach":10687,"ĠFluss":10688,"Ġverbrei":10689,"gleichheit":10690,"enseits":10691,"ĠEmman":10692,"Ġgelassen":10693,"Ġausgehen":10694,"Ġverletz":10695,"Ġklaren":10696,"ĠSchwy":10697,"akult":10698,"ĠQuad":10699,"Ġtiefe":10700,"ĠModerne":10701,"Ġinnere":10702,"Ġtechnologischen":10703,"Ġ140":10704,"Ġherauszu":10705,"Ġsexuell":10706,"ablen":10707,"berechtigte":10708,"ĠWestschweiz":10709,"ĠVideos":10710,"Ġargumentierte":10711,"ĠBehandlungs":10712,"ĠSamuel":10713,"Abkommen":10714,"ĠFaktor":10715,"ordnete":10716,"GrÃ¼n":10717,"ĠKandidat":10718,"ĠSanktionen":10719,"ĠPsychot":10720,"ĠArgumentation":10721,"Ġabsolv":10722,"stÃ¤tigkeit":10723,"Ġausgebaut":10724,"ĠDetailhÃ¤ndler":10725,"ĠTreibhausgasen":10726,"Ġkeinerlei":10727,"ĠAlgorithmus":10728,"ĠprÃ¤z":10729,"ĠIndividuen":10730,"Ġbedingungsloses":10731,"Ġrassistisch":10732,"ĠJura":10733,"Ġmissbraucht":10734,"Ġbeliebt":10735,"spreche":10736,"ĠEtwas":10737,"ĠÃ¶konomischen":10738,"wege":10739,"ĠMarcus":10740,"Learning":10741,"Ġangestiegen":10742,"ĠBusiness":10743,"ĠQuartier":10744,"Marie":10745,"Ġonline":10746,"hletik":10747,"Ġerleichtert":10748,"Google":10749,"ĠRadikalisierung":10750,"Ġjahrelang":10751,"ĠVerpflichtung":10752,"ĠEmpÃ¶rung":10753,"ĠClaud":10754,"ĠEreig":10755,"ĠSantÃ©suisse":10756,"ĠDefinition":10757,"walden":10758,"Ġuntersagt":10759,"ĠAtomenergie":10760,"ĠHelsana":10761,"schmidt":10762,"ĠStanford":10763,"21":10764,"24":10765,"31":10766,"AV":10767,"Dienst":10768,"En":10769,"SVP":10770,"dru":10771,"direktor":10772,"effizienz":10773,"gi":10774,"kor":10775,"punkten":10776,"eiern":10777,"anspruch":10778,"schi":10779,"ĠDritten":10780,"ĠeinfÃ¼hren":10781,"Ġzah":10782,"Ġnamen":10783,"Ġbirgt":10784,"arfs":10785,"alistischen":10786,"ĠMaterial":10787,"Ġzuges":10788,"Ġharten":10789,"aute":10790,"ura":10791,"ĠWalter":10792,"ĠWWF":10793,"Ġdenke":10794,"Ġdenjenigen":10795,"Ġgelingen":10796,"ĠIG":10797,"Ġerstens":10798,"ĠerÃ¶ffnet":10799,"Ġverteilen":10800,"Ġanf":10801,"Ġangeschlossen":10802,"omo":10803,"ĠLasten":10804,"ĠTu":10805,"ĠTherap":10806,"ĠToleranz":10807,"ĠZimmer":10808,"Ġmitmachen":10809,"Ġost":10810,"ckten":10811,"ikamen":10812,"ĠAnwend":10813,"abzÃ¼ge":10814,"ĠProcess":10815,"ĠÃ¼berwiesen":10816,"ĠUnsicherheit":10817,"ĠEinrichtungen":10818,"Ġ130":10819,"ĠErt":10820,"antie":10821,"antrag":10822,"Ġabgenommen":10823,"beutung":10824,"ĠAusstellung":10825,"Ġentziehen":10826,"Ġdieselben":10827,"ppen":10828,"Ġspielte":10829,"ĠBerater":10830,"ptome":10831,"klang":10832,"Ġhinge":10833,"Ġbetonen":10834,"riffe":10835,"ankierenden":10836,"ĠÃľberprÃ¼fung":10837,"Ġeigener":10838,"ĠKindergarten":10839,"Ġverbleiben":10840,"Ġgeschafft":10841,"ĠAmb":10842,"ĠManchmal":10843,"ĠGeldpolitik":10844,"ĠFinanzierungs":10845,"Ġheissen":10846,"gendes":10847,"Ġleiblichen":10848,"Ġverlor":10849,"ĠNationalrÃ¤tin":10850,"ĠGrossen":10851,"skrit":10852,"ĠOrten":10853,"ĠSteuersen":10854,"ĠPflichten":10855,"ĠGewiss":10856,"ĠObama":10857,"zÃ¼ger":10858,"Ġindirekt":10859,"strasse":10860,"ĠMannes":10861,"Problem":10862,"Ġentwickelte":10863,"gemeinden":10864,"Ġabgest":10865,"volumen":10866,"Ġverwehrt":10867,"ifizierung":10868,"kraftwerke":10869,"ĠGesundheitswesen":10870,"Ġzulassen":10871,"ĠLiecke":10872,"sprinzip":10873,"ĠauslÃ¶sen":10874,"ĠKatastrophe":10875,"Ġhalbes":10876,"ĠhÃ¶chst":10877,"Ġaktuell":10878,"ypen":10879,"ĠPlastiks":10880,"ĠJean":10881,"ĠBerliner":10882,"melzen":10883,"ĠverdÃ¤cht":10884,"wÃ¼rdigkeit":10885,"Ġverursachen":10886,"ossenschaft":10887,"ĠflÃ¤chen":10888,"ĠendgÃ¼lt":10889,"ĠRadio":10890,"ĠObergrenze":10891,"ĠHeer":10892,"ĠSzene":10893,"Ġindividuellen":10894,"ĠGanze":10895,"Ġgespeichert":10896,"Ġheftige":10897,"ĠTransaktionen":10898,"ĠShopping":10899,"ĠReligionsgemeinschaften":10900,"zumachen":10901,"ĠsÃ¤kularen":10902,"ĠVerzÃ¶ger":10903,"ĠDelegation":10904,"Ġarbeitete":10905,"Ġordentlichen":10906,"alkan":10907,"BeitrÃ¤ge":10908,"ĠGeheimnis":10909,"Ġspezialisiert":10910,"Ġverlangte":10911,"ĠKriminalitÃ¤t":10912,"ĠRelev":10913,"ĠKreativ":10914,"ĠMÃ¼nchen":10915,"hops":10916,"ĠZentren":10917,"ĠMarihu":10918,"Ġtrocken":10919,"ĠBundesverwaltungsgericht":10920,"ĠJahrtausendwende":10921,"ĠFreihandelsabkommen":10922,"Ġkontinuierlich":10923,"%,":10924,"'s":10925,"BM":10926,"Galler":10927,"HS":10928,"Kam":10929,"Neu":10930,"Suche":10931,"WR":10932,"gigen":10933,"iro":10934,"ld":10935,"not":10936,"pol":10937,"preisen":10938,"was":10939,"Ġdient":10940,"Ġdifferenz":10941,"eisen":10942,"int":10943,"ichern":10944,"gehalt":10945,"aser":10946,"ĠDom":10947,"Ġeinstellen":10948,"Ġeinheim":10949,"Ġzeu":10950,"orf":10951,"ĠMÃ¶":10952,"Ġfroh":10953,"dentschaft":10954,"ĠKoch":10955,"ĠKos":10956,"ĠKMU":10957,"berat":10958,"igranten":10959,"teren":10960,"ĠWÃ¤re":10961,"irbt":10962,"Ġerwiesen":10963,"Ġverspricht":10964,"Ġversuchte":10965,"ĠLanc":10966,"ague":10967,"ĠSchach":10968,"ĠSchÃ¶n":10969,"ĠScheitern":10970,"ĠStoss":10971,"ĠHirn":10972,"ĠHunderte":10973,"ĠNorm":10974,"lechtern":10975,"ĠInkraft":10976,"ĠInflation":10977,"ĠJin":10978,"Ġbewill":10979,"Ġbewirken":10980,"Ġdasselbe":10981,"Ġunt":10982,"ĠunmÃ¶glich":10983,"Ġunbeg":10984,"Ġunheil":10985,"Ġunwahrscheinlich":10986,"impf":10987,"Ġschweiz":10988,"Ġschaden":10989,"ĠschÃ¶nen":10990,"Ġpatri":10991,"Ġbeigetragen":10992,"ĠCl":10993,"ĠCont":10994,"ĠCash":10995,"ĠClinton":10996,"Ġtherapeut":10997,"ĠErrungen":10998,"ĠRecyc":10999,"istinnen":11000,"istiken":11001,"ladung":11002,"Ġabzul":11003,"artig":11004,"ĠAusgestaltung":11005,"ĠAusdehnung":11006,"ĠBeat":11007,"ĠBegehren":11008,"Ġunterstellt":11009,"ĠGesinn":11010,"Ġberuh":11011,"ertig":11012,"ĠMengen":11013,"alty":11014,"ĠEntgegen":11015,"bringt":11016,"Ġgesunden":11017,"Ã¼ttern":11018,"Ġbeseit":11019,"ĠGrundversorgung":11020,"Ġangekommen":11021,"Ġhergestellt":11022,"ĠRechtskommission":11023,"rÃ¤sidentschaft":11024,"ĠGenehm":11025,"ĠFreiheiten":11026,"ĠKlimaer":11027,"Ġheisse":11028,"ĠTraum":11029,"ĠPreisen":11030,"Ġeingegangen":11031,"Ġbezweif":11032,"ĠNationalbank":11033,"Ġ89":11034,"ĠEnergiegesetz":11035,"ĠEnergiewende":11036,"Ġhoff":11037,"ĠKampagnen":11038,"ĠZahlungen":11039,"Ġeinfache":11040,"betriebe":11041,"prinzip":11042,"ĠEntscheidungs":11043,"ourismus":11044,"Ġwichtiges":11045,"ĠBestimmung":11046,"ĠAngela":11047,"ĠMigrationspolitik":11048,"Ġkritische":11049,"leistungs":11050,"ĠGenerika":11051,"schwung":11052,"regionen":11053,"Ġkurzer":11054,"ĠLandesregierung":11055,"ĠAbkommens":11056,"Ġerfolgreichen":11057,"Ġquo":11058,"Ġqual":11059,"ĠÃ¤usserte":11060,"Ġerfassen":11061,"staates":11062,"ĠKompl":11063,"gefunden":11064,"ĠInstituts":11065,"ĠFerner":11066,"ĠPflegeheim":11067,"Ġregulator":11068,"ĠWahrnehmung":11069,"Ġdefinitiv":11070,"ĠKommunikations":11071,"ĠZuliefer":11072,"Ġaussieht":11073,"ĠGestalt":11074,"ĠGestaltung":11075,"Ġwissenschaftlichen":11076,"Ġkleineren":11077,"Ġfremd":11078,"geordnete":11079,"mÃ¤ssigen":11080,"Ġbiologische":11081,"ethode":11082,"Ġdominiert":11083,"Ġfossiler":11084,"Ġtrans":11085,"Ġorientieren":11086,"ĠSchlagzeilen":11087,"Ġethischen":11088,"ĠBeschwerden":11089,"ĠWettbewerbsfÃ¤higkeit":11090,"Ġverteidigen":11091,"ĠÃ¼berwiegen":11092,"gerechtigkeit":11093,"ĠNahrungsmittel":11094,"ergebnisse":11095,"Ġerforderlich":11096,"ĠHitzew":11097,"ĠKrankenversicherer":11098,"Ġvorbereitet":11099,"Ġferner":11100,"ĠPhilosophie":11101,"ĠBeschuldigte":11102,"Ġminim":11103,"ĠMinimum":11104,"Ġkollekt":11105,"ĠIndustriel":11106,"ĠCrowdf":11107,"ĠInterpretation":11108,"ĠJÃ¼rg":11109,"Ġbenachteiligt":11110,"ĠGrÃ¼nliberalen":11111,"Ġdepress":11112,"ĠAspekte":11113,"37":11114,"NA":11115,"SV":11116,"akte":11117,"esten":11118,"gra":11119,"morgen":11120,"mÃ¼ll":11121,"ners":11122,"rigen":11123,"sÃ¼cht":11124,"sburg":11125,"erer":11126,"eiss":11127,"ankt":11128,"Ġsens":11129,"ona":11130,"onald":11131,"onial":11132,"Ã¤llig":11133,"ĠSÃ¤tze":11134,"ĠSemen":11135,"ĠDam":11136,"ĠDikt":11137,"Ġeingenommen":11138,"Ġnirgend":11139,"aria":11140,"ĠEchtzeit":11141,"ĠBlack":11142,"alie":11143,"ema":11144,"emark":11145,"denz":11146,"ĠGabr":11147,"ĠGÃ¼ter":11148,"ĠGymn":11149,"ĠKan":11150,"ĠKaum":11151,"ĠKomitee":11152,"eleg":11153,"ĠgÃ¤ng":11154,"Ġgelangt":11155,"isierungs":11156,"Ġverbringen":11157,"reden":11158,"oma":11159,"ĠZweit":11160,"Ġleb":11161,"weiss":11162,"ktive":11163,"ĠNummer":11164,"ĠVerurteilung":11165,"ĠVerschuldung":11166,"ckung":11167,"ĠIndem":11168,"ikern":11169,"eutet":11170,"Ġschul":11171,"erner":11172,"ĠEinwohnern":11173,"Ġvorlegen":11174,"verse":11175,"leib":11176,"Ġihrerseits":11177,"ĠErhebung":11178,"illiarde":11179,"orth":11180,"oto":11181,"ĠOs":11182,"Ġrichtet":11183,"igem":11184,"ĠGebieten":11185,"loser":11186,"hlung":11187,"Ġzumeist":11188,"hersteller":11189,"Ġdurchgesetzt":11190,"okuss":11191,"ĠUmdenken":11192,"ĠImage":11193,"limate":11194,"ĠEntlastung":11195,"ĠBeihilfen":11196,"Ġ350":11197,"udd":11198,"Ã¤umen":11199,"ĠAlarm":11200,"rÃ¤sid":11201,"quoten":11202,"geschritten":11203,"ĠBeteil":11204,"Ġ63":11205,"Ġ68":11206,"Ġdeutsch":11207,"fÃ¼llt":11208,"hÃ¶re":11209,"hÃ¶he":11210,"setzungen":11211,"ĠMoney":11212,"ĠElement":11213,"ĠArbeitsgruppe":11214,"sorgen":11215,"ekut":11216,"Ġeinzur":11217,"Ġ2005":11218,"skosten":11219,"ible":11220,"sofern":11221,"ĠFace":11222,"Ġstattf":11223,"zahlten":11224,"ĠZusammenhalt":11225,"ĠfrÃ¼he":11226,"Ġbelastet":11227,"hauses":11228,"Ġgrossem":11229,"ĠLohnschutz":11230,"ĠReserven":11231,"Ġwirkungs":11232,"Ġvoller":11233,"ĠHoffen":11234,"Ġanderswo":11235,"Ġinterpret":11236,"Ġschwierige":11237,"Ġperman":11238,"verbandes":11239,"ĠNotfall":11240,"ippen":11241,"ĠIndones":11242,"ĠWeste":11243,"Ġzentralen":11244,"Ġverfehl":11245,"bewusstsein":11246,"Ġaktiven":11247,"Ġvorgeworfen":11248,"ĠMarketing":11249,"Ġbemerken":11250,"ĠProfessorin":11251,"ĠImpfstoffe":11252,"ifferenzen":11253,"ĠÃ¼berwacht":11254,"prÃ¤sidentin":11255,"ukle":11256,"Ġrasant":11257,"Ġbiologischen":11258,"ĠPetra":11259,"ĠImmigration":11260,"Ġbedingungslose":11261,"Ġexistieren":11262,"ĠNachrichtenagentur":11263,"ĠerwÃ¤hnten":11264,"Ġwertvoll":11265,"Ġallgemeine":11266,"ĠFranzisk":11267,"ĠjÃ¤hrliche":11268,"Ġpotenziell":11269,"Ġgeniesst":11270,"ĠBeschÃ¤ftigung":11271,"ĠErwerbsarbeit":11272,"Ġidentifizieren":11273,"Bereich":11274,"Ġklimasch":11275,"Ġmittelfristig":11276,"ĠLinked":11277,"Ġregistriert":11278,"Ġflexibl":11279,"ĠHoriz":11280,"ĠFrÃ¼hjahr":11281,"ĠplÃ¤diert":11282,"ĠCloud":11283,"ĠNadine":11284,"ĠbefÃ¼rwortet":11285,"Ġverdoppelt":11286,"ĠGewerkschaftsbund":11287,"brÃ¼che":11288,"ĠBetracht":11289,"ĠEnergietrÃ¤ger":11290,"ĠVerschwÃ¶rungstheorien":11291,"Ġassistierten":11292,"Ġjetzigen":11293,"Ġsugger":11294,"ĠunlÃ¤ngst":11295,"ĠKÃ¶ppel":11296,"ĠDÃ¤nemark":11297,"MÃ¤rz":11298,"ĠEmmanuel":11299,"ĠInkrafttreten":11300,"ĠGabriel":11301,"ĠMoneyland":11302,".).":11303,"Ant":11304,"FS":11305,"ID":11306,"Oktober":11307,"US":11308,"fS":11309,"fuss":11310,"jan":11311,"kanton":11312,"personal":11313,"reiter":11314,"zz":11315,"inc":11316,"Ġser":11317,"asche":11318,"schon":11319,"ĠDutzen":11320,"ĠAp":11321,"emit":11322,"ĠMund":11323,"ĠMeter":11324,"ĠMeier":11325,"ĠFeh":11326,"ĠFeuer":11327,"Ġfokuss":11328,"Ã¼rzt":11329,"ĠGeht":11330,"ĠKarten":11331,"Ġkenn":11332,"iers":11333,"ichtiger":11334,"ĠWHO":11335,"Ġgefolgt":11336,"Ġerstellt":11337,"Ġversicher":11338,"fta":11339,"ĠTru":11340,"ĠTrav":11341,"ĠHimmel":11342,"ĠNid":11343,"ĠJose":11344,"Ġstreichen":11345,"ĠschÃ¤tz":11346,"Ġschicken":11347,"ĠAnkÃ¼ndigung":11348,"ĠÃ¼berdies":11349,"ĠEinladung":11350,"Ġvorgehen":11351,"ungsweise":11352,"Ġtrennen":11353,"ĠErste":11354,"rativ":11355,"Ġrufen":11356,"inglich":11357,"ĠArmee":11358,"ĠAusbeutung":11359,"ĠGriff":11360,"ĠBekannt":11361,"Ġentstand":11362,"Ġentlasten":11363,"ĠenttÃ¤u":11364,"low":11365,"Ġunterzeichnet":11366,"Ġmangeln":11367,"stellbar":11368,"ĠdiesjÃ¤hrigen":11369,"ativer":11370,"ĠSobald":11371,"ĠmÃ¼h":11372,"ĠAufsehen":11373,"ides":11374,"Ġhinsichtlich":11375,"Ġbetreut":11376,"Ã¤ndigen":11377,"ĠÃľberblick":11378,"ordnen":11379,"Ġheran":11380,"Ã¶ffnung":11381,"echten":11382,"ĠÃĦm":11383,"ĠElemente":11384,"ĠGerecht":11385,"ĠfÃ¼hrenden":11386,"Ġausgewei":11387,"ĠChip":11388,"Ġkomment":11389,"Ġsowieso":11390,"ĠEnergieeffizienz":11391,"ĠAthleten":11392,"Ġ99":11393,"ĠKlub":11394,"Ġmeistens":11395,"Ġdeklar":11396,"ĠDefizit":11397,"ĠBestraf":11398,"ĠBeschrÃ¤n":11399,"Ġerschweren":11400,"ĠExperi":11401,"ĠBasler":11402,"ĠstÃ¤rkere":11403,"ĠEigenschaften":11404,"ĠWirtschaftswachstum":11405,"ĠErneuer":11406,"Ġerweitert":11407,"Ġangesehen":11408,"ĠKontinent":11409,"underten":11410,"ĠGesamtarbeits":11411,"Ġneur":11412,"ĠKonflikten":11413,"ĠprÃ¤sentieren":11414,"respon":11415,"Ġnachhaltigen":11416,"eutrale":11417,"ĠEmpfehlung":11418,"ĠwÃ¼nsche":11419,"Ġtraditionell":11420,"eigerung":11421,"ĠBetreuungspl":11422,"ĠprÃ¤vent":11423,"ĠAnsÃ¤tze":11424,"ĠursprÃ¼nglichen":11425,"Ġfraglich":11426,"ĠFlÃ¼chtlingskrise":11427,"Ġsorgte":11428,"Ġjuristischen":11429,"ĠScience":11430,"ĠSensoren":11431,"iquÃ©":11432,"Ġdiversen":11433,"ĠVerbesserungen":11434,"Ġschweizerische":11435,"ĠSymbol":11436,"ĠmÃ¤nnlichen":11437,"ĠÃ¼berwiegend":11438,"ĠErwachsenen":11439,"ĠgewÃ¼nscht":11440,"Ġangestreb":11441,"Ġidentifiziert":11442,"ĠnatÃ¼rliche":11443,"ĠgrÃ¼ne":11444,"ĠPilotversuch":11445,"ĠCharakter":11446,"ĠGrippe":11447,"ĠHautfarbe":11448,"ĠFalsch":11449,"ĠAgglomer":11450,"portional":11451,"ĠInvestitions":11452,"ĠPrivilegien":11453,"ĠBayern":11454,"schaftern":11455,"ĠWÃ¼nsche":11456,"ĠGremium":11457,"Ġsammeln":11458,"Ġstraff":11459,"Ġerhofft":11460,"ĠLatein":11461,"ĠVerschÃ¤rfung":11462,"Ġvehement":11463,"Ġbeinahe":11464,"ĠCommuniquÃ©":11465,"ĠPfarrer":11466,"ĠDemonstranten":11467,"Sonntags":11468,"hÃ¼llungsverbot":11469,"ĠZehntausende":11470,"ĠSektoren":11471,"ĠStadtzÃ¼rcher":11472,"ĠNaturkatastrophen":11473,"ĠÃĦngste":11474,"ĠMarihuana":11475,"13":11476,"54":11477,"59":11478,"64":11479,"Br":11480,"Bot":11481,"CVP":11482,"Red":11483,"brÃ¤":11484,"belt":11485,"budget":11486,"bacher":11487,"dar":11488,"ezif":11489,"horn":11490,"paket":11491,"rend":11492,"tÃ¤":11493,"uff":11494,"wÃ¤lte":11495,"ÃĦ":11496,"Ġus":11497,"eisten":11498,"ini":11499,"instru":11500,"Ġapp":11501,"Ã¼g":11502,"Ġwid":11503,"ĠSing":11504,"ato":11505,"schÃ¤r":11506,"schreiten":11507,"ĠAtem":11508,"ĠAct":11509,"Ġaust":11510,"ĠBisch":11511,"ĠBang":11512,"ĠBonn":11513,"ĠinlÃ¤nd":11514,"ĠFans":11515,"ĠKlagen":11516,"ĠKÃ¼nftig":11517,"ĠPor":11518,"elen":11519,"bereiche":11520,"ternen":11521,"ĠWahls":11522,"Ġgedeckt":11523,"ĠRentner":11524,"ire":11525,"Ġerreichte":11526,"Ġvergr":11527,"Ġverschaffen":11528,"rech":11529,"ĠLeid":11530,"ĠTalen":11531,"ĠTief":11532,"ĠTaiw":11533,"amin":11534,"weiger":11535,"ĠHorm":11536,"ĠNov":11537,"ĠNationale":11538,"ĠInse":11539,"Ġbeachten":11540,"Ġstirbt":11541,"ahnt":11542,"Ã¼bernahme":11543,"Ġunkontroll":11544,"ima":11545,"Ġpart":11546,"Ġpragmat":11547,"ĠEintr":11548,"ĠEinhaltung":11549,"ĠEinstellungen":11550,"Ġjeg":11551,"ĠJahrh":11552,"leiche":11553,"Ġtoler":11554,"zustand":11555,"zuschlag":11556,"oppt":11557,"option":11558,"istan":11559,"Ġabgesehen":11560,"ĠVorst":11561,"ĠBefrist":11562,"locken":11563,"Ġmancher":11564,"hlen":11565,"ĠZuwanderern":11566,"ĠAbwehr":11567,"Ġgesichert":11568,"ida":11569,"Ġbesitzen":11570,"Ġbesucht":11571,"obby":11572,"Ã¤chten":11573,"ĠÃľberzeug":11574,"prozess":11575,"professor":11576,"quem":11577,"sichtig":11578,"ĠArbeitsbedingungen":11579,"Ġklarer":11580,"ĠSteuereinnahmen":11581,"schlaggebend":11582,"ĠHandlung":11583,"Ġverschoben":11584,"prÃ¤mien":11585,"Ġhochge":11586,"willig":11587,"ĠDemokratien":11588,"ĠBestÃ¤t":11589,"ĠLÃ¶sungs":11590,"ffizient":11591,"Ġerschwert":11592,"Ġaufgefordert":11593,"ĠFachhoch":11594,"fÃ¤higen":11595,"ĠMoh":11596,"ĠGlas":11597,"vertreten":11598,"ĠAussichten":11599,"ĠFortpflanz":11600,"Ġempfohlen":11601,"ĠErfolgs":11602,"ĠPlastic":11603,"beispiel":11604,"servative":11605,"Ġanzupassen":11606,"ĠBoom":11607,"ĠPeriode":11608,"ĠItaliener":11609,"ĠEngland":11610,"ĠMobilisierung":11611,"Ġfortgeschritten":11612,"Ġnotwendige":11613,"Ġbeantwortet":11614,"ĠInnovations":11615,"ĠbemÃ¼":11616,"kranke":11617,"ĠTemperaturanstieg":11618,"agnost":11619,"eigert":11620,"Ġverweigern":11621,"ĠgewÃ¤hrlei":11622,"ĠBrennstoffen":11623,"Ġhilf":11624,"Ġkommunizieren":11625,"ĠsÃ¤kulare":11626,"ĠNachrichtendienst":11627,"ĠGeschÃ¤ftsmodelle":11628,"ĠBeschÃ¤ftigten":11629,"Ġordentliche":11630,"ĠVersorgungssicherheit":11631,"Ġmutmass":11632,"ĠtÃ¶dliche":11633,"Ġrestlichen":11634,"Ġmobilisieren":11635,"ĠRechenzentren":11636,"ĠAeschbacher":11637,"klusive":11638,"Ġeingetragene":11639,"Ġvorliegenden":11640,"Ġrelevant":11641,"Ġsepar":11642,"ĠGliedstaaten":11643,"Ġverwahrt":11644,"Ġvorsieht":11645,"lantik":11646,"Ġheterosex":11647,"ĠLokal":11648,"verstanden":11649,"isstrauen":11650,"ĠlebenslÃ¤ngliche":11651,"ĠLeichtathletik":11652,"ĠOmbudsstelle":11653,"Ġgestrichen":11654,"ĠIPCC":11655,"ĠBrasilien":11656,"Ġnamens":11657,"Ġschweizweit":11658,"ĠKlimaerwÃ¤rmung":11659,"Ġausgeweitet":11660,"ĠEintracht":11661,"55":11662,"Da":11663,"Deb":11664,"Foul":11665,"Se":11666,"Teil":11667,"Wall":11668,"gol":11669,"kn":11670,"kreis":11671,"lassungs":11672,"mutzung":11673,"namen":11674,"takt":11675,"uv":11676,"wn":11677,"yd":11678,"Ġter":11679,"Ġra":11680,"ĠÃ¤nder":11681,"iesser":11682,"inf":11683,"Ã¼bung":11684,"Ġwisse":11685,"Ã¤cke":11686,"gekommen":11687,"ĠDoku":11688,"ĠDistanz":11689,"ĠeinschlÃ¤":11690,"Ġeinfluss":11691,"ĠAven":11692,"Ġzivil":11693,"Ġbist":11694,"arats":11695,"ĠEck":11696,"ĠEWR":11697,"ĠBol":11698,"ĠBGE":11699,"Ġharte":11700,"Ġhielten":11701,"ĠfÃ¼n":11702,"Ġfeiern":11703,"ĠKro":11704,"ĠKreuz":11705,"ĠPR":11706,"auben":11707,"Ġkre":11708,"berater":11709,"ĠWeder":11710,"Ġgetr":11711,"Ġgelegt":11712,"ĠgehÃ¶re":11713,"deutet":11714,"ĠRa":11715,"ĠRettung":11716,"ĠRumÃ¤n":11717,"Ġerleben":11718,"isa":11719,"isation":11720,"Ġverwies":11721,"rey":11722,"rebt":11723,"ĠLÃ¤rm":11724,"ĠTeu":11725,"aming":11726,"Ġmitzu":11727,"agazin":11728,"ĠNo":11729,"ĠVerw":11730,"ikett":11731,"Ġausgeben":11732,"ĠFristen":11733,"ĠProbanden":11734,"ĠUnmut":11735,"ĠCook":11736,"ĠEinblick":11737,"Ġvorwiegend":11738,"Ġumsch":11739,"Ġumfang":11740,"Ġumzusetzen":11741,"verschuldung":11742,"ĠErhalt":11743,"ĠRechnungen":11744,"ritor":11745,"Ġabgeben":11746,"bewahr":11747,"ĠGrÃ¼ndung":11748,"endes":11749,"Ġwartet":11750,"ĠGesuch":11751,"ĠKonkurs":11752,"rupt":11753,"ĠSiefer":11754,"ĠSow":11755,"ĠBerichts":11756,"ĠAbschied":11757,"brigen":11758,"klam":11759,"Ġgesammelt":11760,"Ġweiterentwick":11761,"Ġprovo":11762,"geboren":11763,"inne":11764,"ĠParmel":11765,"ology":11766,"Ġ1945":11767,"Ġgemeldet":11768,"rechtlich":11769,"freit":11770,"fÃ¤lligen":11771,"eichern":11772,"kswirtschaft":11773,"Ġbeschrieben":11774,"ĠfÃ¼hrende":11775,"Ġausgegangen":11776,"Ġniemals":11777,"reichung":11778,"ĠChips":11779,"Ġ84":11780,"ĠEnergieverbrauch":11781,"ĠLuc":11782,"ĠSelbstmord":11783,"ĠAtrium":11784,"freie":11785,"Ġbegleiten":11786,"Ġ96":11787,"ĠgehÃ¶rte":11788,"unterricht":11789,"unterschiede":11790,"Ġlebenden":11791,"ĠInternationalen":11792,"ĠbegrÃ¼ndete":11793,"Ġgeltende":11794,"ĠVerlauf":11795,"rÃ¤sentation":11796,"ĠunterstÃ¼tzten":11797,"dustri":11798,"ĠWirtschaftsleistung":11799,"Unter":11800,"ĠGutscheine":11801,"ĠerfÃ¤hrt":11802,"Ġauszuschliessen":11803,"hemann":11804,"systeme":11805,"ĠAfrikas":11806,"wÃ¼rdige":11807,"ĠDortmund":11808,"Ġverursachten":11809,"Ġoffizielle":11810,"Ġpassieren":11811,"ĠAdrian":11812,"ĠDimen":11813,"ĠDepartement":11814,"ĠKaufmann":11815,"ĠVollzug":11816,"ĠprÃ¼ft":11817,"Ġumstrittene":11818,"ĠVision":11819,"ĠGedanke":11820,"eutralitÃ¤t":11821,"ĠSkandal":11822,"ĠDetailhandel":11823,"Ġillegalen":11824,"Ġwestliche":11825,"ĠZentralbank":11826,"ĠVerkaufs":11827,"ĠeinschrÃ¤nken":11828,"Ġsubventionierte":11829,"ĠLetztere":11830,"ĠAktionÃ¤re":11831,"Ġhistorisch":11832,"Ġradikal":11833,"ĠSchaffhausen":11834,"Ġattraktiver":11835,"Ġinstitutionellen":11836,"Ġarbeiteten":11837,"ĠjÃ¼ngere":11838,"ĠjÃ¼ngeren":11839,"ĠMasseneinwanderungs":11840,"ĠPanian":11841,"ĠMinisterprÃ¤sident":11842,"ĠHamburger":11843,"ĠStartups":11844,"Ġkoordin":11845,"ĠBrunner":11846,"regelung":11847,"Check":11848,"Ġambulanten":11849,"ĠPassagiere":11850,"ĠTiefen":11851,"Ġenorme":11852,"sspielraum":11853,"Ġleistet":11854,"Ġgegenseitig":11855,"ĠPrioritÃ¤t":11856,"ĠNiederlanden":11857,"ĠfamilienergÃ¤nzende":11858,"Ġzeichnet":11859,"ĠSchwangerschaftsabbruch":11860,"StÃ¤nderat":11861,"ĠbÃ¼rokrat":11862,"ĠNotwendigkeit":11863,"ĠQuadrat":11864,"ĠProcessing":11865,"ĠCrowdfund":11866,"ĠGerechtigkeit":11867,"ĠBestÃ¤tigung":11868,"ĠRumÃ¤nien":11869,"Bild":11870,"EA":11871,"Gru":11872,"Kont":11873,"Land":11874,"PA":11875,"PrÃ¤sidenten":11876,"Renten":11877,"Selbst":11878,"bul":11879,"dy":11880,"ftet":11881,"ly":11882,"lings":11883,"lÃ¶sen":11884,"mot":11885,"over":11886,"pos":11887,"rant":11888,"si":11889,"trieben":11890,"tausende":11891,"Ġdistanz":11892,"Ġdeutet":11893,"stes":11894,"studie":11895,"einem":11896,"onenten":11897,"Ã¤ssen":11898,"ged":11899,"itor":11900,"testen":11901,"ĠData":11902,"ara":11903,"Ġmorgen":11904,"ĠEros":11905,"alu":11906,"ĠFM":11907,"ĠFit":11908,"ĠFut":11909,"ĠFeind":11910,"ĠKost":11911,"ĠPru":11912,"ĠPosten":11913,"ĠPak":11914,"Ġkommer":11915,"ĠWag":11916,"ĠWEF":11917,"ĠRass":11918,"ĠRunde":11919,"ĠRobert":11920,"ĠID":11921,"Ġerzeugt":11922,"Ġversen":11923,"Ġversprechen":11924,"Ġvergleichen":11925,"Ġann":11926,"Ġangesetzt":11927,"ĠLernen":11928,"Â»).":11929,"ĠfÃ¼rchtet":11930,"enteils":11931,"ĠUl":11932,"ĠHaben":11933,"ĠHomosexuelle":11934,"ĠNa":11935,"ĠName":11936,"ilder":11937,"Ġsteuern":11938,"sender":11939,"Ġausschliessen":11940,"spersonen":11941,"ĠFron":11942,"ĠÃ¼berst":11943,"ĠUnrecht":11944,"Ġvornehmen":11945,"verhÃ¤lt":11946,"Ã¼nn":11947,"Ġthem":11948,"gerte":11949,"Ġ2040":11950,"iller":11951,"ĠRechten":11952,"ota":11953,"otum":11954,"otierten":11955,"ĠOpf":11956,"Ġreine":11957,"ĠrÃ¼cken":11958,"beziehungen":11959,"ĠGebrauch":11960,"ĠGrÃ¶ssen":11961,"ĠBewerb":11962,"ausfÃ¤lle":11963,"zene":11964,"pfel":11965,"Ġdurchge":11966,"geldern":11967,"riesen":11968,"ĠSowohl":11969,"Ġsprich":11970,"ĠUmbau":11971,"ĠAbbruch":11972,"Ġbetreuen":11973,"rÃ¼ger":11974,"vorsteher":11975,"adoption":11976,"Ġwiederholen":11977,"Ġ4000":11978,"ĠMarco":11979,"ico":11980,"ĠNachmittag":11981,"Ġangeht":11982,"ĠGeschw":11983,"klÃ¤ren":11984,"Ġherbei":11985,"ĠThurg":11986,"ĠUnternehmenssteuer":11987,"Ġverbietet":11988,"ĠGemÃ¼":11989,"Ġbeschw":11990,"ĠElon":11991,"ĠFinanzen":11992,"ĠFinanzmarkt":11993,"Stiftung":11994,"Ġheikle":11995,"Ġ86":11996,"wegungen":11997,"ski":11998,"drÃ¼cken":11999,"ĠZusÃ¤tz":12000,"Ġhofft":12001,"Inter":12002,"vollzugs":12003,"Ġschwanger":12004,"ĠZahlungsmittel":12005,"ĠAtmo":12006,"ĠRÃ¼cken":12007,"pharma":12008,"Ġchancen":12009,"Ġbedroh":12010,"ĠKulturen":12011,"Ġgeradezu":12012,"bestimmungen":12013,"ĠLinien":12014,"ĠStaatengemeinschaft":12015,"ĠSoldaten":12016,"kurse":12017,"ĠkÃ¼nstlich":12018,"ĠBelgien":12019,"ĠFachstelle":12020,"ĠHochschul":12021,"Anteil":12022,"vertrÃ¤ge":12023,"ĠBauch":12024,"Ġtechnologische":12025,"ausenden":12026,"redaktor":12027,"Ġempfunden":12028,"ĠGesetzesrevision":12029,"ĠWeiterentwicklung":12030,"Schweiz":12031,"ĠVerhandlung":12032,"fried":12033,"ĠWohlfahrt":12034,"Ġungleich":12035,"Ġkleines":12036,"ĠTelmed":12037,"Ġdefinieren":12038,"ĠTÃ¼ren":12039,"ĠLehre":12040,"wood":12041,"ĠIntegrations":12042,"ĠSanierung":12043,"ĠXi":12044,"ĠPsychiater":12045,"ĠHealth":12046,"Ġinternationaler":12047,"ibilisierung":12048,"ĠOffenbar":12049,"schaffungen":12050,"Ġlancieren":12051,"Ġfremde":12052,"ĠAuffor":12053,"ĠIndividuum":12054,"ĠInnenstadt":12055,"Ġrassistische":12056,"ĠAmerikas":12057,"ĠEndlager":12058,"ĠbenÃ¶tigen":12059,"ĠKapitel":12060,"Ġsahen":12061,"Ġschlechten":12062,"ĠPensionskasse":12063,"onna":12064,"ĠverfÃ¼gbaren":12065,"ĠMaximum":12066,"ĠTrainer":12067,"Ġrestri":12068,"ergebnis":12069,"ĠSchnell":12070,"ĠKrankenversicherungs":12071,"ĠAeschi":12072,"ĠMasern":12073,"Ġlohnen":12074,"Ġpflegen":12075,"ĠAbgeordnete":12076,"Ġsubstanz":12077,"ĠSchwarzmarkt":12078,"rabischen":12079,"ĠBandbreite":12080,"ĠMarktzugang":12081,"vorteil":12082,"schreitungen":12083,"Ġlesbische":12084,"Ġdurfte":12085,"Ġvermeintlich":12086,"ĠZurÃ¼ckhaltung":12087,"Ġbeschleunigen":12088,"ĠunzÃ¤hlige":12089,"ĠHardware":12090,"ektrum":12091,"Ġeingestuft":12092,"ĠDosis":12093,"ĠWhats":12094,"ĠWinterthur":12095,"ĠUnterscheidung":12096,"ĠAnwendungs":12097,"ĠRelevanz":12098,"ĠRecycling":12099,"ĠSemenya":12100,"ĠParmelin":12101,"11":12102,"Aussen":12103,"Direktor":12104,"ED":12105,"HC":12106,"Klim":12107,"Rassismus":12108,"WÃ¤hler":12109,"dauer":12110,"gner":12111,"komme":12112,"mÃ¤nn":12113,"ois":12114,"teile":12115,"Ġei":12116,"Ġdich":12117,"iegeln":12118,"stab":12119,"stant":12120,"Ġsym":12121,"Ġwecken":12122,"ĠSah":12123,"gefahr":12124,"Ġdereinst":12125,"team":12126,"ĠDNA":12127,"Ġeinheitliche":12128,"Ġzogen":12129,"arett":12130,"ĠEmitten":12131,"ĠBalkan":12132,"ĠMod":12133,"ĠFeder":12134,"ettet":12135,"ĠGlaub":12136,"bereitung":12137,"igar":12138,"ĠVeget":12139,"ĠRose":12140,"Ġerleich":12141,"Ġerwachsen":12142,"Ġerwirt":12143,"Ġverweisen":12144,"bene":12145,"ĠLÃ¼cken":12146,"Ġaufkommen":12147,"entscheiden":12148,"umsatz":12149,"ĠStufe":12150,"ĠHals":12151,"lehr":12152,"Ġstiess":12153,"Ġwerben":12154,"ĠAngel":12155,"ĠAnhÃ¶r":12156,"ĠAnkunft":12157,"sprecher":12158,"abschluss":12159,"ĠProgress":12160,"Ã¤tinnen":12161,"ĠUnsere":12162,"ĠClick":12163,"leichen":12164,"leibt":12165,"Ġtod":12166,"Ġteils":12167,"Ġtrug":12168,"ĠReferenz":12169,"ussia":12170,"Ġrent":12171,"grÃ¼nde":12172,"heer":12173,"ĠVorinstanz":12174,"ĠBewertung":12175,"Ġentlassen":12176,"ĠKonto":12177,"immungsinitiative":12178,"Ġdarstellen":12179,"ickte":12180,"ĠspÃ¤testens":12181,"Ġspiegelt":12182,"sstr":12183,"Ġvielfach":12184,"Ã¼tze":12185,"rÃ¼stung":12186,"obile":12187,"samer":12188,"vorschlÃ¤ge":12189,"perrt":12190,"Ã¤sser":12191,"ĠParade":12192,"ĠWeltanschau":12193,"ĠExekut":12194,"ĠHerzen":12195,"ĠMangel":12196,"ĠGeldstrafe":12197,"Ġbeschloss":12198,"Ġfestzu":12199,"ĠAllgem":12200,"ĠArbeitswelt":12201,"ĠverlÃ¤ss":12202,"vestitionen":12203,"holfen":12204,"Ġtem":12205,"ĠDeutschlands":12206,"ĠStere":12207,"Ġgestartet":12208,"ĠSchlacht":12209,"ĠMittelme":12210,"ĠInternationale":12211,"ĠMinus":12212,"Ġfolgten":12213,"ĠÃĦrger":12214,"ĠHuber":12215,"Ġdrauf":12216,"Ġkurzfristig":12217,"ĠReihen":12218,"jahren":12219,"urteilen":12220,"Ġgesellschaftlich":12221,"sprung":12222,"Ġgetrieben":12223,"ĠRegulierungs":12224,"andidat":12225,"Ġlauter":12226,"Ġmittlere":12227,"ĠbestÃ¤tigen":12228,"Ġwiderspricht":12229,"strukturen":12230,"ĠFleischkonsum":12231,"ĠEmissionsredu":12232,"ĠNews":12233,"ĠprÃ¤sentierte":12234,"ĠMerkm":12235,"Ġurb":12236,"ĠTierschutz":12237,"ĠAugsburg":12238,"Ġgespielt":12239,"Ġverbundenen":12240,"Ġrasche":12241,"ĠWeltklim":12242,"ĠkÃ¼ndigen":12243,"ĠAkteuren":12244,"Ġtransparent":12245,"Ġerinnerte":12246,"ĠbenÃ¶tigt":12247,"Ġjuristische":12248,"ĠSensibilitÃ¤t":12249,"omitees":12250,"Ġnachvollziehen":12251,"News":12252,"Ġgewisser":12253,"Ġverteidigt":12254,"Ġkonzentriert":12255,"ĠAargauer":12256,"ĠBemÃ¼hungen":12257,"ĠExpert":12258,"ĠMaximal":12259,"ĠAtomkraftwerke":12260,"ĠKolumne":12261,"ĠRangliste":12262,"ĠElektroaut":12263,"Ġspezifische":12264,"Ġparad":12265,"Ġerledigt":12266,"Ġseparat":12267,"ĠrÃ¤umt":12268,"ĠSammel":12269,"Ġnormalen":12270,"ĠLetzteres":12271,"GeschÃ¤ft":12272,"Ġindirekten":12273,"ĠKlinik":12274,"ĠWidmer":12275,"Ġunternommen":12276,"Menschen":12277,"ĠFlugticketabgabe":12278,"Ġfinnischen":12279,"Ġbremsen":12280,"ĠVogt":12281,"Ġstoppen":12282,"ĠTrinkwasser":12283,"ĠErtrÃ¤ge":12284,"ĠLancierung":12285,"Ġpatriarch":12286,"ĠenttÃ¤uscht":12287,"ĠEmittenten":12288,"ĠGlaubwÃ¼rdigkeit":12289,"Ġerleichtern":12290,"65":12291,"Block":12292,"Kinder":12293,"MO":12294,"band":12295,"borg":12296,"busse":12297,"gÃ¼ter":12298,"kÃ¶n":12299,"karten":12300,"kÃ¼nftig":12301,"riz":12302,"svp":12303,"ww":12304,"waffen":12305,"ywood":12306,"Ġ.":12307,"erhÃ¶hung":12308,"stÃ¤r":12309,"onente":12310,"ĠSÃ¼nden":12311,"Ġderselben":12312,"undar":12313,"ĠDossier":12314,"ĠAgr":12315,"orter":12316,"Ġmessen":12317,"ĠEffekte":12318,"ĠMy":12319,"ĠMir":12320,"Ġzuverl":12321,"ĠhÃ¤ngen":12322,"ĠFe":12323,"ĠFund":12324,"ĠFabrik":12325,"ĠKim":12326,"elo":12327,"iguren":12328,"rot":12329,"ross":12330,"ĠVÃ¶":12331,"Ġdenselben":12332,"mengen":12333,"Ġgriff":12334,"ĠRick":12335,"ĠRap":12336,"Ġverant":12337,"Ġverlie":12338,"Ġversprach":12339,"Ġvermittelt":12340,"entag":12341,"Ġsichere":12342,"ĠUster":12343,"agra":12344,"ĠSchr":12345,"ĠSchal":12346,"ĠHitz":12347,"ĠVerÃ¶ffent":12348,"ĠVermittlung":12349,"ĠIngenie":12350,"ĠInsofern":12351,"Ġbeendet":12352,"ehrte":12353,"Ġausbauen":12354,"imeter":12355,"ĠAnzeichen":12356,"ĠFront":12357,"ĠCal":12358,"schafft":12359,"vermÃ¶gen":12360,"ĠErfolge":12361,"ĠErziehungs":12362,"ĠErmitt":12363,"ĠReport":12364,"Ġabgew":12365,"ĠBekennt":12366,"ĠKonrad":12367,"ĠKonstru":12368,"ruh":12369,"ĠSpÃ¤ter":12370,"ranch":12371,"ĠberÃ¼hm":12372,"ĠBerufe":12373,"zeitung":12374,"Ġweiterzu":12375,"ĠWirksam":12376,"Ġbrut":12377,"ĠMilliarde":12378,"Ġwillkommen":12379,"ĠgrÃ¼nden":12380,"wicklung":12381,"ĠPersonendaten":12382,"wirk":12383,"Ġherunter":12384,"ĠGesetzgebung":12385,"Ġgutgehei":12386,"Ġgescheiter":12387,"slÃ¤nder":12388,"odox":12389,"ĠDav":12390,"ĠÃĦusser":12391,"ĠProblematik":12392,"stÃ¤ndigen":12393,"ĠAutom":12394,"ĠKranke":12395,"Ġkommende":12396,"Ġwovon":12397,"Ġ2001":12398,"ĠmÃ¶glicher":12399,"Ġweitem":12400,"ĠPlur":12401,"ĠMarktanteil":12402,"ĠRegierungschefs":12403,"ogenen":12404,"eimann":12405,"Ġoftmals":12406,"ĠKlassen":12407,"getreten":12408,"Ġbefried":12409,"ĠHaushalte":12410,"ĠPreisig":12411,"ĠVersicherer":12412,"Ġsicherer":12413,"ĠPrÃ¤senz":12414,"ĠBeitrÃ¤gen":12415,"ĠBesitzer":12416,"ĠMosche":12417,"errt":12418,"ĠIhrer":12419,"fsburg":12420,"ĠVertretern":12421,"zusehen":12422,"Ġzunehmenden":12423,"Ġprofitierten":12424,"mÃ¶glichkeit":12425,"ĠWarren":12426,"arry":12427,"Ġerfolgte":12428,"ĠGesetzesentwurf":12429,"Ġmassgeblich":12430,"Ġquer":12431,"ĠVolkspartei":12432,"ĠAbteilung":12433,"ĠWohnungen":12434,"ĠJustizministerin":12435,"Ã¤chtigen":12436,"urteils":12437,"Ġflor":12438,"ĠBÃ¼rokratie":12439,"ĠKolleg":12440,"ave":12441,"Ġbedingte":12442,"Ġpsychischen":12443,"ĠVisa":12444,"Ġabsoluten":12445,"sprÃ¼nglich":12446,"ĠÃ¼brig":12447,"Ġanstatt":12448,"Ġgekauft":12449,"ĠZuletzt":12450,"Ġextremen":12451,"Ġfossile":12452,"Ġkulturellen":12453,"ĠzurÃ¼ckgezogen":12454,"ĠIndividual":12455,"omosexuellen":12456,"Ġbliebe":12457,"ĠSelbstbestimmungsinitiative":12458,"Ġderartige":12459,"ĠKaffe":12460,"Ġchristliche":12461,"Ġradikalen":12462,"ĠVerkÃ¤ufer":12463,"ĠGeneralsekretÃ¤r":12464,"Ġabsehbarer":12465,"kompeten":12466,"lÃ¶hne":12467,"Ġtheologischen":12468,"ĠSprecherin":12469,"Ġpotenzielle":12470,"Ġlandet":12471,"ĠfÃ¼llen":12472,"ĠBaby":12473,"ĠStÃ¤rkung":12474,"ĠgegrÃ¼ndete":12475,"ĠBemer":12476,"Ġreichlich":12477,"ĠSchmidt":12478,"ĠNormalitÃ¤t":12479,"Ġkurzen":12480,"Ġdamalige":12481,"Ġregionale":12482,"ĠFrauenrentenalters":12483,"ĠdrÃ¤ngen":12484,"ĠFreundin":12485,"ĠglÃ¼cklich":12486,"sprechung":12487,"ĠVirus":12488,"ĠRabatte":12489,"ĠBorussia":12490,"ĠStadtpolizei":12491,"ĠstationÃ¤ren":12492,"Millionen":12493,"ĠverstÃ¤ndlich":12494,"Ġvolkswirtschaft":12495,"ĠReprÃ¤sentanten":12496,"ĠFelix":12497,"Ġselbstfahrenden":12498,"ĠNotenbanken":12499,"ĠvorÃ¼bergehend":12500,"ĠStaatssekretariat":12501,"Ġunabding":12502,"ĠIndonesien":12503,"ĠWesteuropa":12504,"ĠDutzende":12505,"Gruppe":12506,"ĠErosion":12507,"Ġchancenlos":12508,"ĠRapha":12509,"Ġgutgeheissen":12510,"12":12511,"200":12512,"Aktiv":12513,"Agentur":12514,"BLICK":12515,"BAG":12516,"Jan":12517,"Mann":12518,"Rat":12519,"Rente":12520,"Ziel":12521,"aber":12522,"beu":12523,"disziplin":12524,"ede":12525,"echen":12526,"gier":12527,"hi":12528,"har":12529,"kar":12530,"kredit":12531,"modelle":12532,"nutzung":12533,"ror":12534,"seiten":12535,"sÃ¤tzen":12536,"session":12537,"usch":12538,"ugen":12539,"wider":12540,"wÃ¤hrung":12541,"wetter":12542,"zellen":12543,"zessen":12544,"iner":12545,"Ġsank":12546,"Ã¼b":12547,"Ã¼bt":12548,"Ã¼chte":12549,"ĠSn":12550,"atil":12551,"attet":12552,"undheits":12553,"ĠDarb":12554,"ĠDunkel":12555,"ĠDynamik":12556,"Ġeingreifen":12557,"Ġeinverstanden":12558,"ĠAdr":12559,"Ġbaut":12560,"Ġmar":12561,"ĠBIP":12562,"ĠMaps":12563,"Ġinfolge":12564,"Ġinklusive":12565,"Ġzugrund":12566,"Ġzuweilen":12567,"Ġha":12568,"ĠFass":12569,"eitungs":12570,"Ġfahr":12571,"ĠfÃ¶der":12572,"ĠGame":12573,"ĠkÃ¤mpft":12574,"eltern":12575,"elche":12576,"bereichen":12577,"bereitschaft":12578,"ĠIV":12579,"Ġerachtet":12580,"Ġveran":12581,"Ġaufgesch":12582,"ĠTritt":12583,"ĠlÃ¶st":12584,"ĠStabil":12585,"ĠHIV":12586,"Ã¤nz":12587,"ĠNichts":12588,"Ġsoeben":12589,"Ġbegehen":12590,"ike":12591,"Ġstri":12592,"ĠschÃ¼tzt":12593,"ĠAnl":12594,"abgaben":12595,"Ġwirbt":12596,"Ġwiesen":12597,"Ġvorab":12598,"ĠErklÃ¤rungen":12599,"Ġrig":12600,"Ã¶rungen":12601,"ĠBewilligung":12602,"Ġentfallen":12603,"ĠZuerst":12604,"bstanzen":12605,"liefer":12606,"ĠSpenden":12607,"ĠSpiels":12608,"Ġdiesmal":12609,"ĠSoft":12610,"ĠspÃ¤t":12611,"Ġspekul":12612,"ĠUmverteil":12613,"ĠBerufen":12614,"Ġgewohnt":12615,"ĠAufregung":12616,"Ġbetrieb":12617,"Ġklin":12618,"Ġkontra":12619,"Ġkonstat":12620,"fÃ¼hrerin":12621,"Ã¤ufen":12622,"ĠAlten":12623,"flÃ¼ss":12624,"astungen":12625,"ĠWeltweit":12626,"ologin":12627,"Ġ1960":12628,"Ġinszen":12629,"ĠThun":12630,"ĠThÃ¼r":12631,"fÃ¼g":12632,"fÃ¼llung":12633,"ĠEurope":12634,"ischerweise":12635,"ĠPrim":12636,"Ġheiss":12637,"sorganisation":12638,"Ġgleichermassen":12639,"Ġbesseres":12640,"Ġeingeladen":12641,"Ġ73":12642,"ĠUrhe":12643,"ĠOrgan":12644,"Ġweissen":12645,"Ġweiblichen":12646,"ĠElternurlaub":12647,"Index":12648,"ĠSelbstver":12649,"ĠRegelungen":12650,"ĠZahlreiche":12651,"ĠZusammensetzung":12652,"ĠbelÃ¤st":12653,"ubil":12654,"ĠArthur":12655,"ĠDienstleistung":12656,"ĠRentenreform":12657,"ĠMedienmit":12658,"ĠAppl":12659,"ĠWissenschaften":12660,"ĠDaraus":12661,"ĠeuropÃ¤ischer":12662,"ĠSchutzklausel":12663,"Ġlegale":12664,"ĠVerletzung":12665,"Ġknappe":12666,"Ġwahren":12667,"ĠReisen":12668,"Ġabsurd":12669,"ĠInseln":12670,"iverse":12671,"ĠWeiterbildung":12672,"ĠExpertengruppe":12673,"ĠKonkurrent":12674,"ĠMachthaber":12675,"Schweizer":12676,"ĠRegulierungen":12677,"Ġangesp":12678,"verlauf":12679,"Ã¤hern":12680,"felder":12681,"Ã¼hle":12682,"Ġwidersp":12683,"Ã¼tzten":12684,"Ġ1989":12685,"Ġaufzubauen":12686,"ĠLehrer":12687,"partnern":12688,"Ġatt":12689,"ĠWÃ¼rth":12690,"Ġillustr":12691,"Ġdurchschnittlichen":12692,"ĠMediziner":12693,"ĠKnow":12694,"Ġlancierte":12695,"ĠgenÃ¼gen":12696,"ĠElektriz":12697,"ĠEntwicklungslÃ¤ndern":12698,"ĠzurÃ¼ckgegangen":12699,"ĠHerrschaft":12700,"ĠLanghart":12701,"ĠZivilstands":12702,"ĠUrsache":12703,"Management":12704,"ĠMissbrauchs":12705,"Ausstosses":12706,"ĠAnsichten":12707,"ĠtÃ¤glichen":12708,"ĠReligionsfreiheit":12709,"zutage":12710,"Ġrassistischen":12711,"ĠTeilzeitarbeit":12712,"ĠAlliierten":12713,"Bewegung":12714,"Plattform":12715,"ĠSupermarkt":12716,"ĠfÃ¼gt":12717,"ĠÃ¶konomische":12718,"Ã¼stet":12719,"ĠPerspektiven":12720,"ĠBesucher":12721,"ĠVerantwortlichen":12722,"ĠWiener":12723,"ĠAfD":12724,"ĠÃ¼bertrieben":12725,"ĠMarktzugangs":12726,"ĠGlarner":12727,"ifesty":12728,"ĠGebiet":12729,"Ġalternative":12730,"Ġlandesweit":12731,"Ġradioakt":12732,"Ġverringert":12733,"Ġbeauftragt":12734,"ĠARM":12735,"ĠSenioren":12736,"ĠJÃ¼nger":12737,"ĠJinp":12738,"Ġversicherte":12739,"Ġusw":12740,"ĠInsekten":12741,"Debatte":12742,"ĠUnternehmenssteuerreform":12743,"Ġsymbol":12744,"ĠRickli":12745,"ĠWirksamkeit":12746,"47":12747,"AI":12748,"Fall":12749,"Giganten":12750,"He":12751,"ble":12752,"bus":12753,"bart":12754,"eum":12755,"kannte":12756,"kÃ¼ste":12757,"lÃ¤sst":12758,"rin":12759,"rund":12760,"richtet":12761,"rÃ¼ndet":12762,"sud":12763,"wÃ¤ch":12764,"zehnt":12765,"ena":12766,"eration":12767,"eise":12768,"iedr":12769,"star":12770,"stunde":12771,"Ġsal":12772,"Ã¼llen":12773,"Ã¼gend":12774,"onisierung":12775,"ĠSlog":12776,"ĠSGB":12777,"atienten":12778,"scheinen":12779,"schÃ¤tzen":12780,"schÃ¤den":12781,"tech":12782,"ĠnÃ¼tz":12783,"Ġbundes":12784,"ĠMol":12785,"ĠMisstrauen":12786,"ĠFair":12787,"Ġfassen":12788,"ĠfÃ¶rder":12789,"ĠGibt":12790,"ĠGames":12791,"ĠKP":12792,"ĠKnapp":12793,"ĠPut":12794,"ĠPest":12795,"ĠPrÃ¤sidentschaft":12796,"auff":12797,"Ã¶me":12798,"ĠWander":12799,"ĠView":12800,"Ġgeteilt":12801,"ĠRÃ¼ckt":12802,"ĠIO":12803,"ĠICO":12804,"Ġversp":12805,"Ġvernach":12806,"rede":12807,"reckt":12808,"Ġanalog":12809,"ĠLeitung":12810,"ĠTrÃ¤ger":12811,"uting":12812,"ĠUg":12813,"ĠHen":12814,"ĠHMO":12815,"lefon":12816,"ĠVerweis":12817,"ĠVerhÃ¼llungsverbot":12818,"ĠInlÃ¤nder":12819,"ahrt":12820,"ĠsouverÃ¤n":12821,"ikal":12822,"ĠAndr":12823,"Ġpla":12824,"spositionen":12825,"ĠÃ¼bers":12826,"eiler":12827,"ĠCode":12828,"Ġvorgeschrieben":12829,"Ġtheoretisch":12830,"gerin":12831,"ĠEric":12832,"rÃ¤ten":12833,"anteile":12834,"Ġseitens":12835,"Ġraus":12836,"Ġrichten":12837,"beziehen":12838,"Ã¤hren":12839,"ĠVorstand":12840,"ĠGramm":12841,"ĠBezeichnung":12842,"Ġuntersuchten":12843,"lieger":12844,"ĠSpÃ¤testens":12845,"ertrÃ¤glich":12846,"ĠBerichte":12847,"ĠBerÃ¼cksicht":12848,"ĠwÃ¼rd":12849,"kommens":12850,"eigent":12851,"osystem":12852,"ĠAbzug":12853,"telt":12854,"schlÃ¼sse":12855,"kler":12856,"ĠArbeiter":12857,"ĠAuflÃ¶sung":12858,"ĠAufruf":12859,"ĠBeispielsweise":12860,"aufgabe":12861,"autor":12862,"Ġprodu":12863,"rib":12864,"ĠÃľberschÃ¼sse":12865,"flanz":12866,"ĠFord":12867,"quart":12868,"Ã¤ltigen":12869,"ĠNachricht":12870,"wartet":12871,"mittels":12872,"Ġangep":12873,"Ġangewand":12874,"Ġangebracht":12875,"ĠselbstÃ¤ndig":12876,"ĠRechtssicherheit":12877,"ĠDiesel":12878,"ĠMÃ¤ngel":12879,"ĠPress":12880,"ikanischen":12881,"Ġheiklen":12882,"standards":12883,"Ġausgeglichen":12884,"Ġausgewertet":12885,"Ġwohnen":12886,"ĠUrnen":12887,"hofs":12888,"ĠSchulter":12889,"plÃ¤ne":12890,"ĠSchwankungen":12891,"ĠGemeinschaften":12892,"oven":12893,"Ġvermieden":12894,"ĠBÃ¼rgerrecht":12895,"weitung":12896,"ĠZielen":12897,"smilliarde":12898,"ĠSicherung":12899,"Ġchron":12900,"Ġderzeitige":12901,"Ġbefassen":12902,"haushalt":12903,"zeichnungen":12904,"ĠIslams":12905,"Ġbewaff":12906,"Ġsichergestellt":12907,"ĠNetzsperren":12908,"ĠStandpunkt":12909,"kamer":12910,"schwankungen":12911,"Ġgeboten":12912,"regul":12913,"ĠstÃ¤rkeren":12914,"atorin":12915,"volv":12916,"ĠMotor":12917,"ĠMotive":12918,"ĠBerufung":12919,"Ġplatz":12920,"ysi":12921,"ĠGesetzesÃ¤nderung":12922,"konzernen":12923,"ĠAsylverfahren":12924,"Ġlinker":12925,"ĠSenat":12926,"ĠLuftverkehr":12927,"ĠWille":12928,"Ġfolgende":12929,"Ġangesprochen":12930,"Ã¤hig":12931,"ĠWahrung":12932,"Ġautomatische":12933,"ĠHÃ¶hepunkt":12934,"Ġsetze":12935,"ĠLega":12936,"hÃ¤fen":12937,"Ġpsychiatr":12938,"ĠPsychologen":12939,"Ġverschwunden":12940,"ietn":12941,"ĠKrippe":12942,"Vorlage":12943,"Ġrealistisch":12944,"ĠgegenwÃ¤rtige":12945,"ĠTeams":12946,"Ġmoralisch":12947,"Ã¶pfungs":12948,"ĠLesben":12949,"ĠHeimatland":12950,"sionsmilliarde":12951,"Ġzweites":12952,"ĠBetreuungsgut":12953,"Ġexistiert":12954,"ĠMichel":12955,"ĠDenkfabrik":12956,"ĠsorgfÃ¤ltig":12957,"ĠTerritor":12958,"Ġbelieb":12959,"iquid":12960,"strecken":12961,"ĠStraftat":12962,"ĠStraftaten":12963,"Ġpotenziellen":12964,"ĠSpezialisten":12965,"ĠmÃ¤nnliche":12966,"ĠErkenntnis":12967,"ĠVorwÃ¼rfen":12968,"ĠKÃ¼nstler":12969,"ĠNahrung":12970,"ĠWildt":12971,"Ġoberste":12972,"Bericht":12973,"Ġeinigermassen":12974,"ĠSekunden":12975,"ĠÃ¶kologischen":12976,"ĠRenditen":12977,"ĠPersÃ¶nlichkeit":12978,"ĠEinschrÃ¤nkung":12979,"Ġentfalten":12980,"Ġschlimmsten":12981,"Ġeingespart":12982,"ĠHollywood":12983,"Dezember":12984,"ĠAsylsuchenden":12985,"schubfinanzierung":12986,"ĠLiteratur":12987,"ĠGefangene":12988,"konflikt":12989,"Ġinstall":12990,"ĠTabak":12991,"ĠRomandie":12992,"ĠSiri":12993,"ĠStiefkind":12994,"ĠVersorgungs":12995,"Ġabgestimmt":12996,"ĠKreativitÃ¤t":12997,"ĠfrÃ¼hestens":12998,"Ġverfehlt":12999,"ĠSowjet":13000,"ĠVerÃ¶ffentlichung":13001,"%)":13002,"26":13003,"BC":13004,"BI":13005,"EI":13006,"El":13007,"Frei":13008,"Fil":13009,"Hel":13010,"Kultur":13011,"Su":13012,"Tochter":13013,"bia":13014,"fair":13015,"han":13016,"hÃ¼ter":13017,"iation":13018,"ji":13019,"kra":13020,"komm":13021,"kap":13022,"kasse":13023,"kreisen":13024,"kathol":13025,"vgl":13026,"za":13027,"Ġdun":13028,"Ġdynam":13029,"intens":13030,"ĠSyn":13031,"gelegt":13032,"gefÃ¼hl":13033,"atien":13034,"Ġvierten":13035,"Ġeinbringen":13036,"ĠAv":13037,"Ġmill":13038,"ĠEss":13039,"ĠEhemann":13040,"ĠBob":13041,"ĠzugÃ¤nglich":13042,"Ġhol":13043,"Ġfielen":13044,"Ġfreund":13045,"ĠGill":13046,"ĠGeist":13047,"ĠGipfel":13048,"aue":13049,"ichter":13050,"berts":13051,"igner":13052,"Ġgep":13053,"deuten":13054,"ĠverdrÃ¤ngt":13055,"rechnungen":13056,"Ġanschauen":13057,"Ġaufzunehmen":13058,"ĠToff":13059,"andte":13060,"Ġimpfen":13061,"ĠSchreiben":13062,"ĠSturm":13063,"reik":13064,"Ã¤nner":13065,"ĠNic":13066,"ĠVerord":13067,"Ġbewertet":13068,"raogo":13069,"Ġausges":13070,"Ġauswirken":13071,"ĠAnschluss":13072,"ĠAnschliessend":13073,"Ġpublik":13074,"spreis":13075,"ĠÃ¼berflÃ¼ss":13076,"ĠUnia":13077,"ĠUnions":13078,"ĠEinmal":13079,"ĠEinverstÃ¤ndnis":13080,"ĠEinwanderungs":13081,"ĠEinhorn":13082,"Ġjenseits":13083,"ungsverfahren":13084,"leier":13085,"ular":13086,"ĠErwartung":13087,"rÃ¤g":13088,"estand":13089,"ĠOpern":13090,"ĠAusgerechnet":13091,"ĠAusweitung":13092,"ĠVorlagen":13093,"izierter":13094,"Ġentspreche":13095,"logen":13096,"angiert":13097,"stellern":13098,"ĠSpuren":13099,"stechn":13100,"Ġdargestellt":13101,"Ġspann":13102,"ĠEntschlossen":13103,"Ġbringe":13104,"aph":13105,"Ġkons":13106,"udien":13107,"fÃ¼hrend":13108,"ĠParla":13109,"ĠDatenschÃ¼tzer":13110,"ĠLebensstand":13111,"ĠWeltwirtschaft":13112,"Ã¤ltigung":13113,"ĠBeteiligung":13114,"Ġ69":13115,"ĠFlucht":13116,"ĠRechtsprechung":13117,"aktik":13118,"ĠGenuss":13119,"ĠMonopol":13120,"ĠGeldwÃ¤":13121,"ĠAllison":13122,"ioden":13123,"ĠChur":13124,"Ġ71":13125,"Ġ78":13126,"Ġ82":13127,"Ġ87":13128,"ĠbekÃ¤mpft":13129,"drig":13130,"Ġexisten":13131,"Initi":13132,"echselt":13133,"Ġselben":13134,"ĠBrÃ¼cken":13135,"voller":13136,"Ġzusammenarbeiten":13137,"phan":13138,"Ġrechtsextrem":13139,"Ġverschlechter":13140,"Ġ93":13141,"Ġzunimmt":13142,"ĠPatent":13143,"Ġbelg":13144,"ĠNationalrates":13145,"Ġbedarf":13146,"zeichneten":13147,"eidet":13148,"ĠGleichheit":13149,"Ġschnelle":13150,"ositiv":13151,"Ġsicherheit":13152,"Ġsicherstellen":13153,"ĠDarunter":13154,"achteten":13155,"ĠBeluga":13156,"Ġgeltend":13157,"ĠMount":13158,"mÃ¶gliche":13159,"ĠEinzig":13160,"wÃ¼rde":13161,"ĠVerluste":13162,"Ġ1991":13163,"Ġ1995":13164,"Ġ1999":13165,"Ġdraussen":13166,"Anwendungen":13167,"Ġirre":13168,"ĠEbenen":13169,"ĠFortsetzung":13170,"weisung":13171,"ĠNiedrig":13172,"ĠVielzahl":13173,"zÃ¼gigkeits":13174,"Ġ170":13175,"ĠStatistiken":13176,"Ġspeziellen":13177,"Mitarbeiter":13178,"ĠErstmals":13179,"ĠJuden":13180,"Ġreagierte":13181,"ĠgefÃ¤hrliche":13182,"wÃ¼rdigen":13183,"Ġhervorgeht":13184,"Ġnotwendigen":13185,"anstaltung":13186,"ĠImpfstoff":13187,"ĠunverÃ¤ndert":13188,"Ã¶hnt":13189,"Ġmeinem":13190,"ĠProduktions":13191,"Ġantreten":13192,"ĠOptionen":13193,"Ġindividuell":13194,"ĠInlandziel":13195,"ĠBedÃ¼rfnissen":13196,"ĠEntwicklungshilfe":13197,"ĠWolfsburg":13198,"Ġniedrigen":13199,"Ġumfassenden":13200,"mÃ¤ssigkeit":13201,"ĠAssoc":13202,"Ġeinschliesslich":13203,"ĠWeltklima":13204,"ĠAutorin":13205,"Ġsteuerliche":13206,"Ġsubventioniert":13207,"fÃ¤lliger":13208,"Ġetablierten":13209,"ĠMeinungsforschungs":13210,"ĠRheinauer":13211,"freundliche":13212,"Ġriesige":13213,"ĠerlÃ¤u":13214,"Forscher":13215,"Ġdrohenden":13216,"ĠnatÃ¼rlichen":13217,"ĠtÃ¶dlichen":13218,"Beitritt":13219,"ĠSoziall":13220,"Ġeffektiv":13221,"Scanner":13222,"ĠEhepaare":13223,"ĠKlimaabkommens":13224,"ĠkÃ¼mmert":13225,"Ġvorberaten":13226,"ĠIsrael":13227,"ĠGeschÃ¤ftsleitungen":13228,"Ġerledigen":13229,"ĠObdachlose":13230,"ĠmilitÃ¤rische":13231,"ĠJacobs":13232,"ĠZahlungsverkehr":13233,"Ġmonatlich":13234,"ĠvÃ¶lkerrechtlichen":13235,"Ã¼berwachung":13236,"Ġkirchlichen":13237,"vetia":13238,"ĠGefÃ¤hrdung":13239,"Ġschwedischen":13240,"zusprechen":13241,"ĠEuGH":13242,"ĠMandat":13243,"ĠCSS":13244,"Ġvorderhand":13245,"ĠNeuerungen":13246,"Ġkalifornische":13247,"ĠFollower":13248,"ĠIII":13249,"ĠVernunft":13250,"Ġgenehmigt":13251,"ĠGÃ¤ste":13252,"ĠeidgenÃ¶ssischen":13253,"ĠnÃ¤hmen":13254,"ĠSchwyz":13255,"Ġqualit":13256,"ĠHoffenheim":13257,"ĠLinkedin":13258,"Ġseri":13259,"ĠBestrafung":13260,"ĠExperimente":13261,"ĠKroatien":13262,"ĠCrowdfunding":13263,"ranchise":13264,"Health":13265,"sudan":13266,"ĠÃ¼berflÃ¼ssig":13267,"zÃ¼gigkeitsabkommen":13268,"51":13269,"75":13270,"AZ":13271,"Best":13272,"Chr":13273,"Fonds":13274,"GO":13275,"MF":13276,"Netz":13277,"Plastik":13278,"Vir":13279,"Vater":13280,"bam":13281,"bogen":13282,"cal":13283,"da":13284,"freude":13285,"gart":13286,"hias":13287,"iq":13288,"iale":13289,"kas":13290,"klagen":13291,"lement":13292,"manden":13293,"nutz":13294,"nEs":13295,"porte":13296,"rÃ¼ck":13297,"rid":13298,"ual":13299,"utern":13300,"ucken":13301,"vier":13302,"wes":13303,"west":13304,"ĠÂ»":13305,"ĠÃ¶ffnet":13306,"Ġdritt":13307,"steil":13308,"ano":13309,"angt":13310,"angebote":13311,"Ġsass":13312,"Ã¼chter":13313,"ony":13314,"Ã¤ud":13315,"ĠSechs":13316,"gehr":13317,"gehÃ¶r":13318,"schwer":13319,"Ġvierte":13320,"ĠDifferenzen":13321,"ĠAcht":13322,"ĠAspekt":13323,"ĠAhnung":13324,"ĠnÃ¼tzt":13325,"Ġnehme":13326,"ĠEKR":13327,"Ġzugreifen":13328,"ĠFP":13329,"etr":13330,"Ġfund":13331,"ĠGiger":13332,"ĠPack":13333,"ĠPalli":13334,"Ã¶ste":13335,"ĠWeit":13336,"ĠWehr":13337,"ĠWurz":13338,"ĠWesent":13339,"ĠVÃ¤tern":13340,"Ġgrie":13341,"ĠIran":13342,"Ġerwerbst":13343,"Ġverglei":13344,"Ġverschieben":13345,"Ġaufwendig":13346,"ĠTyp":13347,"ĠZigar":13348,"Ġleiten":13349,"ĠSchiff":13350,"ĠHÃ¤ft":13351,"ĠNar":13352,"ĠNorden":13353,"ĠNase":13354,"ĠNGO":13355,"leuten":13356,"ĠVersion":13357,"ĠVeranstaltungen":13358,"Ġopp":13359,"ildern":13360,"Ġstaats":13361,"Ġstolz":13362,"Ġunber":13363,"Ġschar":13364,"ĠAnbietern":13365,"Ġpreis":13366,"Ġsieb":13367,"spital":13368,"absicht":13369,"Ġbeides":13370,"ĠÃ¼berpro":13371,"ĠEinnahme":13372,"ield":13373,"Ġumgerechnet":13374,"ĠJahrzehnt":13375,"Ġtrag":13376,
[...]
